1100100011111011
0010001011011100
1110010011101001
0000101100010110
1011110010001100
1011110001110111
1100110000100000
0000000110000111
1110111001010110
1110000001110000
1100101111010101
0011011001100010
1101010010111001
0011111010010001
1101111111000111
1111010110110100
1110010001010000
0000111010101010
1100000000000110
0001000000011110
1111001000000101
1111011010100000
0001000111000100
0001001000110100
0000000001110010
0000111101100100
1101110111001110
0000111101010101
1110101000011011
0100000110101000
