1100001111101001
1110101001001011
0010001111110010
0001111011110011
0011100110010101
0010110001010000
0010011100010011
1111011101101011
1000110011010000
1111101010110010
0010000000001111
0101011001010101
1111000111111001
1101000111100000
1110000000010111
1101111100101110
0110101001001010
0001000000111101
1110010000010001
0000111110101001
0001010001011011
0001101000100100
1100010110000011
1101010101110111
0001011110011011
1111101111100110
1011100110111100
0001011001000110
1111001000100101
1111010100010101
