1111001011101010
1111001111101111
1111011100100111
1110111101110101
1110001101110100
0100110000010111
1110101000100010
1100011100001010
0001011101100111
1111010101111011
1101011000110001
1011000001100011
1110001100000011
1110101110100101
1101101100110010
1111011111100011
1101000110100010
0000011010111111
1111001001001001
1011011101010100
1011110011000101
1011110101011011
1111101111100111
1111100011110100
0010111001000011
1111100111010010
1111101011110100
0010001101110000
0001110100000101
0001011011010001
