0000100011100011
0000101111100110
0000100101111100
1110111011000101
0000000101111001
0000001011111100
0001000001100001
1111000011000111
0000001100011101
1111010011111100
1110110110000101
1111000001011100
1111000100100100
0000110011110100
1111110111011111
1111110110111100
0000000111100011
1111101001110001
1110010001110000
1110100001000011
0001000011111100
1111110101110111
0001000111101100
0000111100001001
0000001000001001
0000010000100110
1111000101011101
1111010101011111
0000001000101001
1110110010010111
