0000000111010001
0000011110101110
0000000011011010
1111111000000000
0000001111010110
0000111101010000
1111010100000100
1111010111100110
0000110000111100
0000001110000000
1111111000110100
0000011011100011
0000011111100110
1111100010000000
1111001100011010
1111101010000010
0000100101110011
1111011001000001
1111111010011111
0000011000001001
1111111001100010
1111111101010101
0000010111101011
0000000100010110
0000100100011100
1111110011110101
1111110010011010
0000000100001010
0000001011110010
1111111101001000
1111111000010001
0000101010001101
1111110100101011
1111110001000100
1110111110110000
0000001100111100
1110110100101101
1111110010111101
0000001110000100
1110111100001101
1111111100001101
0000001110100100
0000110111111110
1111010110101110
0000010010110001
1111010100110010
0000001100011110
1110111111100111
0000010001011011
1111000001010100
1111101110011010
0001001101100001
1111101110010011
1111100111010010
1111110100100001
1111000011011001
0000100011101101
0000000001111100
1111000100000100
0000001001001010
1111110000110110
1111110100101010
0000110011101110
1111111001011101
0000001110000101
1111100010111101
1111101011010000
0000001100100011
1111101000000110
0000110101011011
1111101001001101
0000010000101001
1111100011110101
1111100100101001
1111110110101010
1111111101001101
0000001001101110
1111001011011101
1111100011110010
0000000100110101
0000001011001011
0000110010010100
1111101111111111
1111101000111101
0000000001100011
1111101101010110
1111101010011010
1111000000110010
1111110000101110
1111100100001100
1111010011111011
1111010010110111
0000000010100100
1110101001101011
0000001100000010
1111101011011010
1111110101000101
1111110100010111
1111011000110101
1111010011110000
0000101000111101
0000110000100111
0000000100000101
0000100100011010
1111101000010010
0000000000100110
0000000010000110
1111011010111111
1111100011111000
1111011110101110
1111110100000001
1111001011000010
0000001001011011
0000101010001110
1111111001110001
0000000001000011
1111101110010111
1111011101000010
1111001110010100
0000001100100111
0000100110001011
1111100111000100
0000111111001100
0000010001100011
0000000110001110
0000011101101111
1111011100011110
1111110000011000
1111101000101010
1111011110110101
0000000101101101
0000000110011011
1111010001110011
0001000001011110
1111010101101110
1111100010001010
0000010110011100
0000101001100110
0000000110000011
1111111001011111
0000010110010000
0000100101011100
0000000110010000
1111111111001000
1111100010011001
1111111101011110
0000001110111110
1111100111111011
1111100110000111
0000001011011110
1111011111000011
0000001011001100
0000111011101011
0000110111000101
1111101010001100
1111111111001000
0000011110001000
0000001110100111
0001000011000110
1111010100110000
0000010111000001
1111100001000101
0000001110011111
1111010111000010
1111110010001010
0000011110001111
1111000101101111
0000011010101000
0000110011101101
0000000001011010
0000001101001100
0000110101001011
0000001010101111
0001101001110101
1111011000011111
0000011000110000
1111111000011000
1111010101101101
0000000111110101
1111101010011000
1111101111010001
0000101010100010
0000100000111001
0000000111000110
1111101110100010
0000011110100101
1111110110110110
1111101001101100
0000110101111000
0000001000001001
1111101111110011
0000011111101110
0001000001111111
0000011011011011
1111111100101000
1111111101100011
0000000011110001
1111010000010110
1111100010111010
0000100000011111
1111111111111011
1111100110110000
0000011111111111
1111001000000110
1111101000110010
0000100100010111
1111101010101000
0000110110110100
1111101111110000
1111101101000111
1111011111101001
0000010000000010
1111100111100111
0000001011010011
0000010110010100
0000010000111111
0000111110000111
0000011100110000
1111111011000100
0000110011110001
1111111010100010
0000001111101011
1111110101010010
0000100001110101
0000001000011010
1111011010110010
0000111010110000
1110111100111000
1111011011100000
1111110100011101
1111110010011000
1111110001011010
0000001101011101
1111010000000100
1110110011111011
0000001001100111
0000011001100110
0000011001000011
0000011110011111
1111110010110011
0000101000000100
1111110101011110
0000110101011110
1111000110110001
1111111101000100
0000001110001001
1111110010000010
0000100100010000
0000100111011011
0000011000111011
1111001100110100
1111101110100001
1111000111000100
1111011100010100
1110110011101001
0000010001001111
0001110000001101
1111110111011001
0000100111011010
1111100011000111
0000011111101001
0000110011111001
0000001111101000
1111111010111010
1111110110001111
0000100100000001
0000100111000110
0000010001110011
0000111000100011
1111111111110000
0000000101011010
0000101100110011
0000001001110000
0000011110000100
0000100011011111
1111100111111011
0000011100000001
0000110000000000
0000110110011111
0000001011010101
0000010110111011
1111111110110110
1111101100011000
0000010001111001
1111100001011001
0000010001111111
0001000101110111
1111100000010100
0000011010100001
1111111110000101
1111100101101111
0000100001011111
1111111010111001
0000100010101101
0000100011100110
1111011011101101
0000000001101000
0000110110011111
0000100011011000
1111111011110000
0000000011011100
1111101001000001
0000011000000001
0000001111100111
0001000100111111
0000011010000110
0000011001100010
0000010101111001
1111010011001010
1111011100101001
0000101111011011
0000001000111001
1111011011100010
0000010111111001
0000000000101011
1111100000010000
1111010000001010
0000010010111100
1111110111000010
0000101000010100
0000100100101111
0000101100110000
1111100101011001
1111110000000111
1111000111110001
1111110011101101
0000111001110101
1111011110001110
1111111101010100
1111010110111010
1111100110110011
0000000110100101
1111111010001000
1111110011010001
1110111010101101
0000000001000000
0000000010001111
0000011101001110
1111110101011110
1111111110000000
0000111111100010
0000010100110001
1111101100110010
0000011000110101
0000000111100011
0000010110011011
0001000100100101
0000010110100110
0000010110110101
1111111011010000
1111111100011011
1111001111010011
1111000100011000
0000000110000000
1111111110110101
0000000011011000
0000001100001000
1111000101111111
1111011101111101
1111100101011101
0000000000000001
0000100001011010
1111110110111111
1111100111111111
1111111101001111
1111011101010100
0000100000110011
0000011101101101
1111100010110010
0000001101000011
0000010111011010
0000011010000000
0000110101001011
0000111000000011
0000101011011110
0000011100001001
1111110100000110
1111011001101101
1111100011101111
1111001111001101
1110110011101001
1111110001010110
1111100110110111
1111110001111110
1111100100111101
1111111111110011
0000001010111000
0000010000001101
1111100101101000
0000101101100010
0000001100011010
0000101101010101
1111100001110011
0000010000100110
0000001000101101
0001010000010001
0000010111111011
1111111111111000
0000001110100011
1111101110110001
0000100100010010
1111101011100010
1111110001010100
1110101111101001
1111100111101100
1111110001111010
1111100100001110
1110111110111101
1111110010010001
1111011101011100
1111011101111011
0000010101100011
1111101100110010
1111100010111000
0000001111000001
0000110011111001
0000001001001001
0000010110001110
0000100001111101
1111011110110001
1111110100111101
1111110110001011
0000100101100011
1111001110001011
1111110100001001
1111111011010010
0000000111011010
1111110110010011
1111111111000101
1111001011101110
0000001001000101
1111111001111111
1111101001110000
1111110000110110
1111010001100001
1111001001100001
1111100010011110
1110110110010100
0000000000010110
1111100101101100
0001001100111101
1111100100110100
1111111010100011
1111111100001101
0000000001100100
1111001000010100
0000001000011101
1111011011100100
0000000001000011
0000011010111011
0000100110110111
1111101101110100
1111101011001110
0000101000111010
1111000101011000
0000001101011011
1111010101111001
1110111110101001
1111001101010101
1111010110100111
1111000010001100
1111001101000100
1111001100010101
1111011011100001
1111011101100100
1111101100101100
0000010101010110
1111111100110100
0000011110111001
0001010011000001
1111100000100101
0000111111000000
1111000000110011
1111100011110111
1111110100111101
0000001001110010
0000010101010101
1111010000111011
0000101000101110
1111101000011001
0000101000111110
1111101100111000
1111101110110111
1110111001000111
1110110011111000
1110011110100110
1110100110000010
1110000000010001
1110001111101000
1110111100011000
1110100111101101
1111000000110110
0000000010010110
0000100111010001
1111111001001011
0001001110011011
0000001001011101
0000111110010111
0000011111010010
0000000000100101
1111110111100010
0000011010110100
0000010010110100
0000001100010111
0000000110011101
0000001101110010
0000010110111000
1111101110011100
0000111011000110
0000100001111011
0000110001001001
1111001111011001
1111111110000011
1110101110001011
1111001111110001
1111001010101011
1110111101000100
1110001101011000
1111001011110001
1111111000100111
0000000111100110
0001000011111111
0000010110001101
0000101100101000
1111101101001101
0000001011111110
0000010010010011
0000100101111000
0000100110010110
0000011111110101
0000011101100000
1111101101100110
1111111101011000
1111110100011111
1111111000001010
0001000000101001
1111110110100110
0000010001011100
1111111111001101
1111011011001111
1111111011100100
1111010010111010
1111111111000110
0000001000100011
1111101101100011
0000010010100100
1111111000101100
0000001101010111
1111110100110001
1111100001111110
1111101111011000
1111110000001100
0000101010101000
1111111100010110
0000000011101011
0000001010000101
1111111111001111
0000001101110110
0000010001011111
0000111010010010
0000001011101010
1111100111001010
1111101000111001
1111110110000100
0001010010100010
0000101011010110
0001011100000100
0000000000001110
1111101010011110
0000011011000101
0000010011110100
1111110001110010
0000100100001111
0001000110101001
0001000101101001
0000011010001110
0000000001011010
0000100000110011
0000001000001001
1111100010111011
1111111110010011
0000000010010110
0000100000001101
0000010100001100
1111100010001001
0000010110110011
1111100000101110
0000010011110011
1111110010000011
1111101101011011
0000100010000111
1111110000111110
1111111111011110
0000011000001011
1111010000001111
0000010001000111
0000010101111110
0000100101101111
1111111010101000
0001000010110001
0000011001000011
0000011101100101
0000101111000011
0000011000101110
1111111100000001
0000001110011110
0000100001001001
0000010000000110
0000011000110110
0000010111001110
0000100110000011
1111100101010100
1111011101110000
1111111011101001
1111010101010110
1111101011011101
1111110111101111
1111111001100111
1110111110011000
0000011000001010
0000110110101100
0000000010000010
0000000000110011
0000101001011111
0000010111010011
0000001111010101
0000110001001101
0000011100010011
0000100001111010
1111111111110100
1111111001101101
0000100011000111
0000010100010000
1111101110100011
0000011110101000
0000000101011101
1111000010001011
1111110011001011
1111010111100010
0000110000111000
1111111110011100
1111101011111001
1111110100010011
1111110110101000
1111010110100110
1111100111001000
1111110110101011
0000010011101100
0000001100010000
1111101100101100
0000100001101000
1111111000000011
0000110010001101
0000111100000010
1111111001001111
0001010011010001
1111011011011011
0000000010101111
0000011011010101
1111110000001101
1111010011111001
0000010011011110
0000011001100000
0000010100111111
1111011011011010
0000011101111010
1111111101011000
0000000100110101
0000110110000011
0000000111110000
1111100111110111
0000000110000100
0001000101101000
0000101110001100
1111110110010101
1111100110100010
0000000001011001
1111000111111110
1111110111011101
0000001100100010
0000010010001011
0000010000101111
0001000001110001
1111101001101000
1111110001111010
0000011111000111
0000010001111100
0000001011011010
1111111100110001
0000000011011101
1111110101011110
1111100101110001
1111111111110010
1111101101111100
1111111100111010
0000110000111110
1111110110110110
1111111000010101
1111100001101110
0000000101110000
1111010111110011
0000000101000110
0000010111011110
0000010111011110
0000011111110011
0001000111111110
1111001000100110
0000101011110000
1111010111111000
0000111111110000
1111001000001100
0000101000000110
1111101110010011
1111111101111101
1111011000101001
1111101111001000
0000101101110010
0000100000000000
0000000100110000
0000101111001111
1111101111110101
1111111000110100
1111011011110100
0000111010100010
0000010110111101
0000010110100011
1111110010001101
1111001001000011
1111100000101101
0000100111110101
0000000100110111
1111000110111110
0000010010111101
0000000000100011
1111110100000110
1111111011010010
1111011011001100
0000000101101101
1110111101111010
1111010000001001
1111111001110000
1110100101000100
0000011101011010
1111111010000110
1111111011001001
1111111011011011
0000000001101001
1111001110101101
0000011001011101
1111111110001111
1111111000011101
0000111010100110
0000111011110011
0000100001110101
0000001011001011
0000001011100010
1111010011110010
0000101011011010
0000011011111100
0000001101010100
1111000010110001
1111111110010001
0000000111100101
0000000110101010
1111111011000100
1111100101001110
0000001000111000
1111110010010100
1111001000101110
0000010101110011
0000100110001010
1111011110011101
1111011011000001
1111100101000000
1111100000001100
1111110001100000
0000000110000001
0000001000110000
0000011001101111
0000001110011001
1111101101101000
0000100111001010
1111110001001101
1111101011011100
