0000001101110011
0000001010101111
0000000001110011
0000000011001110
0000010110011001
1111001110001000
0000100111000100
0000000110010111
0000100101110011
1111111010001101
0000001000010101
0000011010010110
1111100001000000
0000001101010110
0000001000010111
1111110000010101
1111111110111010
1111111110101011
0000010110110110
1111100001100001
0000001101011110
0000001110101011
1111110111100010
1111111110011000
0000100010101111
0000011001100111
0000001111010010
1111101000111001
0000001100110110
1111010111011100
0000011010000110
0000001100101001
1111111010001111
1111010100101010
1111111001001011
0000010111101001
0000000010111010
0000100111110101
0000011101100100
1111011101111000
0000100010001000
1111001110100010
1111001111110000
0000000000100001
1111110011010111
1111110001110000
0000010101001100
1111010000001110
1111110001001100
1111110000011100
1111011100010110
1111111100010101
1111110001111101
0000100011101101
0000000010010000
1111101101010000
0000001000010010
1111110001000110
0001001110111100
1111111101110110
1111110011000110
0000011111100001
1111110010111101
1111101011010000
1111111001101110
1111111101101001
1111100000001011
1111101100011011
1111110001110100
1111110101010000
0000100011101110
1111011110110001
1111110111110110
1111010101000011
1111011010000111
1111011100011111
0000011010110101
0000001101010110
1111111010001101
0000011111110010
1111101010001010
1111100011101110
1110110000110111
1111111101111110
0000111010011110
0000101100110000
0000011110001101
1111110111001101
0000011001101110
0000011110110011
1111110100010101
1111101001111000
0000000110010001
1111011001000011
0000000010010111
0000001000110011
0000100100111101
1111111111111000
0000011010111110
0000000000011111
1111111101011100
0000001011010010
0000000010111011
0000000110011101
0000010011101100
0000000001010011
1111111100001110
0000001000111111
0000001001110111
1111000100101000
1111101110111111
1111111000100001
1111101000110111
1111101011100011
1111100101011010
0000010001010101
1111001001011011
0000100110000110
1111101011110011
1111011111000010
0000010000001100
0000100000110100
0000101100110100
1111100000111011
0000001101101111
1111011100010101
1111111100100110
1111111110110001
0000001111111011
0000101111010011
0000010000101111
0000100001011110
0000100010100010
0000010000011111
0000100100110100
1111011101010111
1111111011010000
1111001101001101
0000111011101101
0001001000001111
0001001000100001
0000000110011011
1111110111101101
1111110010110010
1111110011101110
0000011010101110
0000100110010010
0000000100001000
1111100100100010
1111101011101100
0000011100111010
0000101011001101
1111010010010110
0000001000100101
1111011010110011
1111011000011001
1111110111100110
0000001110010000
0000110110011010
1110110011100100
1111110101100100
0000011001101001
1111010101110100
0000011110010110
0000001101001101
1111001000101100
1111110110000011
1111110010000110
0000010011101011
1111100110010001
1111111000110011
1111110100000010
0000011001110010
1111011011000001
0000011011000011
1111111010010001
0000001010011100
1110111100010111
0000001000111101
0000001010100110
0000001111011010
1111110100001000
1111101010101011
0000000001101001
1111111100001111
0000101001110000
1111101100010001
1111111001000110
1111010011001011
1111110110101111
1111010011101010
0000010000111111
1111111100011010
0000010111101010
0000000000101101
0000011101001111
1111100100110011
0000011000000001
1111010011101101
0000000011011100
1111111000111111
0000100000101001
1111111100100011
0000011100000010
0000110100001011
0000010010000101
0000101101011110
0000011001101111
1111111111000000
1111101111010111
0000001000001011
0000010100010011
1111110110001000
1111101001011101
0000000010101010
1111101100101101
0000111011000010
1111111000001001
0001000011100010
0000011110000000
0000110000101100
0000110001001110
0000010000000001
1111110111110000
0000011011011011
1111100011001111
1111100000101101
0000010011101110
0000001101111011
1111010111010110
1111110111010010
0000010110110100
0000000011110101
0000111100011111
1111110000110000
0000010110001110
0001010101001100
0000101010000100
0000010100011011
0000001100011000
0000101001111110
1111101010101000
0001010011111111
1111111000010111
1111101000010101
1111011101111100
0000011000110011
1111111010001011
0000001010001101
1111101101110111
1111100000011011
1111010000101110
1111101100010010
1111111101101000
0000000011001011
0000111010001001
1111110101011100
1111111001111000
0000011011000000
1111101010100100
1111100001110000
0000001000100101
0000101111011010
0000010000111110
1111111101001101
0000101011101100
0000010000101110
1111101110001000
1111011101111000
0000101000001101
0000010010111001
1111110111000110
0000100100110011
0000111010001011
0000001100101001
0000001011100101
0000101110010101
0000101100101111
0000011110001111
1111111110101011
1111001111011110
0000011110000001
1111110100001010
0000110000010110
0000000010100100
1111000101010010
0000000010101101
1111010010000101
0000001001010010
0000011100010110
1111111110101001
0000011010011011
1111111010111111
1111010011011100
1111101110001111
1110111001101110
1111101001111100
1111100100010011
1111111000110011
1111100000000000
0001001001111000
1111101000110111
0000000101101111
1111101111100110
0000110111010110
1111110010001001
1111111110010101
1111110001101110
1110101101100001
1111111000001010
0000100101111100
1111010001100000
0000000100001111
0000000011011000
1111100001110110
1111111001111000
1111111011000100
0000100100101001
0000001111101100
0000010000001011
0000010101001100
0001000000100011
0000011011101101
0000001111010001
0001001100101001
1111101001101001
1111111101000000
0000001001001111
0000000110110011
0000010101111010
0001000010100110
0000001100000001
0000001101101101
0000001101110101
1111100110011010
0000110001000100
0000001101010001
0000001111111101
0000001110001111
0000000011111110
0000010000100011
1111101110011010
0001000111101010
0000011101010100
1111101100101101
0000001110000100
0000011010000011
1111100111100100
1111111011100000
0000100001110001
1111110111010010
1111101100011000
1111110101000110
0000000110101110
0000011111110100
1111100000111010
1111101101111000
1111110100101000
0000000011001000
1111000001000000
0000000011001100
0000001000110110
0000100001111100
1111011010100111
0000010101101111
0000010010101100
0000110001000010
0000100100100111
0000001011111000
1111111100111111
1111011000001000
1111010111110001
1111110100000011
0000000010111111
1111010001110111
0000100011101011
0000010110011001
1111111111010001
1111011111110100
1111111101000110
0000001100110110
0000100111011001
0000110100110111
0000011010111111
0000011111101011
1111011010101110
1111100110101001
1111111101001000
0000101000111100
0000010101111010
1111101101101000
0000011001001000
0000100000101110
1111010001010101
1111100010010000
0000001001110101
0000010100111101
0000010101001011
0000001000011100
0000011101001000
0000001011011011
0000101011000101
0000010001011100
1111110000001110
0000100100010101
0000011101001100
1111101011010011
0001001011000000
1111110011010110
0000000100100110
0000011001001101
0000011001010110
0000001110101000
1111100001000110
1111000100001000
0000011001110010
0000100110111101
0000011011100001
1111101111001001
1111010101100011
1111101110101010
0000001100110110
1111110011010100
0000010000000101
1111100100110000
0000000001100100
1111101101110011
1111011111100010
0000100001001101
0000010010111000
1111001111111100
0000101001100010
1111010010110110
0000000000001111
1111111000011110
1111011001101011
1111111011001100
0000010000110001
1111111011110111
0000100110001011
0000011101010001
0000110000101000
0000100111010110
0001000000010011
1111011100010111
1111010000100011
1111100000011000
1111110001010101
0000011100000100
0000011111000110
0000100110000011
1111110000111000
1111101010101011
1111110011110111
0001000001001110
0000000101011101
1111011110011001
1111101100011101
0000101111100000
0000001110011011
0000001010100011
0000011110110110
0000010111000011
0000010110010001
1111110111100101
1111011000000110
0000101111101100
1111100111111101
1111101011100001
0000110110100000
1111111111001011
1111100010001111
0000100100111011
0000110011111110
1111101111111101
1111010100100110
0000000000110111
0000100111111000
0000010001110100
0000100011010000
0000010000010000
0000110000100000
0000011101111011
0000001100000001
0000100100101011
0000100010011100
0000001010011001
1111101100011000
1111111110001110
1111011100001110
0000000100000000
0000010111101110
1111110010000111
1111001111101010
1110111001000101
1111110010011001
0001000110001010
0000000101101111
0000001010000101
0000100000001001
0000010001100111
1111111010010000
1111001010110001
1110110100000111
0000000001001100
0000010010100101
1111111100000000
0000011101110011
0000001010000100
1111101000011010
0000101000001011
0000011000110101
0000100000110001
0000110100001111
0000101100010110
0001000101000111
1111101001110100
0000001001100011
0001010001010010
0000110110100111
1111100101001001
0000010100100001
1111010011100100
0000010001110100
0000101001111111
0000100110011111
1111010101001000
1111111111010111
0000100110101101
1111111110010001
1110111110101110
0000101011100101
1111101010100000
1111110111101001
1111110001110000
0000001101011000
0000101100011100
1111100101100000
0000010011101101
1111111000011011
1111101110010111
0000001101010110
0000101001111001
1111110111100001
0000010010000001
0000110100000101
1111111111101000
0000000100111011
0000011000101011
0000010010010000
0000010011010011
1111101100110110
1111001001001101
0000000001100011
1110011010010101
1111111100011001
0001000001000000
0000011001101010
1111100010000110
0000010110111000
0000011111110011
0000110001010100
0000010111100011
0000000000101111
0000011000101001
0000010011011000
0000110111001110
0000101101001001
0000001010010101
1111111111001100
0000100011111001
0000001011111001
0000001011010110
0000100110010100
1111111101010110
1111110000100001
0000101010010011
1111100111011101
1111110110011011
0000111101001010
0000100000110110
0000111000001001
1111011111111010
0000000111011011
1111100110101100
0000111101110100
0000101001110001
1111111111011000
0000010111101000
1111011100101010
1111001101110010
0000111001100111
1111110010111011
0000000100011101
0000100000001100
0000000010000111
0000011100001011
0001010001000100
0000000010100000
0000011010010001
1111100110101100
1110110011000101
1111100011001000
0000000101101000
1111110101101101
0000101101000000
0000011100001101
0000001010001111
0001001000100100
0001001101011100
0000001010100010
1111110101101000
0000011111101001
0000010101100010
0000001001100100
1111101000000100
0000100011100100
0000000000011011
0000110110001100
1111110100111100
0000010011111111
1111100100101010
1111010001011100
1111111010111001
1111111101010100
1111001101101100
1111100000010000
1111101001010000
1111111101001111
1111101110000001
1111111110001011
1111110100010000
0001011111011010
0000001111111100
0000010110010101
0000110010101010
1111111111000111
0000011111100011
0000011101110010
1111111010111010
0000001001011001
0000111101100110
0000000010100011
1110111001111111
1111001110110000
1111100011100011
1111100101110110
0000010011110110
1111011101011101
1111111011110111
1111110111100000
0000010000000011
0000001000010000
1111100100111100
0000010011010111
0000001000111101
1111111110101010
1111110010011101
0000101010000101
0000000100000001
1111111011100111
0000010000011110
0000010111000100
1111100110001000
0000000000100000
0000000010010010
0000000001111110
0000001001111001
0000111001100011
1110101100111001
1111100001000010
1111110101100110
0000000001110111
1111110010101111
1111111110000011
0000000010001111
0000000011011101
0000110100100101
1111110111000010
0000001010111100
1111101000111010
0000101010101001
1111110100010101
0000010111100100
0000000110000101
0000101101010010
0000000000011010
1111101000100111
1111110111110100
1111100011100111
1111011000001000
1111111111010011
0000001011000011
0000100000000110
0000111001110100
1111100111101101
0000100110001010
0000110010100001
1111101011110001
0000011101000111
1111101100011101
1111100001101001
0000000100000000
0000100111011111
1111110000001101
1111011110110001
0001001010010000
1111110111011001
0000100111100100
1111011011001101
0000110001000111
1111010010100000
1111101101101000
1111100011100101
1111011001011101
1111101011101011
1111111000010001
1111010001111011
0000010001011011
1111111111011000
0000101111110011
1111110010010011
1111110111110000
1111100111011011
1111000111010010
1111000100001011
1111100100011101
0000001001111011
1110111100001001
1111111011110110
0000011110010111
0000001010001011
1111001000010000
0000000100010000
1111111110000011
1111111001111111
1111001101001100
0000000101010111
1111110011011110
1111110110110000
1111111100101100
0000000001011100
0000010001111000
0001000000111000
1111110000100000
1111010000100001
0000010111100100
0000101010101000
0001000000110101
0000100011011001
0000000001010001
1111100110000111
1111010010001000
1111110000110111
0000111110010011
1111110000101001
0000010010000010
0000010010101111
1111011100001101
0000000110011101
1111011000110101
1111001111111101
1111100101111111
1111011111101000
1111000111011011
1111111011011100
0000000000100001
0000100100101101
0000000110011010
0000001100110110
1111111110101000
0000100101110111
1111101110111100
1110111011011111
0000110001010101
1111111100110001
1111110001100111
1111110010011100
1111101011100101
1111111101000010
0000101110000011
1111011100110010
1111110100010111
1111011010000101
