1111100000010101
0000100010101000
0000111000001101
1111111111100110
1111111000100010
1111100110101001
0000001101100001
1111110101000011
1111000010111111
0000011010010100
0001001011110110
0000101100001000
1111110111000110
0000000011101001
0000011000011010
0000010011100100
1111100000101111
0000011001001101
0000101000101110
0000011100111110
0000011110101101
0000101001101010
1111111000010000
1111111001110000
0000010011100101
1111001010110000
1111111110000011
0000011010010011
1111011000010010
0001010001111010
0000110001101101
1111111110000010
1111101000000011
0000100000010000
0000100010011100
0000001000011110
0000010110011011
1111100000111000
0000011110001001
1111011110000111
0000010010011000
1111011100010100
0000000001001010
0000000110011111
0000000111011111
0000001101100100
0000101010111111
1111010101010011
1111001001111111
0000010000011101
0000010011001010
0000000100000100
1111110100110001
1110111001000100
0000011011101110
1111101011101010
1111100010100000
1111111001010110
1110111000011011
0000100100011100
0000000110011001
0000011110101111
1111101000110101
0000000111010111
1111111011001001
0000010101001001
0000000001110001
1111101011111001
0000100110001110
0000001110001110
1111110000110011
1111111000011100
0000111111001001
1111110111100001
0000000000100111
1111110000110110
1111100101101000
1111111111100111
1111010000111110
0000010101101011
0000100001100100
1111111110010010
1111110100111110
1111110111110000
1111110100001011
0000001101110011
0000000001101001
0000000100001001
1111110011011010
0000000110011000
1111011000100001
0000010001111100
1111111101111011
1111111001110101
0000000011011001
1111011100111000
0000110111111110
1111110100010000
1111100100010101
0000001110111000
1111111010110010
1111101001100111
1111011010100110
1111101111100101
1111011101001010
1111100010011010
1111010101000001
0000100100011101
1111110101101111
0000000000101100
1111100010101011
0000101100011111
1111010011001001
0000000000111000
1111110001001100
1111111101110010
0000011000100101
0000010011001011
1111111011001001
1111101010010111
0000100101101100
1111110010000010
0000011001011011
1111111011001100
1111101110110001
1111111111000111
0000011110000011
1111110000100101
0000010001110000
1111001110100011
0000010101010010
1110101000001111
0000001100110101
1111110100110111
1111110101011001
1111111000011110
0000000011000111
0000000110001010
1111011110010010
1111101100101101
0000010010001100
1111001100000111
0000001100011101
1111110101001100
0000010101110101
0000010110000110
1111110100000011
0001011110101110
1111111110101101
0000001111100111
0000101010101001
0000000100000001
0000100001001011
0000100101000101
1111011000111010
0000010100011101
0000011110100010
1111001001111110
0000011111011011
1111010111101100
1111010001101011
0000011100000111
1110001011001000
0000000001111111
0000000100011101
0000001000111111
0000010110100010
0000100010101010
1111110000101100
1111100101111001
0000011000001111
0000001010100101
0000100111010100
0000011000010001
0000001001101110
1111011000100011
0000000011000110
1111111110001111
0000000110101101
0000011000100000
1111010110101110
1111110111101001
0000110001000100
0000000101111100
0000011001110101
0000011011111001
1111100011000101
0000001010010101
0000000000111011
1111011010111111
0000000110110010
0000000000110110
1111110011100001
0000000010010001
1111101001000100
1111111010101011
1111100010110001
1111100001111111
0000100101101110
0000001011101011
1111110100101010
1111011001010001
1111110011100010
0000011111101011
0000000011010011
1111101101101001
1111101101101001
0001000011110011
0000001101000111
0000011100011011
1111110011001101
0000000011010010
0000101111101001
0000000111110001
1111110110101010
0000101001110100
1111111010101000
0000101001000010
0000101100111100
1111011011000001
1111101111011001
0000000111100011
1110101111000000
0000000110111010
0000001001101010
1111110111010110
0000001111000011
0000100010100001
1111110110100110
1111111001110011
1110110110001111
0000011110011010
0000101000110000
0000010000001011
0000100101110110
0000100000110011
0000101101101000
0000100100111101
0000100011101000
1111111000000010
1111110001010100
0000010101011000
0000001011110101
0000000010111000
0000100100001000
1111011111010110
1111011111100011
1111110111110010
0000011000100001
0000010110111010
1111100100101100
1110111001101101
0000011100000001
1111111110101111
1111111111011011
1111111100110010
0000010001000011
0000100101011000
0000111010001000
1111000101111101
1111110011100100
0000010001111100
1111001111010101
1111010001010101
0000000101001010
0000000000101100
0000111010010101
1111110000011110
1111101011111011
0000011101101000
1111111000010000
1111101011010110
0000001111010101
0000100000001010
0000010000101100
1111000110000100
0001000010010000
0000000101010000
1111111000010111
1111111100000100
1111101111001000
1111100101111001
0000010011100001
0000000001001100
0000100000010101
1111101100101011
1111100000001110
0000011100000111
1111010111110000
0000100100011011
1111110000001011
1110110100010000
1111001110011111
1111001101100011
1110111111001101
0000011010111101
0000010010001000
1111100111010010
0000011101100000
1111111010110110
0000000100110010
0000000100110011
1111101010100111
0000001110000100
0000001111110010
0000100011011101
1111111000111111
0001000111011101
0000110110111001
0000100001010001
0000100000101010
0000000111011011
0000000111100110
0000011010010010
1111100111001100
1110111010101110
1110101101110000
1110110100010101
1111000000111011
1111000001011001
1110111100111110
1110100100101011
1111110110010101
0000010100101001
1111100011110001
0000001000011100
1111111111000011
0000000111110000
1111011110101011
1111101011001010
1111010000100111
0000000100011101
1110110110110100
1111100011100110
1111000001110101
1111100101011010
0000100111110010
0000011010010000
0000100011100001
1111011010010101
1111110100001000
1111100100101000
1111001101010111
1111001100010010
1110111010111000
1101101110011110
1110101000001011
1110011001100110
1110100010110011
1110110100000101
0000011100110110
1111111011110000
0000010101100001
1111101011011110
1110111011111010
1111110000100010
1111000110001111
1111110101101011
1110100111110000
1111111001010100
0000001011111110
0000100111100001
0000001000010111
0000011111101100
0000010010110101
0000001111000110
1111111011110101
1110111001101011
0000000010010010
1111010110101111
1111011110010100
1110100000111010
1111000100010100
0000000101001110
1110101100101110
1111101001101111
1111110110101011
0000101011000101
1111100010001100
1111101101000111
0000010011110101
0000000101011010
0000001000010111
1111010101010101
1111110000011111
1111100011010111
1111011110100110
1111000101011100
1111101101010111
1111101000100110
0000000110100010
1111111001110000
0000100010111111
0000011000011111
1111110000010011
0000001111111001
1111111100001100
1110111110011100
1110111100001011
1111110000100101
0000000000100101
1111111001111111
0000010101011000
0000010111100010
0000011100000001
0000100101101110
0000100111101101
1111111110110001
1111001110010010
0000000100000111
1111011100111000
1111101110100101
1111000110101000
1111111110000000
1111111011001000
1111111100001110
0000010001001100
1111100001101000
0000110100111100
0000010100100011
0000100000011000
1111011000110110
0000000010100100
0000011101100001
1111100100001010
0000000000000001
1111110100000101
1111111101000010
1111110001110100
1111111101010011
0001000000000011
0000000101100001
0000100000011100
1111110111110101
0000100000111001
0000010010010000
1111111000011100
0000011101110110
1111100100001010
1111101110010111
1111101001110110
0000000100111001
0000000110110101
1111010100110101
1111100101100011
0001000101111001
1111101001110010
0000001001001011
0000001001001100
0000011010000100
0000011101001000
1111101101100001
1111111001110000
0000101100000110
1111110111101110
0000000100101100
1111011011011101
0000100111000100
1111101001010011
0000000111001110
0000000011010011
0000111000100111
0000010000111101
1111101010001011
1111011111100100
0000000010011011
0000110101011001
1111111101010010
1111101001000010
0000000111011011
1111111001101000
1111111101011010
1111110010011111
0000011101011101
1111111010100000
0000001000010001
1111111101011000
1111010011111111
0000010100100101
1111101110110110
0000000000001000
0000101101111101
0000101001001100
0000101101110000
1111011110101110
0000011000101000
1110101011010110
0000100000000100
1111110000010110
1111011110111000
0001000010110001
0000001100010011
0001000001110111
0000001101111001
0000010101111101
0000000100111011
0000000110001000
1111100111011110
0000101100110001
0000011000011001
0000100111111111
1111101110101111
0000011111001111
1111100111001110
1111010011110110
0000000000001011
1111011011110001
1111010111111011
0001000110100011
0000101010101010
0000100100011110
0000100011111000
0000011001001100
1111110110100010
1111110000111011
0000010111111100
1111110111111010
1111111100110010
1111111100110001
0000010010010100
1111110111011111
1111100101101011
1111101011110110
0000000100010100
0000000010000010
0001000000110001
0000011111011100
0000110011001001
0000100001010000
0000000101110011
0000101111101110
1111100110001011
1111110101111010
0000010111111010
1111111101011100
0000011001101000
0000001001000000
0000011010100010
0000001110001001
1111101110110100
0001001000001010
0000101111111000
0000001111100011
1111100111100001
0000110011100110
0000101101100000
0000101111000000
0000100001011000
1111110011100010
0000011101110111
0000001011011011
1111110001001001
0000001000001001
1111111110001110
1111110101111010
0000101100011011
0000010011010010
1111110110110100
0000000111111110
0000010001000101
0000101111001111
0000010001101110
1111111000010111
0000101101001001
0001011110101001
0000010110101010
0000101011010110
0000001011000001
0000100000001011
1111111100110100
0000011101100011
1111110101010010
0000110011000101
1111011110001100
1111101110001101
0000011000100110
1111100010010000
0000101001000111
1110111110110001
1111111110110010
0000000010011001
0000010010111010
0000001011001011
1111101000010010
1111111011001110
0000111010110100
0000001001111001
1111101110101111
0000001000100111
0000000000100111
1111111100011000
0000000100111001
1111100100010101
0000110000011100
0000110000100111
0000101010011100
0000011110001001
0000100010011011
0000010011001000
1111111110011101
1111100111000110
0000011100111111
0000000000110101
1111010100000011
1111101111011110
1111000110100001
1111111111111111
0000011001111000
1111101011000101
0000000111010110
0000101100110101
0001100001111101
1111011110001101
0000010100010101
1110100101000000
1111111110101110
0000000110000110
0000100000000111
1111010001001001
0000011100001111
0000011000011100
0000100001000010
1111011110101011
0001000000000101
1111101101011101
0000001101110011
1111111101001111
0000110101011010
1111000110111011
1111101001100110
1111111111000011
0000000000101100
1111111100101101
1111110111010101
0000001101100010
1111011010011011
0000010001001011
1111001110101100
1111100100010110
0000001110110011
1111111110101110
0000001110100110
0000001111100000
1111010001000000
0000100000011111
0000000011100100
0000000000000111
1111001011001000
1111011110110111
0000111101111011
0000000001101101
1111011111110010
1111010101000101
1111101011100101
0000000001001001
1111100010100001
1110110000010000
0000110111011001
1111100100000011
1111110001100111
1111111100101001
0000011000100010
0000011100100001
0000101011101000
1111100101001001
1111111100101100
0000100011001010
0000010010100001
1111000001001000
1111100011100001
0000000111011111
1111100111111001
0000000011011100
1111101111111000
0000001111010001
1111111010100010
0000111010110000
0000101101100011
0001000101001111
1111100001101101
1111111101000011
1111100010000111
1111100001110100
0000000010001101
1111101110001010
1111001100100110
1111100101000001
1111111001001011
1111011001010100
1111000001011111
1111011101011011
0000100111100110
1111110111111011
0000110001001011
1111101010101010
1111010011100101
0000010100000001
1111110000001101
1111001100010111
1111110101100000
0000010101011100
0000010100100001
0000100001101101
1111100111110011
1111101001000011
1111110101000000
1111111001111100
1111111101101001
1111010100001111
0000011100101000
0000000101101101
1111110000001010
0000011000011111
1111100110000010
1111111010110101
1111110100111000
0000001001001011
1111110101100001
0000000010001101
1111010001101100
1111010100000001
0000001110010000
0000001011101011
0000010001111000
0000000010110111
1111110101100010
1111111111110011
0000001100101010
0000011001111110
1111100100110101
0000011101010111
1111101000101101
0000111000011010
0000001100110001
0000001101010111
0000010010000010
0001000100111110
0000010101110111
1111010101101000
0000110111010001
0000101011001011
1111110011111110
0000000001101000
0001000100110100
0000111110011010
0000011000101111
0000001010011101
0000001110000100
0000011100111001
0000101001000000
0000000011101101
0000101011101011
0000001110100010
1111110111100010
0000011011010001
0000001010110001
0000001100001101
1111100000011010
1111110011101001
0000000000110001
1111010011011111
0000010000110110
0000100011000010
1111101111100001
1111111011101001
1111100001010111
1111111111100100
0000001011011011
1111100100111101
0000100000000100
0000110111000111
1111101011111110
1111101011111101
0000100111100110
1111101100110110
0000011000001001
0000000010001000
1111110001100100
0000010101110000
0000100010000110
0000001100011111
1111101011100010
1111100100111000
1111111010010100
