1111111110111110
1111100010111011
1111010101000000
0000010010011101
1111011001001101
1111111101011010
1111111010101101
0000011000111111
1111110000100010
0000011100001101
1111101000011110
0000011101101000
1111111001110101
0000101110100110
1111110001110101
1111001110001011
0000000010000010
0000010001101011
1111001011001011
1111101010101010
0000111000000001
1111101001100110
0000011110101010
1111110001110110
1111111010101111
1111101110011001
0000000111110001
0000001101000111
1111111101100111
1111111000111111
1111001011111010
0000100101101100
0001001011100001
0000111001100101
0000111000111011
0000000001011101
0000111000000111
1110111000111100
0000100000000100
1111011101100010
0000100010101000
1111100000011011
0000100001001000
1111111001110000
1111111101101011
0001001000110101
0000000001110001
0000101000101100
0000100101100000
0001001001100101
0000001111010000
0001010110001000
1110111000011111
1111000010111001
0000000110110000
1111011010011011
0000011001111111
0000000101001101
0000010000010010
1111111000001010
0000000001001001
0000110001101001
0000001101011110
0000101010101000
1111101110111101
1111111010010100
1111010110011000
0000000001010001
0000010011010100
1111110110001111
0000010111101110
1111111000101010
0000001001101000
1111100101011110
0000100000110000
0000000101111100
0000010000001010
1111011001000010
0000100101010010
1111110001100011
0000000111100011
1110111000111100
0000010111011110
1111100110010000
0000011010101000
0000010101101001
1111111110100011
1111101011110011
1111111110110111
0000111110010101
1111111000100110
1111100110111110
0000001010100101
0000010100100010
0000110010000001
0000001000100000
1111111010101011
1111010100000001
0000100101101000
1111100011111110
1111100011101000
1111111000110010
0000000001100000
0000010010111100
1111111010011111
1111111010101111
0000010101001001
1111101100001000
1111101101111110
1110110110001001
1111110010111001
0000001000101011
0000011110101010
0001001100010111
1111111111101011
1111111000000000
0000001010111001
1111101110010011
0000000100110010
0000000110100100
1111010100011110
1111101100101101
0000000110100101
1111110111101111
1111101101111011
0000101000011110
0000010101000000
1111101100100101
1111111000011101
1111111111101001
0000010001100110
0000011100100000
1111000111000011
1111111100111010
0000000010111011
0000010001011000
1111111100001100
1111110100011110
1111011010010100
0000001100101101
1111011111011100
1111110011011101
1111101000000000
0000001111111110
1111110000011000
1111101110111101
1111110010101000
1110111101100110
1111111111110101
1111011101000110
0000011111110100
0000010000100110
1111111000011011
1110111111100101
0001000101101101
0000101110001110
0000001100001110
1111110100010111
0000000110000110
0000001010011100
0000100100000111
0000100011011010
0000000100101011
1111101100110000
1111101100110011
1111001101000011
0000000101011111
0001000100110101
0000010011001011
0000010001100000
1111101111000000
1111100111011011
1111011010001010
0000000100000101
1111100011001111
0000010110001010
0000100000100111
1111101100100010
0000000001011110
1111110001010011
1110111110110101
0000000011111110
1111111111011110
1111101011001101
1111101011010110
0001010011101011
0000101001010101
0000110011101001
0000010110000101
0000001111100010
1111111110110111
0000001001100100
0000000010000000
0000101110111100
1111111111111001
1111011111110001
1111001111100001
1111010110110000
0000100101000000
0000010000111100
0000101000100011
0000011000111110
0000001111011110
1110111011100100
0000100110011111
0000000010110000
1111100011011101
1111011000010100
0000011001011100
0000001000010010
0000010100001100
0000000010000110
1110110000111111
0000000010001000
1111111100100100
0001000011010110
1111110011110110
0000001001011001
1110101010111001
1111110110001000
1111101110100000
1111111101010100
1111100000101001
1111011111011000
1111100010111000
1111111000101100
1111110100000011
1111101110001101
0000100000100110
1111010001000100
1111111101110010
0000011110100010
0000101100110101
0000011100001000
1111000110100001
0000101000000101
0000000110000011
0000100000010000
1111111000001101
0000010111010101
1111100010011010
0000010001100011
0000011011100011
1111101111111111
0000101101000110
1111010011100010
0000010110100110
0000000100111000
1111100001100001
0000000111011111
1111111100101001
0000011000010000
0000000011101100
1111011100100011
0000000010101110
0001100010110000
1111110010001001
0000000000000110
0000001110010000
0000001011100010
1111111000110011
0000111111011100
0000000011111100
1111111000011011
0000001101001011
1111111111101010
0000001010001011
1111110011101000
1111111010010100
1111011101001011
1111111001101011
0000000001000001
1111001010111111
0000001100001011
1111110111111111
0000011101000101
0000010001010100
0000000011001101
0000000111100000
1111101111000011
0000110011111011
0000010011000001
0000100000101101
1111111000010011
0000110000010000
0001000000010111
0000000111010000
1111000001000110
0000011011100010
0000100000000011
0000010101111100
0000001001110100
0001010110011101
0000001010001000
0000111010110000
1111101100111110
0000010010010111
1111111011010111
0000010101100001
0000101010010100
0000011101100001
0000101100010111
1111000011101111
1111111001110011
0000101000010100
0000101001101011
0000000100001000
0000001001010100
1111100110110010
1110110111010100
1110100110111111
0001000001100111
0000101110001101
0000010000000111
0000010100100101
1111100011010111
0000010011101111
0000000111010111
0001000011100100
0000101101011000
1111011101100011
0000011110111001
0000010001110001
0000001001100110
1111110011000111
0000110011010010
0000101001110101
1111110011010100
1111010010001101
0000010101000001
0000100011000001
1111011001100000
1111110110101010
0000101000010100
1111110111100000
1111101001011111
0000110000010101
0000101011010000
1111010111000111
1111100001011111
1111011011101101
0000100110101011
1111001110001000
1111001001001101
0000001100011100
0000010000110000
0000000100110011
0000100100001100
1111111011100010
0000001000111101
1111100001011010
0000001000010101
0000011100000011
0000101000011100
1111100100011101
0000111100000100
1111111101100000
0000101101111011
1111010110110111
1111101011111001
0000101001011001
0000000001110100
0000001111000001
0000011101011000
0000110100100010
0000011111010110
1111110110001110
1111111100100100
0000010110110001
0001000111010100
0000000010011100
1111101000110111
1111110001100010
1111101111010100
1111100010100101
1111101010011001
0000001100000011
0000000010100000
1111111010001110
0000101100001000
1111111100001111
0000100111011011
0000000111001001
1111111001010010
0000010110001001
0000001111001010
0000001111000100
1111010011101110
1111011110011111
1111111110001111
1111111100011100
1111110010010101
0000000110000101
0000010000000111
0000000010001000
0000000100001110
0000000111001011
1111100110100000
1111111001000010
0000100000110001
0000100000011000
0000100011100110
0000010011111101
0000010111101100
1111011010110001
1111110001111100
0000010011011001
0000000000101111
0000100000000111
1111010001010001
1111110011011100
1111101011000000
1111100110001010
0000001001100110
0000100111111011
1110111000100001
1111010000000001
1111110011010101
0000000001110111
1111111010010011
1111100000000001
1111101011001000
1111100101101000
0000000011101011
1111111010001001
0000001110011011
1111101111101111
0000011111100111
0000111010011001
0001001000010000
1111101110111000
1111000100001010
0000000011110010
0000100100011111
1111011010101100
0000101010100001
1111101011000100
0000110000000000
1111100100100111
0000001001100111
0000000011001111
0000111100000011
1111101011101000
1111110101010000
1111111000001101
0000011000100000
1111111001011101
1111000111010110
0000011110110110
1111111101011000
1111100011011111
1111110000110110
0000101111011010
1110111101011011
0000001100011001
0000010100110110
0000100001101011
0000000110111000
0000111000111010
0000001111110101
0000001001101011
1111100010101100
1111101101000000
0000001101010010
0000000000010000
1111110100111000
0000010101011010
1111110011111010
1111111110010111
1111011101001110
1111100100000111
1111111010110011
1111100000010110
0000000000100000
0000000101111011
1111100110110000
1111011110111111
0000110000110001
0000001101101111
1111111100010111
1110101100011100
0000110010110011
0000010011110111
0000010111100001
0000100011101011
0000010001001010
0000000000010100
0000011010100011
1111111101110101
0000001110111111
1111010001100001
0000101111100110
0000001101011110
1111110110111010
1111101100110110
0000001110110011
0000011100101010
0000100101000100
0000011110111011
1111010111100101
0000010101011100
0000101100101110
1111001111100100
1111111111101100
0000101011011000
0001010011000100
1111101001100001
0000011011011100
1111111100010000
1111011110011000
1111110000111011
0000001010110011
1111111110010011
0001001011110001
0000001111011010
1111111100110000
0001001011000111
1111100000101101
0000001011101100
1111110101010100
0000101100111110
1111100001111100
0000100011110001
0000100101010101
0000011001111100
1111101101111101
0000110011000100
0000101010111100
1111100111100100
0000100000110111
1111111111111000
0000101001100110
1111010100011110
1111011100111111
1111111011101011
1111101101100010
1110111101001010
0000011100100010
1111111011010000
1111010110001111
0000101001011111
0000000001010100
0000000000111100
0000010011000101
0000101011100110
0001011000011110
0000000010111010
1111000001010010
0000111111111111
1111001111100101
0001000110011101
1111111101100001
1111001110000110
1111010101011000
0000001011100110
1111111000011001
1111000011011000
1110110010000110
1111010001111000
1111110100101011
1111100100011001
1111110011110100
0001001101101001
0000110011010101
1111010111000111
0000101010101010
1111101100101011
0000101100001111
0000010101111011
0000100000101101
1111100110101001
1111100100011101
0000111001000110
0000000101010111
0000010000110110
1111101000100100
0000101100011000
1111111111111111
0000101001001000
0000010010001110
0000010111110010
1111011010001011
0000010110100000
1111111111111110
0000100000010100
1111100001000110
0000000100111101
1111000010001111
1111000001100110
0000010001011111
0000001101011100
0000001001111000
1111100001001010
0000000011010010
0000010011010011
0000111011110111
0000101101111110
0000011100100010
1111100110110110
1111111111110010
1111101001011101
0000000111000001
0000110000110010
1111110011010010
0000011110011001
0000010001011100
0000100101001011
0000001110111100
1111111101110000
1111111011110101
1111100100110010
0000010111101001
0000011000010001
0000011111111000
1111110011000001
1111111001001101
0000011111110110
0000101001010111
1111111010110011
0000001111001010
0000000000110110
1111111101001011
0000000011000101
0000001010011010
1111111110011011
0000010110010010
1111010001100001
0000011111111000
0001000101000101
1111101010111110
0001000010101011
1111111101110000
1111011010110101
0000000010011001
1111011110010101
0000010111101101
0000110101101100
0000001010101011
1111111100111100
1111111110000001
1111011001101100
0000010110011001
1111111100000101
1111111100001101
0000011010100100
0000000101110010
0001000010001100
1111011111111110
0000000100000011
0000101011101100
1111011111110001
1111011101110111
1111100010011001
0000011101111000
0000100100011001
1111011011110011
0000100000101100
0000111011110100
0000100000110010
1111111111110010
0000000011000110
1111001110000111
0000010110111000
0000101000110110
0000100011100111
0001000101011100
0000000001101101
0000010011101011
1111111101111000
0000010001000111
1111110111011000
0001001000101100
0000011101100111
0000001110111000
0000000010001010
1111000101100001
0000100111111001
0000001000111000
0000100000101010
1111001101001010
0000011010010000
0000001101000101
1111001000011110
1111110110000001
0000001000010010
1111001110111111
0000110110100100
0000001001010010
0000101110010001
0000010011100111
1111101100001001
1111110101111111
0000001000010111
1111111100111110
0000000010110010
1111111011101001
1111100101101000
0000100111001011
1111010010110110
1111001010000111
0000001010010001
1111110010011010
1111011000100010
0000010011110100
1111001100000101
1111101110110100
1111111101111111
0000000110010101
1111001100000011
0000001111111000
1111111001101011
1111111000011110
1111111101110010
0000101000010111
1111100010010101
0000000001100011
1111011011000010
1111101111000111
1111101000100111
0000011010111101
0001001001100000
0000001000111100
1111101100011110
0001011000010111
1111110110110111
1111010111011110
1111000010100111
1110110110011001
1111101111110100
1111111100000101
1111110110111101
0000000101000001
1111101111101101
0000000011011010
0000000110111111
1111010000101101
1111110101110111
1111111000000111
1111101110100110
1111000110111000
1111111110110110
1111101000011000
1110111011101010
0000011101011001
1111101111010101
0000011011010000
0000000011100010
1111101100111010
1111000100110101
1111000110100001
0000001010110110
0000000000111101
1111110101001011
0000011010100000
0000011110111000
1111111101001001
1111110011111110
0000100101000011
0000000100010110
0001001100100101
0000000101000000
1111100101011111
0000000110111101
0000001010101111
1111001010110001
1111100101101111
1111110000110000
0000110000111111
1111011010101100
0000000100000111
1111111111111001
0000000100001001
0000100111101000
1111011110001111
0000011110110000
1111011111111000
1111111011111011
0000101101111101
0000001110111011
1111110100001111
1111001101001110
1111101011000110
1111110101111001
0000001010000101
