1111111100101010
0000010010100001
1111100110100011
0000000101011000
0000000001110011
0000111010001110
0000101110101001
0000100000001110
0000000111000101
1111111111010000
0000101101011100
0000100011000110
0000001011110011
1111110100110110
0000010110001001
1111001100000011
0000010110101100
0000010000110010
1111111001001101
1111010001011101
0000100110010111
0000101001111001
0000001111000011
0000010110010100
1111010101000110
0000001100100001
1111100110000101
1111011000110011
1110111111001011
0000101101011001
1111000000010000
1111110111010100
0000000110101011
0000000100110110
1111000111000100
0000011110100100
0000101101111101
0000001101010001
0000000111100110
0000000010111100
0000001111101001
0000000111010101
0000100000110000
1110111011000111
1110110101010100
0000010101100011
1111111111100001
1111111011100011
1111111011100010
0000011101000010
0000011010101110
0000001011100011
1111001010111010
0000011011001000
1111101100010110
0000110111111000
0000100001100110
0000010000100000
0000110001000000
0000000001010001
0000011100100110
0000000101010001
1111100001100000
0000000000010100
0000110101100101
0000011101110000
0000100001111000
1111110001000111
1111110111010000
0001100010110101
0000001101010011
1111100000111011
0000000001001010
1111111111111100
1110100011001101
0000010100000000
0000010110000011
1111101001010000
0001001001010000
0000001001011000
0000001101101111
0000011010010001
1111100100110001
0000001100101001
0000011011001010
0000011010111011
0000100101000100
1111110110110111
0000001011011110
0000011111000011
1111110101000011
0000101010110111
0000001100101110
0000001010100100
1111011111100100
1111110000100111
0000100100010111
0000010100100101
0000100100110000
0000110010111011
0001000111001010
0000011000001000
0001010100001101
0000011001101001
0001000001001001
0000110110010011
0000000111001010
1111000111001110
0000001100110001
0000001110010011
0000001110001010
0000011110101011
1110101101010000
1111100000001001
1111110110110010
1111001001001100
0000111000000110
1111001100010100
0000010000011110
1111011011111101
0000010101000000
0000010010010010
1111111011001100
0000000011011111
0000101000100101
0000110111111010
0000000010011111
0000001110011001
0000001010110001
1111000110110011
0001000001001010
0000011010001100
0000011000000101
1111110100000000
0000111010101001
0000101010101100
1111111011011010
0000011110110000
1111110101001101
1111110010001001
1111111011010010
1111011110100000
0000010001100111
0000010100111000
1111101101111110
0000011011011111
0000000101010000
0000001101110010
0000001100111111
0000011011011111
0000101000000011
1111100100001001
1111011000101110
1111010011111011
1111010000110010
1111010011111010
1111100000101110
1111100011100000
1111011011011111
1111000001111011
1111101111011111
1111111010101110
0000010111000100
0000010100000001
1111001011100011
0000100111000111
0001000010100011
0000011011100100
0000000001010001
0000000100100001
1111101101011111
1111001101011100
0000100110010001
1111111010001010
0001011011111101
0000000110001101
0000010000000101
0000011001111011
0000010100111011
1111111101000110
1111001100001011
0000001100000100
0000100010110001
1111101100000101
0000011100001101
1111110110010110
0001001101000010
1111011010011001
1111101111110110
1111111111011110
1111010011011110
0000001100000101
1110111011000110
1111000101010111
0000010100000011
1111101110010001
1111101010111001
0000010111100110
0000010010011101
0000101100000111
0000010010100100
0000101010101011
0000001000111000
0000101011010110
1111111100110001
1111111001111101
1111001100001110
1111111011001001
1111100110011111
1111100011111011
0000011101000101
0001010100110000
0000010110000011
0000001011010100
1111110101010101
1111011100000001
1111100011010100
0000000000011010
1111001111010110
1111100101011101
1111010111111001
1111111000110101
0000101110101001
1111010100001100
0000000101100001
0000010001010100
0000110000010000
0000011100111001
0000001000110000
0000100111101110
1111110000110101
0000001101100000
1111110100101010
1111011010111110
0000001100110010
1111111011100101
1111010001001111
1111111100001010
1111010100011011
0000000000110010
1111000111100001
0000011110010101
1111100111001011
1111110111010011
1111111011111000
1111001101101111
1111100100111101
1111100101010101
1111100000001101
0000011000011001
1111011010101110
1111101001110110
0000100100010110
0000001001000011
0000100010101100
1111110110110011
1111101011110010
1111111000000111
1111011001110100
1111001010000010
1111010000100101
1111100001110100
1111101101000011
1111101000111101
1110110011011011
1111111000001111
1111111011010000
1111011100011100
1111111101110110
1111110101000101
1111101000101100
1111010010000110
0000000000101010
1111110000111011
0000101111010111
1110110111010010
1111110110001101
1111001100000011
0000111000111101
1111111110111010
1111111100100000
0000101010001111
1111101111001000
0000001010010010
1111110001101010
1111111100100110
1111010101110000
1111001111011111
1110111111000011
1111001011000010
1110111101010101
1110110001011101
1111011000000010
1110101111100111
0000010100111110
0000000011101110
0000000111101101
1110100111001111
1111111010110111
1111001101100101
1111110010001010
1111101110000011
1110111000010000
1111001100010011
1111101110110101
1111010100001011
1111111110101011
0000111001100100
0001110110100011
0000110001110101
1111101110001011
0000000010111000
1111111101110000
0001011100100111
1111010111101101
1111101100001011
1111011010000100
1111101010000100
0000000101011111
1111110100110100
1111011100111110
1111001110100111
0000010010010010
0001001001010001
0000111100011110
0000101000011111
1111101100001100
0000000110111000
1111011011000110
0000100101001100
1111110101000000
1111110100101101
1111111110000010
0000010010000000
1111011011000000
0000010011110001
0000001111011011
0000110000001110
0000001011110101
0000001001001011
1111111000100011
0000010000100000
0000001101000000
1111111000110101
1111111110110010
0000011010001111
1111011111011111
0000000100111100
1111101101110101
0000001111011011
0000010110110111
0001001110000010
1111110000011100
0000001100100110
0000001100001101
0000111111001011
0000010000101100
1111110011001000
1111101010100101
1111111000011110
0000011100000101
1111100011111010
0000101110010010
1111010101100011
0000110101001100
0000001011010100
1111110010100010
0000000011111011
0000100100111010
0000010010110000
0000001100100110
0000001111001011
0000000110100001
1111110101101110
0000001010010110
1111100010001110
0000101101101010
0000000110011010
0000110100110010
0001000111101011
0001001001101110
0000000000100101
0000101000011111
0000000101110011
0000010110000011
0000011001011010
0000101100111001
0000011000101101
1111110110100010
1111111111101101
0000011010110010
0000000000011011
1111000111011000
1111110010001010
1111101100110101
1111111100000110
0000111001011111
0001000101011000
1111110100110000
0000000111110101
0001000101111010
0000001111010110
1111101111111011
0000100100001011
0000011010100110
1111111010001010
1111101111011000
0000100100000011
0000001110100011
0000100011110010
0000100101000110
0000110101101101
0000111000110000
0000011101011100
1111101101001110
1111111000101100
1111101001110001
0000001110010111
0000010100100010
0000010111000011
0000001010111101
1111101010100011
1111100101101111
1111100010100111
1111110101111000
0000000000011110
0000000011101101
0001010001110001
0000010000101000
0000010111101101
0000011110100010
0000001010010011
0000100010101111
1111101110010010
0001000011010001
0000011001110101
0001100010011010
0000110111101111
0000111001101110
1111111011110101
0000000111101100
0000000111001010
0000101010111010
0000010101110111
0000001100100110
0000010000111100
1111011010000101
0000010101010011
1111111010010000
0000000101000111
0000001011110000
0000011101001101
0000001001000111
0001001000001010
0000001110100001
0000010101111100
0000011010011010
0000011111110000
1111110000111011
0000001010101100
0000100011110000
0000111000001001
0000101010000001
0000000111110001
1111110101011001
0000010111010101
0000100010100111
1111110000011101
0000111100100010
0001010010110101
0000010000101101
0000100101101011
0000001100000000
1110111000010001
0000000001001100
0000001101101010
1111101011001111
1111110110111010
1111011001011110
1111100001100111
0000011001010111
1110110110100100
0000000101110100
1111110111100110
0000110001101010
1111100101100010
1111000100110101
1111111111110110
1111101001001010
0000100110001100
0000111110111011
0000001111111110
0000000101111011
0000000101011000
0000011000100000
0000101100110011
0000000011000110
0000011100000000
0000000010010111
1111101001000111
0000011001101111
0000010001100110
1111010000110100
0000011001001101
0000000011011101
0000010110001100
0000000110111110
0001101000011000
1111111001100001
1111011110101110
0000001001111100
1111100010101111
1111000110100001
1111010110110100
1111111001000001
1111101100111001
1111000110010010
1111100110100000
0000000110101100
0000010011101110
0000010100000101
0000010010001000
1111111000100101
1111111011111001
0000011100110010
0001001100100110
0000000110111001
1111001011101110
0000000111111101
0000000011110001
1111001010101110
1111111000001110
0000000110011101
1111111110010011
0000101101001010
0000011101011001
0000011101001101
0000000101001001
1111100010101010
1111111100111010
1111111011000101
1111011101001001
1111011001100101
0000000010000000
0000100101110111
1111101010101001
1111101111001111
0000000110010111
0000011111111110
0000100010010000
0000010110111011
0000010100100110
1111110110110110
0000001011110011
1111110111100110
1111100010000011
1111111100110001
0000011111000001
1111101111110001
1111101000100001
0000001110110100
1111111000100100
0000010011101100
1111111111111100
0000011001111001
1110111010110100
1110111001011101
1111011011001101
1111001110111110
1111111001100010
1111101100111001
1111011101010100
1111101011101011
1111101010000001
0000110011010101
1111111000001011
0000011011011110
0000100010001101
1111111101111011
0000010110101011
0000001101011100
1111011111010011
1111100110001011
1111001001100110
1111000001000101
1111110000011000
1111111100011111
1111111001001000
0000001000010000
1111101111000100
1111100011100100
0000000000101001
1111101111100101
0000110100001111
0000010001011001
1111100011010111
1111101101100001
1111110010011110
0000000110100000
1111100000010101
0000010111000010
0000000000001110
1111110110011111
0000011001011001
0000000000111001
1111010001101100
1111111000101001
1111110011101111
1111010110100111
1111101101100000
1111110111111111
0001010110011110
0000001100111010
1111111110110011
1111111000011010
0000010000101101
0000100000101100
0000101101011100
1111111000011000
0000000011111100
1111111101110110
0000001111011000
1111111101100111
1111000011011000
0000000000000101
1111011000111100
1111011011010000
1111001101000100
1110110010100000
1111001110011100
1110110001000110
1111010010110000
0000000000000111
1111111010111001
1111111100101110
1111000001110101
1111101010111001
1111111101100011
1111011000100001
1111110001101001
0000110111000011
1111010011000011
0000001001111011
1111011010001110
0000010100010100
0000011011010010
1111100100000000
1111110011010000
0000101000101100
0000011001111111
0000101010010111
0000011111101100
1111101001100100
0000011100110011
1111110011101110
1111001000111010
1111101101000011
1111100010011001
1111000101001100
1111111100100110
1111001101010010
1111100011000011
1111011111101010
1111010101000101
1111101001010110
0000100010010101
0000101100111010
0000010110111001
0000001011011011
0000001111110011
0000010110101101
0000110111010100
0000110001000111
1111111101101000
0000110100011001
0000001011100001
1111100101011110
0000000000011100
0000010001100100
0000010100010100
0000111010000001
1111111101100100
1111111001011110
0000111111010100
1111111010100000
0000110110010000
1111100111010111
1111111111000011
0000000011100001
1111010110010101
1111101111000100
1111110001011111
1111000111000010
1111111001011011
0000110111100011
0000010101111101
1111010011000110
1111011101110101
1111011001101110
1111111001010010
0000001111010101
1111101101111000
0000110110010011
0000101011000101
1111000000011101
0001001110100001
0000001110010110
0000010010010010
0000000001100101
0001111010100000
1111101100000011
1111010100101010
0000011101000011
1111100101011000
0000001100011100
1111101110010100
0000001110000010
0000001110010100
1111100110111100
1111111111111100
0000011110100011
0000100000111100
0000000100110111
1111111010111100
0000001101010110
0000011011001110
0000000101001010
0000010110011010
1111101010001101
1111111111101000
0000011011001100
1111010100001001
1111110110101111
1111001101000010
1111101000011000
0000011001000111
1111011011110101
0000001010001000
1111111100000001
0000001110010010
0000100101000010
1111100001011111
1111111000010111
1111110010001110
0000001110101010
0000001111001010
0000000010111111
0000011001111000
1111111001000000
0000000101110101
1111110011010001
0000001101110011
0000101111101111
0000110000101111
0001000000110101
1111101111111110
0000010111011010
1111111011011111
1111111001111011
0000011000011000
1111100101011010
0000100001101010
1111110110100110
1111110000110011
1111111011111110
1111001000100010
0000001001111110
1111000110010001
0000101010011001
0000011110101011
0000000001111011
1111111001111010
1111010000101010
1111110011011110
1111011001110000
0000100000011011
0000101001110100
0000000111001100
1110101101100111
1111111011101010
0000001011100111
1111001001101000
0000010011110001
1111000011001100
