0000011111000110
0000100111101111
1111101000000111
0000010110101000
0001111000001010
1111110010011111
0000111110000100
0000100110000011
1111110011000011
0000010010101111
0000100110111010
0001001111000100
1110100000001110
1110101000011001
0001000111010001
0000101101110100
1111110001110110
1110100101010011
0001100110000000
1111001110010100
0000011001010000
0001011011000010
1111100101111011
0000101000101111
1110110000111001
0000001011101010
1111001011000101
0000011010100110
1110011000011101
0001110100010111
0000100011010010
0000101010101001
1111100110100011
1111011011100100
1111111011010011
1111001011010011
1111111011001100
1111011111101111
0000010010111001
0001101100111011
1110111100101000
0001000110111101
1110110001011000
1101011001101110
0001110111011000
1110110111101010
0000100011100111
1111010000101110
1101001110100000
1101100000110110
1111011100001100
0000100111111110
0011010011010010
1111011110111011
1110110111010001
0001001001011000
1111101100010100
1111010100001000
0000001000101100
0000011101011001
1111010000101000
1111001000100011
1111110010000101
1111100110111100
0000000011010001
0000010100000101
1111011010001001
1111101001000001
1111110010001000
1111010000100111
1111110111100101
1111111110100101
1110100101010111
0001111010010110
0001111011010001
0001100101010101
0000111100101001
1111100111001100
0000110000100110
0000000111101111
1110010100000100
1111100111010111
0000111110101110
0000100000001001
1110001110100110
0001010011111110
1111011000000010
1111000100111100
1111001110001100
0000101000000101
1111101101011001
1111001000111111
1111101001001111
1111111100110001
0000001101000111
1111011000111110
1110111110100101
0000101011001001
0000000101100011
1111001010100000
1111110111000101
0000001001111001
1110010110000011
0000100111001100
0001100000000010
1110101111110110
1111101101111101
1110100111111110
0000100000101010
1110111111110110
1110100001100110
1110011111110010
0001001010000110
1111101000101001
0000011111010111
1111110100101010
1111101010010001
1111100011010110
1111101011001010
1111011010111010
0001000100101001
0000100101110110
1110010011000011
0001001011110101
1111000000110001
1101000110101010
1110111011001001
0001010100110000
0000010011101110
0000100111000010
0000011111101011
1110011111000000
1111001111011000
1110001101101100
1110101111111110
0000000000001001
0010000101101000
1110001000010010
0000100000001110
0000001100011001
1111111101010001
0000100001100011
0000001110100010
0000001110000110
1111010111011101
1110111010111001
0000101100111010
0000110100111101
1110111000111000
1110110010000000
1110011111100111
1110010101101111
1111011101010011
1111101111110111
0000111111010100
0000101110000101
1110101100101111
0000010000110000
1111101111000001
0000000110010010
0000101101011010
1111100011010100
1111111101010001
0001010011011100
0010000010010011
0000010101011111
0000001110110011
0000010000110110
1111101110101110
1111110010000001
0010010100111011
1111100001101101
0000100100100011
0000011001010000
0000111110111001
1111100011001011
1101111011000011
0000010000001111
1100101011010010
1110111100011000
1110010100100010
0000101111100001
0000001111011001
1111010110001011
1110100110001101
1111011011001000
1110100111011010
1111010101000011
0000101011110011
0000011111001000
0000001001011101
0000010111011111
1110110010001101
1110110011111110
0001100110101011
0001110010110010
0001000010111111
0000010000101110
1111111011100011
0000110001001101
0001010010110100
1111001101011001
1111110101110011
1110010100101110
1111110001011100
1101101010111100
1111100101110001
1110011000101001
1110010101100111
1110111011011100
0000100011101100
1110011101100011
1110100000101100
0001000000110111
1110011000010110
0001101100100110
1110100110101001
0001010001100010
1111111010001111
0001000110101010
0001100110010101
1111001000111001
0001001100000000
1110001011010000
1111011011010011
0000010001000110
1111001100111010
0001101111000111
0001110001100101
1111011100001001
1110111011011011
0000111111000011
0000110011011000
1111010111110111
1111011000101010
1110111111111011
1111110101000110
1110111111100111
1111010011110001
0000010100000000
1110100001010110
1111101111011110
0000001010100100
0001100001011011
1111101001100010
1111110011100100
0000101000110010
1111111000001111
1111011110111101
1110111001011111
0010001101001000
0001001111100001
0001001001000000
1110000010100100
0001001011100001
1111101110010111
1111110000101100
1111011110000111
0000010010101000
0000101000010100
1101100001100100
1111010000101010
1111011101111100
1111011001010100
1110011110001100
0000001000101111
0001111001011110
0000110010110100
0001010101000100
0001100011100110
1111011111010011
1110100001101011
1111100101110110
1111011011110110
1111000110010010
1111010100010110
1111001001000101
0001101101111011
1111110101110101
1111111000110000
0000111101010110
1111001110101010
1110100011101100
1111001100010110
0000001011001110
0001011111001100
0000001111011011
1111000000001000
1110100000001000
1111110000010100
0000001111001100
1111000011100000
0001001001100100
0001001101000111
0010111001010101
0011000110111110
0000010100101100
1111101001101110
0000000101111011
1111010100110101
0000000011101110
1111111110111110
1111110011100001
0000000111110000
0001011011100001
0010111111100111
1111000110100000
0000001111011110
1110011010100100
1111000111111010
0010010011000101
0000101001100011
0000001111011010
1110111111000100
0000000111000101
1101110110001001
0000011100001000
1110101101101110
1111011010100101
0000010111110101
1111001111100110
0000001111110110
0000001111111111
0001010111011101
0001110010000000
0000001000110000
0000000011110011
1101111000101010
1110011000000011
1111110011101001
1111110010110000
0001101011100110
0000110100011011
0010010000001100
0000011000110111
1101101011110101
0000010101111100
0000000010110011
1111111010100010
0001101011000000
0000011111010111
0000011111100100
1111100110010000
1101101001110011
1111011001111001
0001011011000100
0001000100101111
1110110100000000
0001010001011101
0000010000101001
0001001111011001
0000100110001110
1111110110101010
0001010100101111
0000001001101110
1111110100010110
0000100000001011
0000111010011011
0001000111010010
1111000101001011
0001000101100001
1111110111100001
1111001010010110
1111110110101110
0000100000010001
1111100000000101
0000111101111001
0000001111110101
1111110110000000
1110010010100001
0000100110110111
1110011110100001
0000000100101100
0000101000111100
1110110111001101
1111011110000110
1111001101011100
0000001000110001
0001100010110000
0000110001100100
0000000011001110
1111011011000101
1110110110010111
1110110110000010
1111000100100010
1111110101001101
1111111000001111
0000000100000101
0000001101010111
1111000001001010
0001101001101000
1110110100001000
0000011101101111
1110110001010100
0000001000001111
0001100000010100
1111001111010110
0000110010010110
1101101101110111
0000001111010100
1111001101110010
1101111101110000
0000001000101101
1110101110010011
1111101101010010
1110011110101011
1111110111010011
1110111001000111
0000000000000011
1110010011001000
1110101101000100
1111101101000111
1111010000010100
1110000111000011
0001000100010110
1111110110101110
1111011101101010
0000001111111001
1110111100100001
1111000100010110
0001001101001100
0000011101110110
1111000111110010
0001011100001111
0000001110100100
0000100000110011
0000100000000011
1111110011110011
1111010001101011
0000100001111001
1111100001111011
1111111011111100
0000000111111000
1111110100110001
0000001101100111
0000110010000101
0000001001110111
1111010101010001
1110001001110011
1110111001101110
1111101010000010
1111111010110010
1110111011110111
1111011010101011
0000000110100100
1110100110000110
1111001101111000
0001001010111110
0000010010000101
1111001011000010
1111111110111000
1101111010011101
1111100001110101
0000111000000111
1111110101101011
0000101100100100
1110011011110010
0000000001101000
1111011000011110
0000011001101010
1110000010101011
1111100110110010
0001010101110000
1111000101101111
1110111000000000
0000000011100011
1110001010001110
1111000000111111
1111110011001111
0001000001111101
1110110010111010
0001000100101011
0001010010000111
0000100001001010
1111101110001100
0000110100011010
1111111101101111
0000110000000110
0010011100011100
1101101100111111
1110110111011110
1101111110101100
1110110101010110
1101100010110001
1111101010100111
0000010111000111
0000010010101111
0000010110101011
1111111110011110
0001001100111000
0000111010001111
0000101010001011
1110100100000101
1101001011101010
1111011100011110
1110000010110001
0000000110101000
1111000001000110
1110010011100011
0001010101001011
0000100110001001
1110101110100110
1111100111010001
0000000111101010
1111111011110110
1111010001011110
0000101110111101
1111111011100011
0000111010001001
1101000110100110
1111000011000101
0000011011111100
0000100001111100
1111001111111001
1110101111110100
1111011000110001
0000001101011001
1111001000110010
0000011111101000
1110111000111000
1101110100110111
1111001010011100
0000001001010011
1111000110111111
1110010111100101
1101010110101001
0000010011001110
1111101010110011
1111111111010110
0000111000111000
1111101111010110
1111100001010011
0000110110111110
1111100000110100
0000010110000101
1110110110111101
1111011011100010
0001000011011000
1110000011111001
1111010110110001
1110000001011010
0000101100011110
1111110010010011
0001010011100001
1111110100000111
0000001111011111
1111111010001100
0000001001001110
1110100011110111
0000001110100011
1110111100100010
1101111110000110
0010101110111101
1111010010000010
0000001100001111
0000010011111110
1110111101111110
0000010011010111
1110100010101100
0010111101101011
0000100011011001
0000011110111111
0000010011111100
0000010101111101
0000000111010110
0000000000010101
1111001011100010
1111001111001001
0000001100111000
0000101001011011
0001000001001110
0000011001000101
1111100111110000
1111011001100101
0001000000110010
1110010010110110
0000011110110001
1111111101100010
0000000101101000
1111000100111111
0000001011110100
0000001000011100
1101111001110110
1110111100001011
1111110101011011
1111011110011001
1111101101000100
1110110011000111
1111000000000000
0000001101011110
1111011000110100
1110110111101110
0001001100110001
1111111110101001
0000010111110110
0000011111001111
1111011011100011
1111111111100111
0000001000011111
1111101100001101
1111101011100101
1111010110110010
0001001010100011
1111101110010000
0000011101111000
1110101110100011
0001010001000011
0000001011010000
1110000011000010
1110111000001110
1111001010111110
0000011011110110
0000111110010000
1111010001011110
0000010111101101
0000011011100000
0000001101011100
0000010100101101
0000100001111001
1111110001110110
0000101010011000
0000000111000001
0001000010110010
0000100111000111
0000010011111110
1111101001101001
1110110010000001
1110101100001110
1101110111000110
1110110110011100
1111101000001100
1111110001111011
1110011010111111
0000111011101001
0000101001011101
1110110111100100
1110111100000111
0001101100111000
1110011010011000
1101101110100001
1111101001111101
1111010101111111
1111011000101000
0000101100101011
1111111110111010
1111001011110000
1101111111111010
1111111111101101
0000110100101100
1111111000100000
0000010101001010
0000010111110111
0000010000100110
1111010101110001
1111111101111100
1111101100111010
0001001111011000
1111010101000011
0000010111110011
1111110000101101
1111101011000110
1111100101000101
0000010111010100
1110111111111000
1110111011110011
0000000011001111
0001110000011111
0000110001100111
0000101010000000
1111001101001100
0000010111101100
0010011001011001
1111000001111101
0000110000010101
0000011100011111
0000000110110010
0000000011011011
1101110111001111
0000100001010011
0001000011111001
0000110000000000
1111100110011000
1110001100110011
1111011011010101
1111111010001100
1110101110000000
1111010110000001
1111010000111100
1110110111111110
0000010111011100
1111100011000000
0000100001101000
1111111101001011
0000011110110100
1111011011011101
1111111100011101
1111101110001100
1111101000111101
0001000011010110
0001000110011110
1111001110010010
0001010101110000
0000110101000111
0000111111001101
1111110001000101
0000100101010101
0001001100101001
0000010101010100
0010010011110110
1111010001111011
1101111000011010
1111101001001010
1111100010110010
1111000110110111
1111101101010000
1110010000000110
0001110010001011
0000110100101010
0001000110000010
1110100001010001
1111011101010110
0000010110011001
0000001110110111
1111100011101100
0000110010100110
0000001101011101
0000010101000110
0001110000101001
0000101010001101
0001110100101010
1111011101011010
1111111111111010
0000101010110000
0000001100111000
0000000111100010
0000010101010010
1111100100101001
0000000010001001
1101100010110100
0001101010111111
1111001111010010
0000100011101011
0001101001101010
1110011111000100
1111101111010010
0000010011111110
0000111110110010
0001100100000111
0001101001101111
1110110110110101
0001100000101100
1110100011111111
0000111101111110
0001011101001000
0000000010011110
0001001101010010
0000110000011010
1111101001000001
1111110110101011
0001110000010010
0001000101110000
0001110010000000
0000000100011110
1110101111010000
1101100110110010
0000001110000100
1110101101000011
0000001000111001
1111010110000100
1111000100011010
1111011101111101
1111001101111100
0000010100010100
1110001010001010
1101100100111001
1110011010000110
0000000111011110
0000001100110101
0001001001100100
1111100111011101
0001010110110111
1111111000101101
0000111011111100
1111110000001110
