1100110000100110
0010101101001000
1101001101101000
1110001111100101
0001000100101011
1110101001000000
1011110001000011
0000111001011100
1011100100001111
1111100100111100
0010001110110111
1011000011001100
1110001001111000
0000101001010100
1111101100010010
1111111111010101
0010101100110101
1011110110000001
0000101100110011
1111110001111111
1110010010100010
1111011110101011
0011000001110011
1011111111011001
1110001111000101
0001110000111000
0010011101101101
1111001111000001
0000100000010011
1111101010111110
