0000001101101101
0000010000011110
1111110001011111
1111011010111001
1111011000110011
1111100110101101
0000111001111111
1111110111010010
0000000000011001
1111100110010111
0000110010011100
1111100011000011
1111110100000110
1111101001000001
1111100100101110
0000011011000101
1111101110111010
1111111011101001
1111000010010001
0000110000111000
0000011011111001
0000010011011101
0000001101000011
0000110001110010
0000100011100101
0000010011100010
0000001000010110
0000111101101100
0000001110001101
0000110000111001
0000000011010100
1111111110001101
1111110001111111
1111100101111111
0000000011001100
0000011000000101
0000011111010100
1111110001000001
1110111101110101
0001010010010000
0000110010111010
1111010010100111
0000000101011101
0000010011101000
0000010000110001
1111010010011001
1111100010100100
0000100110100000
1111011011110010
0000000100000010
0000001110110010
1111011101001111
1111101110110011
0000001011011110
1111111001010000
0000100100111100
1111000110010001
0000001110100010
0001000000010001
1111110000000011
0000001011000101
0000011111110000
0000001000101110
0000011110011011
1111101001000000
0000011000001101
0000001010010000
1111110111100100
0000001001010011
0000000100011001
0000011000100100
1111101101100110
1111110001011011
0000011100100100
0000010011011100
1111100110010011
1111010101110101
1111110110000111
0000001000010010
0000010110101011
0000011111100110
0000100101011000
0000010111111001
1111011101001011
0000000001110110
1111110110010101
1111100100100101
1111110111100100
1111100011000111
1111100010100001
1111101000000011
0000001011011110
0000000110100110
0001001100001101
0000101011110011
0000100010110000
1111110110010010
0000001011100000
0000011111001000
1111111011001101
1111100011010010
0000101110000110
1111011100010000
0000010011111100
1111110101100011
1111101101010100
0000000110111111
0000101110101100
1111111011110110
0000100000101111
0000000101101010
0000011101000110
1111100011111101
1111111000100100
1111111001100011
1111110001010010
0000001011001000
1111101101001011
0000011000110000
0000001011111001
1111011111111101
1111101101101010
1111111110010000
0000001010011101
0000000001100101
0000010011010111
1111110001110110
0000000000101001
1111010000111001
0000001110111010
0000110100101011
1111011001111000
0000010011111011
1111110001011110
0001001011100111
1110111011010111
0000010111110000
0000110011110011
1111011111011010
0000111011100111
1111011000101111
1111010111100001
1111101100101101
0000100001010011
1111100000010000
0000101010110010
0000000001010110
0001000100100000
1111001101110010
0000101111100110
0000010100001001
1111101011011010
1111111011000000
0000011101111111
1111100111100011
0000010010110101
0000001011011010
0000001110101011
1111100000010011
0000100110111100
0000001010111011
0000011000100111
1111111111001010
1111110101001000
1111000011111100
0000001000010011
0000100010100000
0000110111000111
0000100000101010
1111010100111001
0000111010101001
1111111001000101
1111101110111110
1111111111011011
1111010110110101
1111110001101101
1111111101011101
1111010110111011
0000000001101001
1111101000000000
1111101100000001
0000110100110101
0000111100100010
0000000011110001
1111010101011010
0000010010011011
0000010100011011
0000010101101110
1111110101100001
1111100010000101
1111100000011001
1111111010111000
0000001100011001
1111100101101000
0000110111011101
0000011100010001
0000000001101011
0000010010110000
1111110100011111
1111111101001110
0000001110000110
1111011100001101
0000001010011100
1111101010101010
1111011110010000
0000010001000010
0000100011000110
0000101100010111
0001010110001000
0000100000110001
0000010001101000
0000001100111000
0000100000110101
0000010000011010
1111100110110000
1111011101111000
0000010111010011
0000000011111101
0000011010111110
0000011000011010
0000001001010111
0000001011111110
0001010001101111
0000101010010101
0000010111101001
0000010111110000
1111110001111111
1111111010100000
0000111010101011
1111101100000100
0000001000000001
0000010011110101
1111101011110011
0000011100011100
0000110100101000
0000100100110111
0000010111000110
1111111010001101
0000011001010110
0001001111011101
0000011001011000
0000000001001011
1111110111011101
0000100001110010
0000000011110000
1111111100111101
0000110111011001
0000000000100001
0000001101000010
0000011000001011
0000010011101101
0000011010011000
0000110100010001
0000111001110011
1111011010000100
1111001100010111
1111001111000100
0000001111001110
0000011101110001
1111101000011010
0000011101111011
1111100011111100
1111011000110011
0000010110000100
0000101010111100
0000010111100101
1111111101110000
0000101110101010
0000001011100100
0000100000011000
1111101111000001
0000000001110010
0000001011001111
0000010110110000
1111101000010110
1111101100011111
0000000001100010
1111101101100000
1111110000100111
0000011010110001
0000011010010011
1111110111110000
0000100000000001
0000010100001001
1111110000000110
0000010011101101
1111010101000011
0000111001000010
1111100001111111
0000001010101110
0000000010111110
0000110011110010
0000000101000001
0000010111100100
1111111011111110
0000010010100010
0000100110011011
1111110000111111
1111111111010110
1111011111101000
1111110001100001
1111110010110111
0000000100001111
0000001010011001
0000011001001101
1111100010100100
1110111110101101
0000011000100101
0000100001011011
0000000111010100
1111110011010110
1111101000110011
1111100000111010
1111010010110011
1111100001110111
1111111000111010
1111011101010100
1111100110111011
1111011011110001
1111100100100100
1111111110000010
1111010100001110
0000100111000111
1111101111001001
0000110001101110
0000101100000001
1111101101110110
0000000011101100
0000000111110010
0000000010001110
0000000001000011
1111001010010100
0000001001001101
0000010111100110
0000011011101000
1111010010000010
0000010011011100
0000110101100000
0000001000001000
1110110100100000
1111101011010110
1111101011100111
1111111100011000
1111100111101111
1111101001110100
0000001111101100
0000110110011011
1111100100111010
1111011110001111
0000100011110101
0000001001100001
0000111101110100
1111100001101111
0000100010110101
0001001101011111
0000000000000001
1110111010100101
1111110011000001
0000100011110000
0000001011100101
1111101110001011
0000100110111000
0000101101001110
0000011000010101
0000100010001101
1111101110000000
1111110010000100
0000101010111011
1111011100100000
0000001111000110
1111011010011110
1111110001111010
1111001111011110
1111101000000100
0000000100010110
0000010010110100
1111111110001001
1111101111000001
0000001110010010
1111101010101001
0000001000101011
0000000001000111
1111100101000010
1111111010001101
1110111100111111
0001011000111000
1111110111111000
1111011101110100
0000010111001101
1111100011010000
1111110001001101
1111100010010111
0000100010111110
0000011000100111
1111101011000100
1111000110010100
1111111010110111
1111111101110001
1111111000111000
1111110101001010
0000010110111011
1111110000011010
0000011111001011
0000000101011011
0000101110100110
0000000001101001
0000000001000100
0000001100010110
0000110101100011
1111110011011101
0000010110101100
0000010111010110
0000011111101001
0000001010110010
0000010100010010
1111111101001010
0000011010010100
0000111011111010
1111010101010011
1111110000110010
1111101101011000
0000110100101110
1111111110001001
0000000001000110
1111100010111001
1111000111100000
0000101110011110
0001011000010100
1111110000001101
1111101100011100
1111100100001001
1111101110000001
0000111001010111
1111111100100101
1111110010011000
0000010000110000
1111110110011010
1111100001011010
0000011100100001
0000100000111100
1111011010110000
0000000111001100
1111100001110100
1111010111111000
1110110110010011
0000100010100000
0000011011110110
0000011010111100
0000010110101101
1111101100111010
1111101010111000
0000110011110010
1111110100011010
0000000100110111
1111000100100010
1111001111101111
0000000010101100
0000010110001011
0000100001110101
1111001101111001
0000111100101110
1111100100001101
0000001111001110
0000101010100100
0000001011110000
1111000111110111
1111001101101100
0000100001101001
0000000101010001
0000010001011111
0000001011101110
0000100100001100
0000000000101110
0000010010011101
1111111101011110
1111110001010111
1111110100110100
1111011100001011
0000010011010011
1111111101001101
1111101111110011
1111100101100010
1111111101001110
1111111101011111
0000111000001011
1111101110001010
0000011010000010
0000001110110100
1111101100001000
1111110010101100
0000010101111100
0000011000010111
0000010001010101
1111111000110001
1111111010011111
0000010111111100
1111100101000011
1111111001101000
1111101110101000
1111101010011100
0000001110000010
1111101010110000
0000010011010000
0000100001001101
0000111100101010
1110011011000111
1111100110111100
1111110001101111
0000101000010001
0000001111101110
1111110110100000
1111101101101011
0000010000110001
1111110000010000
1111100101111000
0000010000100101
1111011011100111
0000010100101111
0000110100111001
1111100010001010
0000010110100111
1111011010011111
0000001001111110
0000001011000011
0000000101000000
0000010011111101
0000001011010110
1111011101010000
0000011100000100
1111101101011101
0000001001110100
1111010000101101
1111110101010010
1111100011100111
0000101000111100
0000111000000101
0000110010001100
0000010111100000
1111100101011000
0000111001010001
0000001100101100
0000100000001111
1111011100010110
0001001010111101
1111110111101000
1111100001001110
0001001101000001
0000011010101001
1111001000011111
1111111001101111
1111101100100010
1111000111111001
0000101010010011
0000011011110101
1111001110110010
0000110000110011
1111110101000001
0000011001100001
1111111000001001
1111011101111100
0000001100010100
1111111000100100
0000000011010010
1111010001001000
0000010011011100
1111010111100100
1111100001110000
0000011100110011
1111111001001110
0000011100110000
0000100011011011
0000010010010110
0000000100000110
1111111000100111
1111011111100100
0000100110101000
1111110001000000
0000101001100110
1111101011010111
0000010010000011
0000000001111000
1111110011001001
1111010111001010
1111011111110011
0000110010101001
0000000101111010
1111110001111100
0000001100110100
1111001000001110
0000010000010001
0000110010100101
1111010010101101
0000001110001011
0001010000100000
1111101010010010
1111010010001100
0000001111111101
0000011111111111
0000011010110100
0000011100100011
1111101111110100
0000100011001000
1111110010100111
0000101111001101
0000001010110111
0000010110011011
1111100000011111
1111110000101111
0000001010111101
0000101010100111
1111101011110001
0000100001111100
0000000001100101
1111100010001010
1111110101100000
1111100110000000
1111001100101000
1111111001111001
1111111100000100
1111100011010000
0000000110010111
0000010000010101
0000111111000111
0000000101110011
1111100101111100
0000010100111101
1111000111111101
0000110000100011
0000111001010011
1111111011001011
0000000001101111
1111101000100011
0000110000011100
0000011100001101
1111101011101000
0000010001100010
1111111000001000
0000111001010101
0000100001101000
1111110001101110
1111100000101000
0000110000001100
0000100001010101
0000010011111100
1111110110011000
0000000010100000
0000010010111101
1111101100110011
0000010101001011
1111110101011101
0000001110011001
0000000111110111
1111001011001110
1111100001011100
1111111011011110
0000011011101001
0000001000110111
1111101110001101
0000010101101011
1111100011010100
1111000111001110
1111001011101010
1111111001011010
1111010100011111
1111101011000011
1111111010101110
1111011010001000
1111110101111100
0000001101101001
1111101100000111
1111111011110101
1111100110111100
0000000010110010
1111001001101011
0000100000001110
0000011001111010
1111101011000000
0000100100000001
0000001001011101
1111011000000010
1111000111011110
1111100010111111
1111011000101011
0000011100100011
1111111111000110
0000011000010111
0001001010111100
1111111100010000
1111100001101010
0000001110000011
0000010111001100
1111101010011010
1111110000101101
1111010010011011
1111101101001001
1111111100110111
1111110110011000
1111111100001001
1111111101111000
1111100101100110
0001010010100001
1111110101101110
1111111001100101
0000000000100111
1111111000000111
1111001100110000
1111011101101111
1111110000110000
0000010110101010
1111010011100010
1111011111011001
1111110101110001
1111000000110101
1111110011000001
1111010101100000
0000011010010101
1111100111010000
0000001110101000
1111010110000101
1111100101001101
0000001111001110
1111100010011011
1111110010100111
1111110010111111
0000101101101000
0000001110001011
1111101000000101
0000001111101011
1111101101001000
0000001100100101
1111010000000110
1111100101011101
1111011101111100
1111110110001011
0000001011001011
1111100000111001
0000001010101101
1111010101101010
0000001000011000
0000001110100110
0000011101010000
1111111001111111
0000010011001111
1111110000101110
0000000100001111
0001000100110111
1111001100111110
0000101000100000
1111011100011011
1111101100001001
0000000010000001
0000000001011011
1111000010101111
0000010011001100
1111100110010011
1111010010001111
1111110110100110
0000100010100010
0000011100111110
0000000000000001
1111101010011110
0000000011110101
1111010011111111
0000011000011110
0000000111101001
0000100111001101
0000001111011100
0000000011101101
0000100010010110
0000100010010001
1111001011101001
0000010110000100
0000111000110000
0000101101001100
1111111111100010
1111111001010001
0000000000111001
1111101001001001
0000100100010101
1111101111011000
0001000110000100
1111111000110110
1111010000100000
1111100111111001
