1111010100011001
1110111111110100
1111101001100110
0000001110000101
0000010110011000
1110111001011111
1111010001100011
1111000000111100
1110110100110001
0001111110010011
1110100100111111
0001000001000011
0000101010100011
1110100110111001
1111010010000100
1101110110001010
1111100000110111
1101111011100110
0001010110001011
0001000101000010
0000001001010000
0001010110100101
1111110011111011
0000110111001111
1110110110000110
1101011110101110
0000001101011010
1111111101001010
0001001100100011
0001011010101111
