1110111111100100
0000110101010001
0000010011010000
1111010100100111
0000111100000001
1111110101110001
0000110011110111
1111110100010100
1111101111100010
0000011111011001
0000101010011011
1111110000011101
1111101100000011
1111100000101000
1111011110011100
0000011010111110
0000001011010000
1111111100000010
1111111000111011
1111100001101010
1111001010110100
1111001101110111
1111110110011001
0000001000111111
1111110111100001
0000110000101010
1111111000001110
1111110001011010
0000000101011100
1111100101010000
0000011110010101
1111110100011011
0000110011001110
0000110010101100
0001010111001101
1111101110010010
1111011100010001
1111101110010101
0000010010110010
1111011001000111
0000100000111111
1111100101110010
1111111010101011
1111110101000001
1111110110001100
1111100110011001
0000010001000111
0000100110001011
1111101001110001
0000010101001110
0000001101011001
0000011011111000
1111101111010010
0000101001011111
0000110001100111
1111001101001001
0000000011111000
0000000010100101
1111111101110110
1111101010010110
1111110011110100
0000000000101100
0000010101001010
0000110010001000
0000100000000001
0000010100110101
1111110000010000
1111010100111010
0000011111001111
0001000010101010
0000001101101010
0000100111100101
1111111011100101
0000000100010001
1111110101100110
0000000001010100
0000101010101100
1111100101000001
1111111011011100
1111010110111000
0000110000100100
1111110011010100
0000000010110111
0000000110011101
1111101111101111
0000010101000000
1111100111011111
1111110100100010
1111101100101010
0000011111111010
0000100011011000
1111100110110110
0000011100111111
1111000000010000
0000001011001101
1111110001010010
0001000110011010
1111111010010010
0000000110111110
0000111100111111
1111111111110001
0000010001000000
1111100011010011
0001000100101011
0000010111000101
0000001100011111
1111111011110001
0000001000001110
1111101111011000
0000001001100010
0000001000001010
0000010100000101
0000000011101011
0000010100000010
1111111101110101
1111100010000110
1111101101000010
1111110011111110
1111110111000111
1110110111000111
0000001110111001
0000110110101011
1111111011111011
1110111101011011
1111110000101001
1111111111111111
1111000010001110
1111110011100110
0000110111011101
0000000111010101
0000001110110110
1111110100001111
0000011000001011
1111110000110000
0000000100010010
1111100110011000
0000000000001011
1111100111111111
1111100101110100
1111010011111000
0000010100010011
0000100101011101
0000111001101111
0000010001111100
1111101001010110
0000010110101000
1111001110000010
1110111111101001
0000001100110111
1111011110000001
0000000010101001
0000011100011011
1111111001111110
1111110000100010
1111011101001011
0000100101100111
0000000110101011
1111100110010101
0000001001000000
0000100011101100
1111110010111000
0000001010100000
1111111000110111
0000000100001100
1111111000110001
1111011100000001
0000000010110001
1111100101011001
1110111110111100
1111011110001001
1111111011100011
0000001001011010
0000010111010110
1111100100000001
0000001011101100
1111010100011000
1111110111100111
1111010111101011
1111100111101100
1111011001110100
1111010111010101
1111101100000111
1111011100010110
0000010110001101
1111101110100111
1111111110010000
1111101110000000
0000000110001111
0000010010101100
1111100001100111
0000000111111011
1111100100101000
1111001001001000
0000100111110001
1111100100010101
1111111100001001
0000111010101100
0000001101100111
1110111100111111
0000010110011100
0000001111011100
1111111010000000
1111101100101001
0000010100111011
1111011010011001
0000000011100011
1111011001011010
1111111000111011
0000010111101001
1111010110111110
1111110101100010
1111011110001011
0000010010110001
0000001001010001
0000011110100110
0000000110100100
0000001000100010
1111101000101110
1111011001011100
1111011111100000
1111001011100100
1111011000010010
1111000011101011
1111100010101000
0000111010100111
0000010110000110
0000001101000010
0000010101000011
1111111010101111
0000010010001111
0000110001001001
0000011101001101
1111101001100111
0000001100100010
0000011000001011
0000000111011100
1111111111011100
0000000101010010
0000011101111110
1111111010001010
1111001000001101
0000101010111101
1111010001111000
0000001000010110
0000000011010011
1111101111111000
1111010110010011
0000001100111111
0000001100101110
1111100110010101
1111111101101011
0000000011011101
0000010001111010
0000100000111011
0000010110011001
0000010101010011
0000100000111000
0000111000100011
0000000001001000
0000011000111010
0000010010100000
0000000111011111
0000100000100111
1111111101001000
1111111110011100
1111111101100010
1110111000001111
0000100011100000
1111100001010001
1111111000000100
1111110000100000
0000001001111111
0000010010010010
0000000010011000
0000011001101101
0000101100001010
1110110101111111
0000001111101100
1111111110010110
1111111010101001
0000001100111110
1110101111001101
0000010001001011
0000010011101001
0000011010101111
0000001000001101
1111111111011101
1111110111010101
1111111010000011
1111110010011100
1111000110000011
1111111111100000
0000011000101110
1111111001001110
1111101001111111
1111100010111100
1111100100001111
0000100111011100
1111100011101101
0000111101010101
1111100011011101
0000000011111000
0000110110101011
1111110010101011
1111011111110111
1111100111101101
1111011010101111
1110101111100111
1111111101000101
0000011101101010
0000111001110011
1111110010010001
1111110100001001
1111110000000110
0001000100100000
1111100011011101
0000010000011110
0000100001100100
0000011110010100
1111111010010010
1111011100010100
1111001000001111
1110110110011111
1111001101011010
0000000010101001
0000011100001101
1111011010110101
1111100011110111
0000000000011001
0000110111010011
0001010011101011
0000001100110000
1111100011110101
1111110111111001
0000011111000010
1111100111100010
1111101001000100
1110110100110101
0000010111101010
0000000011011111
1111101010101101
1111100111011001
1111111101101011
0000001000010101
0000011000100111
1111110101011011
0000111111110101
0000100000011101
1111111100000001
1111001011011101
1111001010011100
1111011101100100
1111111000111111
0000000100010100
1111101110111010
1110111101110101
0000010100101111
0000110001100100
0000100000011111
0001011011100001
0000101111010111
0000000010111011
0000000110100111
1111011100011111
0000001011010000
1111100111100100
1111110101000011
1111100100111010
0000000000101110
0000000010010101
0000110100111001
0000100100111010
1111010100010111
0000001000001001
1111111011111100
0000001001001101
1111010010010100
1101101000110100
1110110100111111
1111111001001001
1111000100100010
1111011101111001
0000000000001011
1111101111001101
1111110110100110
0000000111000000
0000010110000101
0000010001111010
0000010010111001
0001000000001001
1111101000111101
1111101100010101
0000001110011001
1111110110100101
0000011101000100
0000001110110010
0000000100111000
0000001000100100
0000001001100010
1111111110000011
0000101111110010
1111110111100011
0000011010010101
1111111011101100
1110110001000101
1110101000000101
1111100101011010
1111011010111100
0000011100010001
0000010010000101
1111110011010110
1111000010100110
0000100010100111
0000011110011111
0000010011110010
0001000110010110
0000100000111110
1111100011011000
0001000110100110
1111111010110010
0000101110110001
0000011101101001
0000100011000011
1110111101110001
1111110101001011
0000000100000011
0000010100000111
0000100100011110
0000000010010101
0000000100100110
0000011111010110
1111011100001001
1111001000101001
1111011000110111
1110111101010001
1111011010011100
1111011111010010
1111111100101000
0000001010011010
0000001111100100
0000001011011001
0000110100100100
0000010111001010
0000011000000001
0000011000001011
0000000000110011
1111010110100110
0000000110111110
0000000110101100
0000111000100111
0000110011010001
0000000000001000
1111101000010100
0001000010100010
0000011101110101
0000110011001110
0001000101110101
0000001001001011
1111101011110111
1111100110001101
1110011010010100
1110100010010001
1111100111001000
0000011101110000
0000001001100101
1111111111011001
1111110111111000
0000011001001100
1111111000010001
0000101000101010
0000010110010110
0000111000001111
1111110111011101
1111111011101010
0000001000010110
0000111101001001
0000001011000100
0000001010111010
1111101111001011
1111011100111100
1111111010100011
1111101001100010
1111110010110001
0001001001110000
0001111001101110
0000001110011001
0000010001010011
1110111000101000
1111011100001010
1111111101110101
1111011111110000
0000100011110100
1111111101111110
0000011100010000
0000100101101001
0000001011100100
0000010001110100
0000101001111000
1111101111000000
0000001111101010
1111101001010000
0000101010100010
1111110011110110
1111110111110100
1111111001111110
0000011010010001
1111100110011101
0000000001011100
0000110101001111
1111101000011010
0000010010010000
0000010100000010
0000001111101010
0000011001011100
0001000010000011
1111000111110101
1110110010001011
1111010011100011
0000011110100111
0000011111100010
0000001100111100
0000010000000001
1111110000111011
0000100100101011
1111111010110000
1111111101110100
0000000101110011
1111001111000100
1111010010110001
0000100101001110
1111111111000100
0000010111001001
0000110001010010
1111011101010001
1111011110101000
1111101101111000
1111111100110000
1111100001010001
1111111111001110
0000000001100100
1111110100110101
1111101001010110
0000010011000100
1111110110110101
1111110000001110
0000000111011011
0000100111001110
0000001010000111
0000000000010110
1111111011110011
0000110010101001
1111111101100100
1111100111111110
0000001011011110
1111100110111101
1111100001100011
1111100011011001
1110111011010011
0000011100100000
0000001110110011
0000001111110101
0000110001111001
0000010110111010
1111101010011101
0000001000100001
1111000100101111
0000111010001111
1111101110101011
1111111110110010
0000001110001101
1111111101001111
0000011011100110
0000100010101100
1111100010000111
0000111010101101
0000001000110100
1111110010011101
0000111111000010
1111100101100000
1111110000110111
1111110011001110
0000010111000010
1111001010001110
1111110100111000
0000010011100100
0000010001010010
0001000000001001
1111111001001010
1111101111110111
1111011110100100
0000110011001101
1111101000010000
0000111000000011
0000011000011011
1111111011100000
1111010010101001
0000001001110100
1111010001000011
1110101010001001
0000001000110111
0000101011111100
0000011010111101
0000011011010101
0000000011100001
0000011101011000
1111001010101010
0000100100001010
1111101001000001
0000000011100001
1111111011001001
1111000110001000
0000001110110100
0000101001011010
1111111110111011
0000000000101000
1111110101011011
1111111111110001
1111011010001110
1111011010000111
0000010110111100
1111111011001111
0000010100101000
0000011000000000
1111100010111000
0000000000000001
0000011010000100
1111010100110100
1111100001000111
1111101101011100
0000001010001111
0000010110100100
0000011100010111
0000011010000001
1111110001001010
1111111110100011
1111000110011011
0000010100001000
1110101111000100
1111110001000000
1111110010100111
1111010000111110
0000000001110100
1111100011011111
1111100111001010
0000000100100000
0000101011100101
1111110001011000
1111110110001100
0000010111101001
0000001101000001
0000010000010000
0000000100111100
1111010111111001
0000000101100110
0000000000100110
1111101000011011
0000000000100001
0000001110000100
0000011001110011
10000000000000000
0000010010001000
1111111001100101
1111001000101111
1111111001100000
1111010101110010
0000110010110000
0000001011101011
1111101001001100
0000000001111000
1111110100111110
0000010100111011
0000101011001011
0000001101101101
1111110000111101
0000100000110000
1111111101100111
0000010011000111
1111111110000111
1111011010110101
0000011010011110
0000101100011110
1111010110010111
1111011010101100
1111101110111001
0000101011010011
0000010110001010
1111111000100000
0000010010101100
0000010111011101
1111111110010100
0000011010111110
1111011101011000
1111110101100000
1111011111000100
1111101110110110
1111111001110011
0000010110001101
0000000011011100
1111000111010101
0000010011001001
1111111100111010
0000101110010110
0000100011011110
0000001101000010
0000100010010101
0000010010000000
0000101001100101
0000111001100111
0000010011001001
1111100100001010
0000000110011001
0000000011010110
0000000010010111
0000101011010011
1111111111100000
0000011001010011
0000010101111100
0001001011010000
1111110110011001
1111011100001111
0000101110000110
0000100000100110
1111011111110011
1111111011010111
1111011001111111
1111111010100010
1111110000101101
0000010110011111
1111110001111001
1111101110000101
0000100011000110
1110110101000110
0000000110101101
1110111001101110
1111011000101110
1111111101000111
0000000001100011
0000101101011111
0000001100000110
0000001000000111
1111110011101100
1111111010011001
0000010000100110
1111111011100011
0000010110001001
0000000100111110
0000010101111011
0000110011100010
1111010111010111
0000011001100100
0000001100110110
0000100101000011
0000011011111001
1111101011111110
0000110001011010
1111010110101000
0000101000110011
0000000111011011
0000000010110010
1110110111101000
1111101101011010
0000101000011110
0000010101101011
1111100100000011
1111101100101110
0000010001001101
1111110101100010
0000011111001111
1111000011110011
0000101001100011
0000011010101100
1111101010101100
0000000111111111
0000100111100101
0000010110011110
1111100001110111
0000000011100111
1110100000000010
0000000001111011
0000000100000110
1111010101011101
1111111101110100
0000010100001101
1111110001111111
