1111111101101110
0000100001111001
1111100011000110
1111110110011010
0000111010110000
1110111010110000
0000000001011010
0000001110000000
1111111010111110
1111010011000101
1111001010011101
1110110011001110
1111001100010001
1111011111011011
0000011100101111
1111100110111110
1111011011000100
0010101011111001
1100110001100001
0000000111111111
0011010001101111
1111000110110101
0010101000110111
0001101011001010
1111110001111101
1101010110010010
1100111011100011
0001001111011001
1111101111000101
1110111010001111
