1110010100111010
0000001011100101
1111110001100000
0000110110011010
1111100001000101
1111011101011101
0000000100001010
0000010111111100
1110100010101111
0001000110011010
1111101010001000
0010110000001100
1111000110000111
1111010110111100
1110101010110011
1111110000010000
0001011111011001
0010011000001110
0001010101010100
0000001111010001
0000000001000001
1111111110101000
1110100100011100
1111010001101010
1110001001111011
0000100000101101
1111010010000011
1111111001100111
1111111101000010
0000011111011010
1111010001101101
1111011101111110
0000011000011011
1111101010011000
0000011110100000
0001101110111100
1111110010101110
1111111001000110
1111100010000111
0010101111101101
1111111101010101
1111000111111010
1111010101110010
1110011000110011
1111110010010011
0000010000100111
1101100100101001
1110110010000011
1111110101010110
1110010000000000
1101111001111011
1111001001100010
0000000100010111
1111111110111100
0000001000001100
0001100001101010
1111110100010110
1110100000110001
0000100101100011
0000100101010010
0000010000110001
1101110010011111
0000100010010001
1111110110010111
1111100111101100
0001001011101111
1111000010110101
0000001110000111
1111011000100101
0000100101010010
0000010111111100
1111011001010010
1111111101101010
1110101011000101
1111010010010011
1110101011010111
1110101110101001
1110011100010010
1111011011000011
0000000101010110
0000100010001001
0000001100000111
1111010010101010
1111100011100111
1111100001000111
0000001010011110
0000001011100000
0000100100000001
1111001000011110
0001001001000001
0000001000001111
0000010001010101
0000000010110110
1111010110101100
1111100111010001
0000001111101011
1110111100011110
1110110010110001
1110111010101010
0000010110001100
1111000001010010
0010000010000011
1111001111011111
0000101011100001
0000010011111011
0001100001011110
0001011101001011
0000010110111100
1110101011100100
1111001100100111
0000001010110010
1111111100001100
1111000111000100
0000100010111000
0001001001100000
1111110010000101
1111010110011111
1110100101111100
1110111110010000
1111100001100100
0000000110111010
0000000001011011
1111111010000110
1111010001011100
0000011001001101
0001000010101011
0000000011100000
0000111010100101
1111001101100000
1111000101101010
1110001011101001
0000011001101011
0001100100110110
1111011100111011
0000000011000100
0000011111001000
0000001001000010
0000000101101101
1111100110101110
1111000101000011
1110100010011010
1111110001101001
0000001011111010
1111100011111011
1111011100100101
0000110100000001
1111101001101110
0000111011001110
0000001011101011
0000100110111011
1111110000010101
0001111001000000
0001111001010110
0000100101001111
1111101001000110
1111110011100100
1111101010101001
0000110110001110
0000010110111011
1111101100101000
1111100001101010
1110111100001100
1110101001111011
0000100100110110
0000100101111110
0000001001101011
1110001110001101
0000100110000100
1111010001001111
0000011111110000
0000101101011111
0000001100011000
0000110100000100
0000011010010001
1111000010010011
1111010110111011
0000011110010011
1111011011111100
1111100010000111
0000110000100110
1111001111100001
1111010100010110
0000100011111000
1111010101010110
0000101110101001
0001100010001110
1111111100001111
1110111011000100
0000010101010111
0000010011010011
0000001110000000
0000100010011100
0000001010110001
1111011111101101
1111110010111101
0000001010100011
1110101011100101
0000000011001101
1111000111000110
1111111010001011
1111001000000101
0000011011011011
0000011111011100
1110111110101111
0000010110001101
0000010001111100
0000101101111010
1110110100001011
1101000000010111
0001001011010001
1111100010011111
1111001000000000
1110101010010011
1111001000000000
1111010101011001
1110001111000001
1110110111001010
0000111111011000
0000001010001010
1110011111101111
0000101100101000
0000001100110110
1111001110010100
1111001100011110
1111101010101011
1101110010001111
0001001101100011
0001101011110011
1111111101000001
1111100010011100
0000010100111111
0000010011011100
0001100100100011
1111111011001001
0001010111110000
1111110010010010
0000101111100100
0001010110010011
0000011010101011
1111100011101010
0000100000001111
1110000100000110
1111100010000010
1111000111100011
1111011101011110
1110111110100001
0000000100010010
0000000100001011
1111111011110011
0000011100100101
1111111111111000
1111100101011001
0001010110110100
0000101101100010
0001000010110110
1111101100101101
1111000011001100
1111100010011111
1110101111010010
1111100001001010
1101110011000110
1111000010110100
1111000010010010
0000010100000000
0000011110100010
0000001101010110
0000100110100000
0000110011000100
0000001011100010
1110011011100100
1111000110000001
0001100000010111
0001000110100100
0000110110111011
1101001000100100
1111110100111001
1111110010011000
0001001000110010
1101101111010100
1110111101100000
0010001011000110
0000001111001101
1101001110111101
0000100010000110
0000101100100110
1111010110100110
0000000001000000
1111110110110100
0000000010011000
0000010111011011
1111101001010111
1111110001100100
1111011001110101
0000010010100111
1111111011000100
1111100000011100
1110101001011111
1111011111110101
0000110011001100
1111111100011000
0000010101000000
0000000101011111
1111001111000000
0001011111000110
1111111001101011
0000110100101110
1111010000000110
0000001111100010
0000110011100111
0000101000101000
0000011100001011
1111001001010001
1111011010001010
1111010110100010
1110111110100111
1110010111010011
1110100111111111
1110101000100001
0001010000011000
0000010101001101
1110010010010110
1111011011000010
0000011010001011
1111001001110101
0000010011101111
1111111000001110
0001000100100010
1110011010001111
1111010000110101
0010001111110110
1111011011011110
1110011110010111
0000011111010101
0000000110110000
0000101101001110
0000011001100011
0000010110111111
1111000101001010
1110110001110010
0000110100010010
1110000010110001
0000111111101000
0000110111000110
0001010100111011
1110110000001100
1111100010110101
1111011000011101
0000101101101110
1110101001011011
1110100001001100
1110101111100101
1111111111101011
0000001110101110
0000010010010101
1101110111011010
1110110111101101
1111011101100111
0000110010110010
0000010001111100
0000100010111100
1110110101101010
0010000101001110
1110011110100011
0000111010001100
1111010000101111
0000111011010111
0000010011100100
1111101010110011
0001101001000000
0001101101111001
1111111010111101
1110101100110010
1111100001110100
1111100001001101
1101100101010100
1111111001000100
0000001101111100
0000110101100000
1101101101110111
1111110111000011
1111100111000110
0000110101010111
1111100111001110
1111110110010101
0000100101001100
1111101000110001
0000111010101000
1111011110100010
0001010001110110
1110111111111001
1110111000010111
0001011000100000
0000001000110010
0001100111000100
1111111010000101
0000100110110011
0000011000000111
1111100110010100
1111011010111111
1111010101010000
0000011101011000
0001001000010101
1110110000111010
1110100010001110
0000100010111100
1110010001100010
1110011100001101
0000110101011110
0000010100001111
0000111101010001
1111011101011000
0000100000110010
0000111001110010
1111110001110100
1111111010010110
0000111100101011
0000110100101001
0001000000000001
0010010010011111
0000010101001100
0000111011001000
0000110010110010
1111010011000101
1111010100111100
0001001001010011
1110001110101110
1111011111010011
1111000101011000
0000001110000011
0000110100000010
0000010000111000
1111011011101100
1111101001110101
0000011101010011
1111101000111100
1111111111111110
0001001110011111
1111000001101010
0000010011101000
1111000000100110
1111101010111011
0001100010110110
0000000101010010
1110111111111101
1111101100101000
1110110101000110
1111100011010000
0001011000101001
0000000101010101
1111010110010000
0000110001101001
1110001100101101
1111111100111100
0000011100011101
1110001000001000
1111011001001011
0000010000110010
0001110100001111
0000000101111101
1110010110010000
0001110000110001
1111100101101101
1111011101000011
1111100001000010
1110111111110111
1111001101111011
1111111011011110
1110010100100111
0000010011000001
1111011101000001
0000111010010111
1110100110010101
0000000011010001
1111111010111111
1111111010101001
0000101011000101
1101111000101001
0001010100010101
1110100001101010
0001100001101101
0000001011111111
1111110100111011
0000010110101001
1111101110001100
1111010111111010
1111000111110001
1110011001111001
0000111110111001
0000101010100010
1111000101100101
1111100110110110
1111101111110110
0000111011000011
0000101101111110
0010001111100010
0000011110010011
0000100111011011
1111001000100001
0000000000011000
0000101000111111
1111100110101101
0000111100110000
0000001000111011
0000011001100111
1111101010001101
1111111011011100
0000110010100101
0000110101001110
0000011111111011
1111100000100100
0001111001100111
0000011100100101
1111010110101101
0000000000000100
1111100001111001
1110111111111000
0000010001111011
0000001001011111
0001001100000001
0001100011001000
1111111110000100
1111111011100101
0000110000001111
1111100000010000
0000010111101000
1111101001000100
1111001111110110
1111101011010000
0001010100001000
1111100001001011
0000100100110001
1110111110110100
1111100101010100
1111010111101000
1111011010111111
0001110101110010
1110111100110011
1101111011101011
0000101101010101
1111111011111000
0000111000100011
1111111100101011
1111110110011111
0000100110111001
1111110100100010
0000011101001011
1111110101110100
0000001001010011
1111011001101101
1111111100110011
1111110110110011
1111101100000001
1111110101011110
0000111001110101
1111101111110001
0000100011100000
1110001000101110
1110000111111000
0000011101101111
0000101011010011
1111110100101011
0001111010110011
1110001101001010
1110100100101001
0010000111000111
1111100101000110
1111111110001110
0000010000100101
1111011101000000
1100010000000100
0000101100101100
1111000011011011
0001010101100001
1111001111010101
0000110100011000
1111100110000000
0000010101111110
0000001011011000
0000001110101011
1111110100011000
0000011001100101
1111101111110010
1111110100110010
0000000111110001
0000110001111100
1111110001101000
1111010111001000
1110110100100010
1111101001000100
0000100011010000
1111111001001010
0001110101110100
0001000000101110
0001001101111111
0000000001100101
0001010100100101
0000101110100110
0001011001001001
1111110111101111
1111011110111010
1101111010010101
1111011111010001
0000010111100000
0001111110001000
1111100000010001
1111001000010001
1111011000011110
1111010111100011
1110111100100101
1111101001011011
1111110000110101
1110110000110010
0000000001011100
1111100101010110
1111001011111000
1101100000101010
1111000110100011
0001100011101110
0000010111011010
1110110101111101
1111011000011101
1111111100111100
0001011000111010
1111111100100000
0000001011110111
1110111100100100
0010100111111011
0000011110001010
1110010110001111
1101011011100011
1110110100011110
1111001011001011
0000001011010011
0001010010000100
1111101100111110
0000100000111100
1110001001000010
1110100011100000
1101101101010001
0001001000011011
1111011010111011
1110000010010001
0000010010100100
1111011100010000
1111000110010100
1111000101000111
1111101011100110
0000001111010011
0001101000100011
0000101001100110
1111010111000001
0001011011000000
1111000000011001
0000111110000001
0000110110111001
0000001101000111
1111110111110110
0000011011110010
0001001110110111
0000011000010010
1111101100101101
0000010010111101
0001111011110111
1111101111001001
1110110110010110
1110010010010110
0001011101110110
1110011011111010
1111100111011000
0000101100110101
0001100100000101
1111101111010100
1111111010001001
1110110100000111
1111100000111001
1110100010101111
1111100001001011
1111110001010010
0010000000011110
1110100001011110
1111010000010100
0001000101000111
0000001110100110
1111100011111000
0000001111000101
1111100011010010
1110110111101000
1111111001101010
0000010101100000
0000100000110111
1111011011100011
1101101100110110
1111111101100010
0000101111000110
0000010101100110
1110101101101001
0010111001010110
0001011100010110
1111010111010010
0000010011011000
1111101100010100
0001011001101010
0000110001010111
1101010011111001
1110110100011110
0001100011001000
1111011101100111
0000111010001001
0000010000010010
0001100100100010
1111111101010100
1111111000000000
0010000010111001
1111011100101100
0000001001111110
1101000110110001
1111001100110101
0000000110101111
1111101000111001
0001111111010110
1111010010110010
1110001110101101
0000111110100000
1111110111111011
0000011000000010
1111001001110010
0000110010111110
1111100001101101
0000010000101110
0000001101001110
0010001010110010
1111000001010000
0000101101011001
1110110001100011
0001001010011100
1111110010100111
0000110100110111
0000111111101111
1111101111111100
1111000100001110
1111100010101010
0000110010000001
1111100000010001
0000000111110001
0000000011111100
0000100111101111
0000011110011001
0000000111100011
1111010001010010
0000110010001100
1111101111100000
1101111100001001
0000010100011000
1111100101001011
1110100100011111
1111101001000001
1111101100110001
1111000111000001
1111100011100010
0000010101000101
1111100011101100
0001110000010000
1111100001001100
1111011010010011
0000011001111101
1110110111100001
0000001001110110
1111011110001011
1110111111101000
0010000001010111
0000101011011010
1111100010001011
1111101111011001
1110001100010111
0000100001100100
1111010100100000
0000101110100000
1111001110111000
0001011011010110
1111100111100001
1110001000110101
0010011010011101
1110111010000011
0000010111000010
