0000110011011101
0000100010101001
0001101001110101
0000000110011000
1111110111011011
0000101000100111
1111011111101010
0000010011000010
0000010011101011
0000000100100111
1111111010011011
1110010001011001
0001011010000110
0000010010011100
0000001001001000
0000100000111010
1111111111111000
1111101010010101
0000111111001110
0001101101001001
0000000111001100
1110101010100010
0000010001000011
1111111000101110
0000100011111100
0000100000000001
1110111111010010
0001100101000000
1110101010101000
1101100001110100
1110110001101000
1111110100000010
0010000111001000
1110001100010100
1111001010000000
1111001110000000
0000000100010100
0000000000100011
1111110101111101
1110010100001011
0000000100001101
0000010101101111
1111110011010100
1110010010110010
1111011110011111
1111011001010000
0010101101101101
0000000110001000
0000011111010010
1111001111101000
1111001010000100
0000100101001111
0000001110101001
0000001010011001
1101111110110111
1110010110000110
1111111001001111
0000111011010101
1111010111010011
0000110000010000
1111011111000110
1100110110001000
0000111100100010
0001111110000101
0001101111001011
1111111101010001
0000100010011010
0000001001010011
0001000001100011
1111000101010000
0000110011110010
0000001111111011
1111111000110101
1111110000011001
0001001101011010
0000001100000010
0000110000001110
1111111100111111
1111110000111000
1111101100110100
0000010111000110
1111101000001111
1111010111100101
0000011110001101
1110100000100000
0001100110101110
0000111000010000
1110001000110110
0000010011011111
0010010001100111
0000100100100110
0000001110001000
0001101001001100
0000000111100110
1110010101110001
1110111110101011
1110101000000100
0000010110000111
0001100100100110
0000000011111100
0001000100101111
0000010001000110
0001010101001111
0001000000001111
0001010110001101
0000100110100100
0001010100100000
0010010011000000
1111111010011100
0000000100110110
1111010111011001
0000110000011110
0000001110101111
1111010000100110
0000000100010011
0000100001100010
0000101011010111
0000111101110100
0000000011111100
0001101010110110
1110101111101110
1110101010111101
0000011110111111
1110111100010000
1111100000110001
1111011111110100
1110101011100100
0000001111100011
0000010101110010
1111110111001000
0000000101011000
1111001001100111
0000101101111100
0001010110010101
0000101110101001
0000100010111111
0000101111101001
0000011000010011
1111001011011101
1110111011111011
1111011001101100
0000110100010001
0000110101001101
1111010011010101
0000000100110111
0000010001010101
1110101011010100
1101001111011101
1111101100101010
1111111000011011
1111101111101101
1111110010101000
0000010001000100
1111101010101100
1111011011110110
0000000111111001
0000000011000000
0000001101001100
1111111010010001
0001011111001010
0000011010110010
0000001000001100
0001001101111100
0000010011011011
0000110001101000
1111010110010110
0001010101110000
1110111111011001
1111100000100101
0000010100011000
0000000101001000
0000001111100010
1111110011100000
1110010011110110
1110011100111101
0000001101100010
1111100100011011
1101111100011100
0000011100100000
1110111000101000
1111110101110010
1111011001001010
0000110110101111
0000101000001110
1111001101111000
0010000000011110
1111000101100101
0000110001100010
1111010111000001
0000101100000011
0000001001000100
0000101111011110
0000110101100010
1110100000111111
0000000000101100
0000000010010101
0000111011110010
0000111101111100
1111010011011010
0000011110100101
1111100101011111
1111101100101001
0000001000010111
0000110101010110
1111101001000110
0000011011110100
0000001101010111
1111110001010100
1111110111010010
1111001001010111
0000111101011000
0000000011110101
0001001000011010
0000010001110110
0001010110111010
0001011101011011
0010010101110101
0001110001001010
0000110010110110
0010111100111110
0001010111001010
1110111100011010
0000011101100011
1110011110101000
0010000111000010
0000001011001100
1111001010011001
0000011111010111
1110110001011010
1111110101100010
1110000000000100
1110011000001000
1111111010001001
1110111000011100
1110100011011111
0000100110110001
0000010111110100
1111010100000001
1111000001001001
1111101001110001
0000010100111101
0001001001111100
0001111010001110
0000101010010101
0010000111001001
0000100000010100
0000011001100001
0000100000000010
1110110100101100
0010101001011000
1110110101001111
0000001001111000
1111000111000010
1111100011000000
1110011001000000
0000010100011110
1111000000110110
1111000110101000
0001001010111010
1111000111101011
0000100000101000
0000101010101001
0000001110010111
1111100001111101
1111111101000111
1111001000100111
1110100001110001
1101111010101001
1101110011000010
1101111110111001
1101100011010110
1101100011010110
1100101111001111
1101111101101100
1110101110000111
1100111110000101
1110111001111000
1110101000011000
1111110000010110
1111101000001000
1111011111110111
1110011111001010
0001001100001011
0000100001001111
1111000111010000
1111111010100010
0000110110100111
0000110111101101
1111101111111111
0000001011111111
0000010010011011
0000100100011111
1111010000011010
1111001000110100
1110011010010011
1101011100011111
1100001100001001
1000010010110101
1010010000100000
1010110011110100
1011111101001101
1100000111100101
1110110101110001
1011100000011100
1110101111011101
1111110011111011
1110110011010011
1111100111010101
0000010110010011
1111101010100010
0000110110011111
0001001111101101
1110111000011101
1111110011010110
1110100100011001
0001000001100010
0000101010101101
1111111101000100
1111010000011000
1110111000111001
1111011000101110
0000100010011111
1111010101111011
1111010010001111
1111001000001001
0000110101000100
1101110111000000
1011110000001110
1011010110110101
1100110110110000
1100010011101111
1110011111110001
1101110110010001
1110000011110011
1111111110110101
0000010001000111
0001010111110011
1111111101100111
0000100110101100
1111100001111000
0000101101101110
1111101110011011
0001000101100100
1110001000001001
0000100101101110
1111011111011101
0001000110001111
1111111011101100
0000110001100000
0000001100010010
0000001010100000
0000101010010001
1111111101101011
0000001100101000
1111101010101101
1111110011000101
1101111000010001
1101111011111011
1101011100001110
1110100000110001
1110111101100010
1111110001011001
1111011010101110
1111100001000001
0000110110111111
0000011101111000
0000010000010010
1111001110110011
0000001101000010
0000000101101000
0000001001101000
0001011100001000
0000010101110011
0000001100101011
1111111010100000
0000000110100110
0000101000011000
0000101101011010
0000000011101110
1110010001110111
0001011000010000
1111001101110110
1111011001110101
0010001101010110
1111111011011100
1111000111010111
1110110111101101
1110110101111110
0001001101111000
1110111101010111
0000000001011100
1111000001011000
0001001011110010
0000001001000011
0000110100011110
1111000111010101
0000100101111011
1110100101101110
0001111011000010
1110110011110111
1111110101000001
1111010011111110
0000111110100010
0000011111111010
0001000101000010
1111011001001110
1111011010000010
0000010001001110
1111011001110001
0000101011000001
1111101110110010
1110101100010101
0001010110100110
0000111011011101
1111000100100111
1111010001100111
1111101101101110
1111001011111101
0001000101111011
1111110101101111
0000110000101101
1111000011001001
1111010111010110
0000010101011010
1111011001101101
1111011011010000
0001000010001000
1111100101101110
0000110001011111
0001001111101010
1111011011010000
1111110011001000
0000100100001100
1110101010111100
0000000111111010
0000000100010111
1111010101010101
0001010100011111
0000110110001100
0001011101100011
1111111100101010
0000111101000000
0000100110000000
0001001101010001
0001001011000000
1111011110110100
1111111000010011
1111101001000101
1111000000100110
0000101000001010
1111110111010101
1110000000000000
1111000010010110
1101011001011111
1110001100101001
0000011111110010
1101111010110001
1111101011011100
0000111100001001
0000011110100011
1111100100010000
1111100100001001
1111100111110110
0000011100011110
1111010001011000
0000000101011110
1111100010101011
1111110001001011
0001001111000011
1111100000101110
1111100110100100
1111111101101001
0000010011011101
1111111100001011
0000001100000100
0000010001000111
1110000101010010
1111100000001100
0000000110111010
0000001010010101
0000001010010010
0010000000111101
1111110001101010
0000110111001010
0010100101110000
1110101001110101
1110110100001110
0001010000110011
1111101111111000
0000001111000011
0000111111101001
1111001011101010
0000111100010011
0001001010000101
0000101001111010
0000011100001110
1111110000110110
1111111111111011
1111011011010011
1110001000101011
1111111101011111
0000001001000001
1111100100110010
0000010101000011
1111111001011101
0000011101100111
0010011111110001
0000001100011000
1111101100101111
0001001001100110
1110101101001000
0000100011000111
1111010001010101
0000101100001011
0000011101011111
1111110001001100
0001001110010011
1111110010101101
0000101010001101
0000010000000100
1111110011100111
0000011011011011
0000000100000110
1111010001011110
1111111100000000
0001001100000000
0000100100110001
0000101111001011
1111110110111111
0001100100011011
0001001101101110
0000110000010111
1111111110111100
1101011010100111
0000010111111110
0001100110011000
1111101110001100
1111111110001010
1110001101010011
1111111001100001
0001010100111001
1110110000111111
0000111010110011
1110110011001110
0000010011001111
0000010110011101
1111111010000010
0000101010010111
1111100111100100
0000000010011100
0000101111110001
0000000111011000
0000110010011001
1111010001100010
0000110000111110
1111010001001101
1111111111100010
1101111100101011
0001000010110001
0000010100101110
0000101010010011
0000101101010001
1111011000010110
1110100001100101
0000110110001001
0010011010111011
0001010010100010
1111100011001011
1111101000100011
1111110011111000
0000011100000110
0000111100011110
0000100010100100
0000011011100001
0000111010111101
1111110011000000
0000000111001010
1111111010101111
0000000110011010
1111000110011010
1111111110010100
1111100010011110
0001010101100011
1111100100110101
0001001000010011
1101111000100000
0000111010000110
1111010111000001
0000010111010110
0001111001001011
1111111110011010
1111110101001111
0000011100011100
1110011001011011
1111010010110010
0001001111000110
1110011101111111
0000011001001011
0000011000001111
1111101110001010
0001001010100010
1111110101011110
0000101110000000
1111110111001000
0000110010010000
0000100101010100
0000100101111011
0001100001001010
0000010111100001
1111011110010110
0001001001011001
0000110010011111
1101011011001011
1111101000011000
0000110011011101
0000110110011011
1110100010100101
0001010001111010
1111100111001101
0000000000010100
0001000010100010
0001010100010011
1111111010111000
1111010101000011
0000000001100100
0000011110000001
0000000111111000
1111110111101001
1111111010110110
0000110110110101
0001000001011101
0000100011110000
1111110100000001
1111011111011110
0000000001000000
1111110001101000
0001000010011010
1110110111001110
1111101011101000
0000111110101100
0000101001111000
1110001111110010
0001010010011011
0000010100111100
1111010110111010
0000100011111001
1111101100100010
0000100111111011
0000101111101011
1111011101000100
1111111101010110
1111000011000111
0001100001101011
1111010100101011
1111110101001101
0000100110110110
1111001101010110
1111101010101111
0000000010100111
0000010111011100
1111111011011001
0000101100100111
1111011100001011
1111111000101101
0001110000110100
0000000100001001
1111010011001111
0000000011110111
0001001010111001
1111101001101100
0000111001101001
0001110001011100
0000000111100100
0000011011100101
1111001101011111
1111110000010100
0000011111101110
0000100000100010
1111011110101010
0000010100111110
1110111000001000
0000111101000100
0000101001000100
0000010111100100
1110111110001111
0000000010111111
0000010010010010
0000001111011100
1111111101110110
1111100000100111
0001010011001111
0000000011011101
1111101000110101
1111000000011010
1111111110110010
0000111001011011
0000101011000100
1111111100111111
0000001110001010
0000101001110011
1110111001100000
0001011000110100
1111010111011110
1111011111100111
0000100110010110
1111010010010101
0000101001101001
1111100011110000
1110111101010010
0000111001110100
1111000101111010
0001000001111101
0000101101101011
0000100000010110
1111110100000010
0000100110010101
1111101010010010
0000111101011011
0000010001110010
0000111010100010
0000001101011111
1110101100000011
0000011001010101
1111111010000010
0000011100100101
1111010111100111
1111111101110010
1110011101010110
1110011010100111
1111101010100101
1110100011000111
0001000001101101
1111100011111001
1111100110100101
0000011101101011
1111000001110011
0000000000011001
1111101010110101
1110111010100111
0001001101110101
0000010010011110
1101011111010011
0000001001000110
0001010101000100
0000011000100101
1110110000101101
0001001001101010
0000000100101011
0000111100111000
1111011001000001
0001101101110001
1111011111110001
1110000000100111
1111101000000001
0001000011010010
1101101101101000
0000111110001100
0000100011110011
1111011010010100
1111111100110110
1111111001110001
1110111111010100
0011001101000101
0001101101101110
0000001010001100
0001100010000101
0010000011100010
0010010000011001
0000110001000101
0001010101010001
1111101000000000
0000100001010010
1111001001100010
1111110111111101
0010001011011010
1110100001010001
0001000000110101
1111110101000111
1110010110100111
1110111100000011
0011001101010110
1110101001010110
1111101010101000
1111110001000111
