1111101000100111
0000010100001001
1111101010111110
1111010110000111
0010010010110001
1111101110010000
1110010101001011
0000011010000110
1111111011100001
1111111010001101
1111110001110001
1111010110110010
0001011011011001
1110111111011011
1110110110100001
0001000101000011
0001111000100001
0000011011100010
1110001000101111
0000000111100010
0000000110110010
0000101100100111
0000010110000101
0001010001010010
0001011000110110
1111111011010111
1111101010110111
1111100101100110
1110000000111100
0000011111100011
0000101000001011
1111100100100110
1111101001010010
1110101001000100
0000100011100110
0000011000011010
1111111100001000
0001010010111111
0000101000011011
1110111110000111
1111010011001001
1111111001101011
1110011110100110
0000001011110110
0000010111101111
0000101010101100
0000001011111100
0000000100101110
0000000101001011
1110111001000100
0001110110111001
1111101110011000
1111111001011111
0000010111001110
0000110101100110
0001011011101001
0000111010001101
0001011010011100
1110000001100000
0000100110100010
0001001101110101
0001000110100110
1111011001111111
1111011100100001
1111110100001101
0000110111101010
1110111011101010
1110111110010110
0000101110111100
0000011000000101
1111011100111001
0010011011011101
0000111100001101
0000100000110101
0000110010100000
0000110101011000
1111011101101011
1110011110101010
1110111111011100
0001111110100101
1111001110010111
1101111011111100
0000100010000001
0000101110101111
0000111001011010
1111100100100011
0000000000001100
0000100110100010
0000000110100001
0000100111011010
0000110000111101
0000011011011010
1111001100000111
0001011110110010
0010000110101000
0001111111011101
0000000110011000
0000110011001011
0001011111000010
1111001101110100
0000010111000100
0000110001001001
1110100000110001
1111010001011001
1111101111001100
0000010010100001
0001010000001100
1111110100001000
0001101101100011
0000011100001000
0000010110111110
1110010000001111
1110111111110010
1110011100101111
1111001010011001
1111111000000000
1111110110010010
0000000011100110
1111100001110001
0000100000001110
1110110100110000
0000110001010011
1111011110000000
0000010010011011
0000100100100000
0000111000111110
0000100111001011
1111010011111100
1111101011011100
0000001111011001
0000101101010100
1111011010110110
1111110110100100
1111100110101111
0000110000100001
1111110011011111
1111001111110000
0000100001011101
1111000011100111
1110101111100110
0001001000001100
0000110101000110
0000011101101100
0001101110100101
1110110010001010
1111000110110100
1111101101000001
1111111101011010
0000101010000010
0001100111101101
0000111100101111
0000110101010111
0001101111000000
0000001010100000
0000111110101011
0001001000100010
0000011110111011
0000001111010101
0001100101101001
1111101001110000
1111110011100011
1110101110010010
0010001010100100
0000110100001011
0000011011101000
1111111100010100
1111001001010101
1111010001111100
0000001101100101
0000100000000011
0000010011111011
1100101110110111
0000010001011011
0001000101010001
1110011110001111
0010010100100100
0000001010110011
0000010010010001
0000010111110100
0000011001001101
1111011001100100
0001010101101011
0000100010101110
1110110001001001
0001010000000000
1110100111010011
0000001010110100
0000111010001001
0001011000000000
0010011011010100
1111111100100101
1111010011000010
0000001101101101
1111010001100110
1111100011001011
0001000011010111
0001000000001101
0000100101001101
1111100001100001
1111000100101101
0000000000010001
1111110001100101
0000111010001111
1110011010100010
0000100011111100
1111101011100010
0001110100110100
0001010010100101
0001111001000101
0001010111001111
0000011011011010
1111111101001010
0001001001100111
0001010100011110
0000010011110010
1111100010001001
0000111111101111
0001000101100100
1111000111000011
1111011100000000
0010001001011001
0000001011000000
0001011100110101
0000001001110011
0000000000101100
1111101100011011
1110000010010110
1110111111100011
0000010111100110
1110110001101010
0010101011110000
1111101011001100
1111101010000011
1111010110000000
1111001001100010
1110000110110000
1111100011110001
0000100100011100
0000010010011100
0001111101111000
0000100110111101
0000101110110000
0001101000101000
0000001010101110
1111010100110101
1110011000110111
1111111110001011
0000001011011011
1110010110100000
0000011111010100
1110011010111001
1111110110000100
1111001010010001
0001010101010100
0001000011101100
0001000001110001
0001011001110111
1110011001010010
1111011101010101
1110100000001111
0001000010100000
0001001010111101
1111100000001001
0000111111010010
1111110101011001
0000000011110100
0001000110110111
1111111101110001
0000000101110101
1111101111100110
0000010000101110
0001010110000001
1110111110010110
0000010111111110
0000010111100011
0000010001110100
0000101101000000
0000011000100101
0000000101110010
1110011111101010
0000000110101011
1110000001000100
0000110000111011
1111110110100101
1110010110111111
0000100110111101
0000110001101101
1110100100011101
1111110110111011
1110101101100001
1111011111001001
1111111000001010
0001100111000010
1111010010011101
1110110111011111
1111000110011100
1111001100110001
1101110010010000
0000010100000110
1111001011010100
1111110010011100
0000010100111010
1110101101001011
0000000011010101
0001010000000001
0000101001101010
1111010000110000
1111111011000001
0001001001011001
0000000011100111
0000000100001100
0000000101100101
0000000010011101
1100111100001001
0000010010010000
0000000000110100
0000010100110001
0000001011010010
0000000011111101
1111000111010010
0000000110010110
1111111101001011
1111000101011001
1111000111110011
1111001001101001
1111010010011111
1101110010111011
1111111011000100
1111010110001111
0000110010100011
1111101000110111
0000000111011110
0000100001110010
0000010100011101
1110001011011101
0001010101100001
0001010010110110
1110111011000011
0001000010100100
0000101111001011
1111101000110110
0000110100110110
1111011001110010
1110111110010000
0000101011101110
1111110100110011
0000000011100111
1111110011010000
1110100111000100
1110101100011010
0000100100110111
1111101100101000
1110111001110001
1111011100011111
1110101001111111
0000011100100001
1110100001010100
1110110110101010
1111101000000011
0000001110000100
0000100101010100
0000111101101111
0000111010110100
1111010000011111
1111010001100111
1111100100011111
0000110000111101
1110110011101111
0001011111100110
1111101101010001
0000101110110100
0000010011001110
1111101101001010
0000011101011000
0000111000010111
1110111010001100
0000011001101010
1110110101000000
1110011001111100
1110101100110001
1110100100010110
1111000001100001
1110011011001110
1110010111010100
1111100011110110
0000001011001011
1111011011011001
1110101001011110
1111101111010101
0001010001100110
0000100011001110
0000001110000010
0000101100001011
0000011001011000
1110010101000010
1111010101011010
0001111000011110
0001000001000010
0010001100110101
1111101000010011
0000110011011010
0000111110011000
1111100110110100
1110100011001010
0000101011100100
1110110010010010
0000010100101101
1111111011110010
1110010110101011
1111010100100011
1110111111001001
1110101111011111
0000100101110010
1111110000000101
0000100010011011
1111111101110011
1111111110011110
0000100010111101
0000011011010000
1110101110010100
1111111110100100
0001010110000001
1111101001101110
1110111101010110
0000011011100010
0000110111011011
0000000110001000
1111101000100011
1111101011011111
1110111110110110
1111111010100100
0001010010101101
1110110110010001
1111111001001010
1110001011101010
0000000110011011
1101101111111010
1110110101111100
1111010000111001
1111111000111011
0001001101100111
0000100111010010
1111011001010110
0001010010000000
0001010110001110
0001010100101001
0000111110111011
1110000000101010
1111001110110100
0000011001110011
0000011001110110
1110010001110111
1110111111001101
0000111100011011
1111010101011101
1101001010011111
1110101000110001
1110100111100111
1110110110011111
1111011111111001
1111001110011000
1111001001000011
1111111001011101
1101111001101001
1110011110000101
1110100111100100
1111100011000000
0000001100011111
0000000110010101
1111000100101000
0000000000111010
0000011101010000
0000110111001001
1110001110001101
1111010100110110
0000011001011010
1111111001101111
1111100001100110
0000110111010100
1111111111011100
1111000100110000
1110101100010011
1110001111101011
1101110001010100
1011111111111110
1110101001001100
1110101111000100
1100110100110010
1111001010001010
1110111001111000
1101000000111000
1110111001101110
0000101011100001
0000011011110011
0000110000110011
0000111101000110
0000010011011100
0000110101011110
1111110011100110
1110101001110001
1110100001110110
0001000110110101
1110110001011011
1111100111101010
1111101000101010
0000010111011110
0000101111100101
0000101100000001
0010000000100101
1111000100011001
1111100011001111
1101011011111111
1110110001101010
1100011001110000
1110001110111100
1100101010010011
1101000111111010
1101010000000111
1110001101101000
1110001101101011
1101111100000001
0001010101101110
0001001011110011
0001001001101101
1110111101101100
0010101110010100
0001000010000111
1111010001110001
0000100011011000
0001001110010001
1110100011111011
0000001011000011
1111110000011000
1111111011010100
0000100001010011
0000000010010010
0000001110010110
1111111100111111
1111011011010000
0001000100001010
1110101100110111
1110101000100100
1110111001001001
1101111001010100
1110111110000000
1110000010100110
1110111001001110
0001000011101100
0000101010010000
1111101110111101
1111011111000111
0000100111110001
1111101110001000
0000101011100011
0000100011010011
1111010001100110
1111111110011010
0000100011101001
0001110001100001
1111110011101010
0000000101101111
0001001000000101
0000101001000100
0000000101010101
1111111001001011
0000010110110100
1111011010100010
1110110000000100
0000111011110010
0000010010101100
0000001011000010
0000010001111111
1111010000010111
1110101000010010
0001111110011101
0000000000010100
0010110010111011
0001000100100011
1111101100000011
0000111000101010
1111111101010001
1111110110001110
1111100000110010
1111000101000001
1110011000111100
0000011011110001
0000011100000101
1111000010110001
1111001000011010
0000000111100100
0000011110101111
0001101101100111
0000101110100111
1110111110001001
0000000110000110
0000110010100100
0000000001010011
1110111010111010
0000101101000101
1111111011110110
0001111001110010
0010001110111010
0001011111101011
0000100010111011
1111101001011110
0000101011110110
0000110000001010
0000000010100001
1111001000000000
0000001100010000
0001011011100011
0001100001110100
0000010010000111
1111111011011001
1111010001001011
0000001111111001
1111100101000001
1111010101010100
0000000000000101
0001000001110100
1111110111101110
0000011101111000
0000111001000011
1110110101000111
0001101100100110
0000101001100010
1111100110000010
0001101000010101
0000111010011110
1111101010000100
0010010100001001
0000000111111110
0000011011011111
0000101110010011
0001011011111001
0000111100000000
0001001000001010
1110100101001101
0001110111010011
1111110011000101
0001011110000110
1111010011001000
1111100010001000
1110011011000100
1110001000111111
0000101001001101
0000111000000000
1111001000000100
1111010000011100
0000001101101000
0010000111111010
0001110000000110
0010110111000110
1111001010111100
0000001110001011
0001011100100101
0001110010110100
0000101111001011
0000100000010101
1111101010011001
0001000101101100
0000101010001010
0000111101101111
1110100110100100
0001101100110010
0000000110110011
0000010000000111
0000100011100111
0000000101010101
0000100111110000
0000010110001000
1111101111000110
1111011100001101
1111100010101100
1111110010000000
1111100101000011
1111010111011110
0000101100110001
0001011000000100
0010000000000000
0000010111100001
0000010001100000
0001100000010110
1111010110100111
0011000100100101
0000111100110100
0001000111010011
0001000010010001
0000100010101100
1110000110101100
0000111001111000
1111010010101111
1111101001111111
0001111011001000
0000101101110000
1110101101100100
1101110110101011
0010000101001000
0000101001110010
1110011000111011
1111100010110111
0000111111100000
0000111011100010
1101010000010001
0000110101011000
1111001000011001
0000111011101111
1110100011001110
0000001000001011
0000111110011001
0000110010001001
0000100101000100
0000001011101001
0000001111010100
1111111000111011
0000000001111100
0001111111110001
0000111001010100
1111100001111010
0000010010011100
1111101100001110
1110111101001011
1110011111011101
0000010011100011
1111111011110011
0001011010001100
1111010110001011
0010010011110010
1111110010000101
1101110000100000
1111110111001010
1110110010110101
1111111011110111
1111110000100101
0000111111111011
0000001011000110
0000010111100100
0000111101000100
0000010010111011
1111010110000011
0001101110000110
1110100000011111
0001101111001100
1110100011001011
0000101001111000
1111100001010100
1111100000001010
1110110101111010
1111100001011101
1111011010101011
0000100001100111
1111110010001010
1110001001100001
1110100110001001
0001000011101001
1111110101001110
1110000101100101
1111101011101101
0001100101000010
0000001010111000
0000010010001001
0000000001000100
0001001111100011
0001000000011110
0000101110011101
1111010100000100
0000111000010001
0000100011110100
1111111010100101
0000001110100111
1111110110111101
0000000111101100
0000001001101001
1111100011001011
1111011010110110
0000100111001001
0000001100011101
0001000010101001
1110011110000100
1111100110011011
0000101110010010
0000100101111011
1111100010000001
1101110000100010
