0000110110100111
1111011101101111
1111100101011001
1111101100101011
1111110011010101
0000101011011100
1111011010011001
0000000000011000
0000111011010011
1111100011011000
1111111111100110
1111111000110000
1111101110111001
1111001000001100
0001011010111111
0000101011011111
0001001111110111
0000100010010001
0000010110011110
0000011111001010
1110111001011100
1111001110100001
0000010001100001
0001100110000111
0000110100001010
1111101010000010
1111011110011100
1111011111101111
1110101010010100
1110001111011001
1111111101100010
0000100111101000
1110011111101111
1110111000111101
1111011010101000
0001101001100101
0001000010011011
1111101000000001
1111011000100100
1111001010100100
1110110101001110
0000000011000101
1110110101110011
0001001010101010
1110110010001000
1111110110001101
1111000110000111
0000011011001101
0000101100011001
0000010100010101
0000000100000000
0001000101010100
0000111101110001
0000110000010110
0000000100110011
0000110110101111
0001001101001100
0001011100011011
0000100111111100
1111111010101011
1111111101101000
1111010001001101
0001101010000000
1111010010010101
1110010101101001
0000001110110101
1111101001101000
1110110010111011
0000010001111010
1111011110110111
1101101011111101
1101101001110110
1110110011011010
1111001100110001
0000101010111101
0010000011011100
1111011100010000
1111000101110100
1110100100000110
0000000000110000
0001000110110100
1111111100101100
1111110110000110
0000011110011000
1111011010110001
0000010000010111
0000001010000100
1110100000000100
1101100101011111
0000101110010010
1110111000010110
0000001111100111
0000100100111011
0001001110111000
0000010100001110
1111011011110000
1111011001111111
1111111110001111
1110101110110000
0000101110010010
1111101000110101
1111100110011011
0001010110001000
1111011100000111
1111000011111000
1111000110001111
0001100001000011
0000010011101100
1111100001010000
0000110100001110
1111110111100011
1111111101111111
1110111111101111
1111001101010001
0000011001000111
0001111011011000
0000011011000110
1111101100000010
1111100010000100
1111101011010001
0000010001101101
1110111010101110
1111011111010011
0001011100010100
1101010011001111
1111010001011101
1111111100100100
1111101011011111
0000111001110011
1111111010001011
1111000100101001
0000101011111011
0000011101000010
0000001100000101
0001010010111111
1111110011010111
0000010111010000
1110110001010000
1111100111101011
1111101001001011
0010001100001110
0000101111111010
0001011001101100
1111011101101110
1101100110010111
0000100000000111
1111010110000001
1111001000010010
1111010100100000
0000110100100110
0000110001001011
1111010110110101
1110101010010010
1111101001000100
1111110110101011
0000101100000001
0000101101011101
1110100111101011
0000101000000101
0000111000110100
0001001011011010
0001111000000010
0000010000011101
1111010110111111
1111110010001010
1111010111101010
1111111001110101
1111101010101010
1110100010010101
1111110000111110
0000011000100110
1110100110110011
0000111101000010
1111111111001010
1111101001101100
0000001011001010
1111110100101011
1111110101011111
0000000100101101
1111010010111100
0000011001011110
1110010010100000
1111110010111000
1110100010010001
1101111110100111
1111011000011000
0001001010101001
1111101010111000
1111011001001101
0000000010001110
0000101011011111
1111111100100010
1111110010100110
0001011101011110
1111100111100111
0000101001011000
1110100010011000
1111001100001010
1111101101110000
0000100110110010
1111011110001000
0001011100001000
1111110101001001
1111010101111011
0010011000111011
0001011101100010
0000101101110111
1111011100010111
1111101001100100
1111100000011000
1110100101011111
1110100011010110
1100100011011011
1111100001010000
1111110111100001
1111100110000101
1111000111011110
1111110110101011
1111100000100011
0001101001001000
0000010001101011
1111010111111000
0001011110111011
1111000000001111
0000001010111111
1111111110110100
1110100111001011
0001110010011010
0000001000101000
1110111010000011
1111010000010101
1111010101100001
1111000010000011
0000000001111110
0001001110010010
1111001011101011
1111111010100100
1111000101111101
1110111110101101
1101110011000001
1111000100010010
1111100010101100
0000001110101100
1111101001011100
1111101100001000
1111100000011101
1111000110101111
0001001101101101
1111111101110000
0000111100001001
1111111001011111
0001001000001111
0000100111100001
1110110111011000
0000000000101101
0000010010000100
0001011110001011
0000011111011000
0000001111110001
0000001101000111
0000001101111011
0001010011100001
0010000111000100
0001100100000011
0000111100000100
1111100111110000
1111000101000110
1100001000110111
1111100010010001
0001011011110100
1111111111011010
1110011001001011
0001001110101010
0000010011000111
0000111010111100
0001001101101100
0000101001000010
0000011000001110
0001001101110100
0000100111000101
1111100100010010
0001000011100001
1110011000111010
0000011101011001
0001000110101010
0000000110011011
0000010111010100
1111001100011100
0000101101100011
0000110001100111
0010001111100010
0011101010011100
0000101101000110
0000000011000001
1110100011101011
1101101111010100
0000101110000000
1111101110011000
1111111110011111
0000000010000101
0000110000011101
0000010011011010
0000100110110101
1111010110001000
0000110000001000
0000111010001001
1111110101011111
0000100001111111
0000011110110111
0001101001001010
1110101101111100
0000101011110001
0001010101111100
0001000001101110
0000001101110000
1111100001100101
1111100010100010
0000010111101111
1111110110111101
0011001010011111
0011001100111001
1111100010000111
1101001011100111
1101010011011101
0000000011111110
0000011101011001
0000101111110111
0000101110001110
1111100111000001
1110100001100110
1111101110101010
1101100011001001
0000101111100111
0000000110100001
0000111010101111
0000000110110111
1111001011111001
1110001100000110
0000010110001110
1101110001101000
1101110010110011
1110111010111101
0001010010110000
1111110001010111
0010100011000010
1111111001110010
0001111000001101
0010110111000010
0001010010101100
1111111001101100
1101101100010110
1110110011001001
0000110000101100
0000010110010010
1111010011101000
0000010010111110
0001001000101100
1110101011000100
1110110000000110
1110110101101101
1111101010000111
0001100010010000
1111100110010100
1110100101111011
1110010110111100
1111010010101110
1111100101101101
0001110010110110
0001001001110011
0001011101001010
0001000010011101
0000001000100101
0000110010101100
1111111011110001
0011111011010101
0001100100011010
1111110110111010
1101001101011100
1100011011110110
1111001001101010
1110111010100001
0000001000011011
0000000100110100
1110111001001101
1101111011001101
0001010100010000
0000110111000001
1111010101100011
1110101011110110
1111010011101001
0000101101110111
0000100110000010
1111111100101011
0001010010100111
1110010110011010
1111100100111010
1111111011100100
0001010010110010
1111110101111100
0001100000101110
0010000110101010
0000111101010010
1111100010111000
0000010010000101
1111010000001011
1101010101000101
1111100110011111
1110101100011010
0000010010100111
1111011010011101
1111011001000110
1111110111000111
0000100100100100
1110000010101100
1110101100111011
1111100100011010
0000110001100001
0000100000001111
1111111011010010
1111001000010001
1111111000010001
1111111101011100
0000000101101101
0000101100010000
0000010110000000
0000011110001110
1111011011011110
0000011001010010
0000001110111000
0000101010100111
1110110101100111
0000001100011001
1101001101100011
1110111010100000
1110001100110001
0000000010111110
1111000101001100
1110110011010100
1111001001100100
1111000100010001
1111100111001011
0001000101011101
0000010001100100
1110111010001011
1111110000001000
0000010000111001
0000000010101010
1101011110011100
0000111100110101
0001000100100000
0000001010110111
0000000001010110
1111011110011100
0000110010011101
0000011111110111
0000011110110110
1111111010110100
0000001111100110
0000101000101010
1110111001101011
1100110101010101
1111110011100011
1110001111011101
1111011111001010
0000100111001110
0000010001110011
0001011010000101
0001000011000111
0000011010101011
0000011001011011
1111000100010100
0001010111100011
1111011011101110
1110110100010001
0000100100001001
0001001010000110
0000101100010000
1110010110100100
1110111010111111
1110100010001010
0000011011011010
1111000010101101
0000110111101100
0000000110011011
0001011000001001
0000000011001100
1110111011111100
1111011000100000
1111101101000010
1110010110011111
0000101100000001
0000011111010110
0000100110111101
1111110001111100
0001000110000001
0001111101001011
0000100111110110
0000001101110101
0000011010000101
1111111001101001
1111111001001101
0000111111000011
0000011100010111
0000001010101010
1110110010101100
0001101100100011
0000111010111101
1111111001001101
0000000010011011
0000010011101111
0000100110110010
1111011010111111
1111101110010011
1111100001111111
1101000010101001
1111010000010101
1111111110110001
0000100101101111
1111011011011111
0000001100010101
0000111100110000
0000110100100001
0000000010101011
1110110001110000
0000001001001001
0000101011000101
1110010101111100
1111100111011110
0000110000001001
1110001000110100
0000101000011111
1110011010001111
1101011000000011
0000110000101110
1111111001100000
0000010111001110
1111111111111001
1111101110001000
1110000011111101
1110101100101111
1101111011010110
1111010000000000
1110000000101100
1110011011011011
1111111111000001
0000011101100101
1111010111001000
1111010101100100
0000100010010111
1111110100001001
0000100010110101
0000010011000001
0000101110100000
1111011000110001
0000101110010011
0000000000100110
0000000001010111
1111100000110001
1111110101110101
0000101001101010
0011010000111111
0000001010100000
0000000011100101
1111110001110010
0001011001111010
0000101110011101
1111011111110010
1111001011111110
1111000110000010
1110100101011011
0000000010000110
1111000100111011
1111100111011001
1110111010000100
1111110011101100
1110111000001000
0000010101110000
1111100111010101
0001000011111001
1110010110110101
1110100111000100
1111111010100001
1111011110110111
0000011001111100
1110111100011111
1111011000011000
1111011100111100
1111110011011100
1111101010110000
0000111010001111
0000000011111100
0001001000110011
1110101111011111
1111000100001001
0000011100010000
1111101110111110
1110111011001100
1111101100110111
0001011011100100
0001010011000100
1111100101100110
0000010100110000
1111110001010000
1110001010010011
1111010010100110
0000110000011010
1111110101010111
0000101111011110
0001001101101000
1111000000101110
1111101000001101
0000011010110001
0000011010110100
1111001100011111
1111100111010101
1111111001101000
1110111010000110
0000010000001101
1110001111101011
0000111000010101
0000000111000100
0010000111100111
0000000010010100
1111101100100001
1110001110011101
1111011000001111
0001000010000101
0000111010010011
0000110111001110
0000010101001000
1111101101100010
0001010001110110
1111000110000110
0001110001110100
1111111001111010
0000111100111000
0000010010100001
0000001001110011
0000100010110110
1111010110010000
1110001000111100
1111111111000111
0000001101010110
0000101001110010
0001001100010001
1111010001010110
0001101011000111
1111101110111110
1111111010100100
1111011100001101
1111000000001001
0000000110110000
1111100010010010
0001010001000011
0000011111001011
1111111110101110
0000001101011011
1111111011100010
0001100010010000
0000000010111001
1111011010100110
0001011101000100
0000110011001111
0000011101111101
0000111000100000
0000001011110111
1110101111000101
1110110100011010
0001111001111110
0000101010101010
1111001001100000
0001000011110111
0000001111001010
1110110000000000
0001001011000100
1110100010110000
0000110011100010
1110111011110000
0000000001011100
0000010100000000
0000110111110001
1111111011100101
0000010111000110
0000000110110001
0000100100110110
1111110111110001
0000001111100110
0000011101101011
0000000100011011
1110010011000011
1111111010010110
1111000101011001
0001011010100100
1110110001101001
0000110001111001
1110110101000101
1111000010110100
0000001111101101
1111000000011011
0000101011011110
1110100000101001
0000011000110100
0000000110001101
0000001100100001
1111111101001110
1111101011011101
0000001010100010
1110111110010010
1111000111000000
0001011101100101
1111011010101111
0001010010010010
1111000111000011
0001101100010101
1111101000111000
1111110010100001
0000001010100100
0001000100011001
1110001110001111
1111010101101100
0000000010110110
1110011111000001
1110110111100010
0001000010000010
1110110110111001
0000100000010111
1111111010000001
0001100100101100
0001101111000100
0000001010111111
0001101101000101
1110011010000110
1111100011001100
1111101110010010
1110111100100001
0000001010100010
0000111000111110
1110010010101001
1110010001011001
0000010010101010
1110110000111011
0000010010000001
1110001010101011
0001001100000010
1110101000100100
1111100110000010
0000000101011011
1110101101001000
1110100110110000
0000010001110000
0001010111101010
1110001111111001
1111000011010011
1111011110011101
1111111010010111
1111111001110001
0001110100110110
0001011010001000
1110011011110101
1110111001000011
0000000000010011
1110000101000100
0000100010000110
1111011000101000
0000110111100100
0001011110111001
1111110010001001
1111000011101100
1111010010110100
0000010110110100
1111001101010010
0001100111101001
0001100011010011
0000100100010011
1111001011100000
0000110011100001
1110011110010000
0000001100100111
0000001001110001
1111110010001100
1111101000011111
0000110011111010
1110000000111001
1111111010101100
