1111111010010100
0000111100000000
0001000001100001
0000110011000000
0000111111111101
1111111001100010
0000011000110110
0000011110011001
1111110001010010
0000100111100100
1111110110101111
1111111110101110
1111000011100101
0000001101001000
1111110001000011
1111001000011101
0000010001010001
0000011111011000
1111010100011001
1111010111001000
1111101011100000
1111010111000110
1111011100110010
0000001010001001
0000100000001111
1111110110000001
1111101110110011
1111000010001110
1111101000110000
0000010011100001
0000000100101111
1111100010100111
1111101011011000
0000001001010100
0000011001000101
0000100111001110
1111110011000001
1111100000110111
1111100010100011
1111101100110111
0000000110001100
1111010010100000
0000101010101101
1111101011000010
1111111110010101
1111011101001100
0000100011110100
0000011001110100
0000110111011010
1111101010011001
1111111011010001
0000111111000000
1111011010000001
1111110000100100
0001100100101000
0000010001110001
1111001100001100
1111101000010000
0000100101001110
0000001100110010
1111111100001001
0000011101100001
0000000001110101
1111010101110100
0000010001011111
0000001000100000
1111000000000110
0000011001100110
1111111001001101
1111100110110111
1111110000011111
1111110100000011
1111110101011000
1111101100110000
0000000110101001
0000000000100100
0000100011000111
1111101100111101
0000000101010000
0000111111110101
0000101110011011
0000001011111001
0000100011111011
1111110011111101
1111011010001001
0000000111110100
1111100110010011
1111101010111001
1111111011001100
0000111010110001
1111110100001111
1111010101101001
0000011001100110
0000011011100111
1111110000011110
0000110101010011
1111110010010100
1111110000001100
1111110100100111
1111101110000001
0000001100000100
1111011011101100
0000000010101111
1111100000101001
1111111111100111
1110101011001101
1110111110101110
0000001111100001
1111110011111111
0000011110101011
1111101110100110
1111011110100111
0000000110100101
1111011100111101
0000010110110101
1111010001100101
0000000101111111
1111011101011101
0000000101001001
1111101111001101
1111111000001010
1111101110101011
0000101011110011
0000001101100001
1111011101110000
0000001010011111
0000000110111110
0000000110111110
1111101001010000
0000001011101111
0000000101111110
0000111001100110
1111110100100110
1111101001000011
1111001010011010
1111100001110100
1111000011000100
0000001100110100
0000010010110100
0000001110011011
1111111100100100
1111111010001101
0000010111101110
1111000010010010
1111111011100000
0000011010101111
1111100111101010
0000000010100101
1111110110010011
0000011111000101
1111100101101110
0000101010111011
0000101001011010
1111110001000001
0000010100101010
1111101011010010
0000000111100010
1111111010100100
0000100110000101
1110111111101101
0000100001010100
1111010111000100
1111011011101111
1111110010101011
0000001010010000
0000000110111100
1111010011000101
1111100110010000
1111110101011001
1111011011111010
0000101011101110
0000100010101111
0000001100101001
1111010100110111
0001010110011101
1111101100000000
0000010001011011
0000100011101111
0000010011001001
0000110011101001
1111101110000000
1111011101110110
0000000101000100
0000011111001101
1111010000001010
0000001110001111
0000000010110101
1111010011001100
0000001001011010
0000001001101000
0001000111010111
1111110100101100
0000000010000101
0000001100001010
1111111110001011
0000010111010101
0000011110111011
0000001010111101
0000111001011011
1111111001011110
0000000010111110
0000100010001001
1111101110010101
0000010010001011
0000011101001011
1111001001101101
1111101001101001
0000010010110111
0000001011011111
0000001010101011
1111101011011100
1111110110011000
0000000011111110
1111110111001111
1111101010011001
0000101001110010
0000001110111100
1111011110111000
1111011110010011
1111111011000100
1111100001000100
1111111000011000
1111110010110101
1111111000000101
1111101111110010
0000111110011100
1111011000100110
1111100010100100
0000010100010010
0000011110111011
0000100001001101
0000010011110101
0000101001001110
0000101101100110
1111111000010110
0001000001010011
1111111100101110
0000000010000100
0000100110001111
0000001111101100
1111001000101010
1111011010100101
0000001111011110
1111011001010011
1111101010010111
0000001010001010
0000011000100111
1111110000111010
1111010111110001
1111100111011000
0000000010000011
1111110000100101
1111101111111011
1111011100100100
1111011110011010
0000011001010110
1111111011111111
0000000111010111
1111000000010100
0000001111011110
0000011111111001
1111111000100100
1111101100011010
0000110100100101
1111110000000110
0001101011011100
0000100111100001
1111110100001101
1111111001110010
0000001010010010
1111011011001100
0000101111111011
1111011100011110
1111100001110011
0000001010000111
1111111100101111
1111001110011111
0000000100001010
1111100101110111
1111111010001110
0000010101010011
1111000010111111
1111001001001100
1111100111100101
0000010101011110
0000011001101100
0000010010110111
1111000111001010
0000000010001100
0000110000100111
0000000010111011
0000011001000000
0000010100110111
0000100100001101
0000110010111110
0000100011100111
0000110000010110
0000111000100101
1111011101110001
1111110101111001
1111100000100101
0000000110101010
1111011100010101
0000010110010001
0000001011111000
0000001111001110
1111110011101111
0000011100010001
1111100100111100
1111110110000111
0000101001111000
1111001001000100
0000001110110100
1111101110000000
0000011100000011
1111101111001000
0000100000101010
1111111101100101
1111111011100011
1111001001101001
0000011111100011
1111110011110111
0000001100000001
0000011100000110
1111001011110100
1111001101100010
0000011110111100
0000001000111010
0000001110110000
1111011010000011
0000011111101110
1111111110110110
0000101111111111
0000000010111001
0000001110110010
1111010110000000
1111101101011100
0000010110010010
1110100111001100
1111111000110111
1111011000001001
1111010110011100
1111000111110000
1111100001100101
1111011100100011
1111101010101110
1111010101101111
1111000100110111
1110000010011101
1110100100110000
1111101010111000
0000000000001111
1111100010110010
0000100111111010
1110110011100111
0000010010001001
1111101101101001
0000101000000010
0000010101100011
1111111001010111
1111111001111001
0000100010101000
0000100000011001
1111110000100100
0000110110100000
1111001101111001
0000001111011111
0000010001011010
0000000110101001
1111001000001010
1111000011001001
1110001011010111
1101111010111010
1110010010101001
1110000110011011
1111011000111011
1111001001011001
1111100010010101
1111111001110101
1111000110001011
1111101000000101
0000001101101110
1111010001101111
1111101111010100
1111111100010010
1111110000000100
0000001111001001
0000101001001111
1111100100001001
1111111110001101
1111110000100100
1111110101011100
1111101111100010
1111110110001001
0000000011010100
0000001111111110
0000010110010010
1110110111110001
1101111001000111
1111000111111011
1110000110111100
1111000111101001
1110111011111101
1111011100010101
1110110010111011
0000000111001101
1111001001111100
1111101010001111
0000000101010011
1111011101011111
1111000111010100
0000010110001001
0000000100100011
0000010001011110
1111010001111101
1111100010010101
1111101100100001
0000001111100001
1111100001101110
0001001100011100
0000110111110011
0000111100101100
0000001011000010
0000100000111010
0000010101110000
1111001111000111
1110101101110000
1111010110000010
0000000111101010
1111011100010100
1111101111111100
0000001110100010
0000100100001000
1111101100100101
1111110110010111
0000010111010110
0000010001000111
1111111001111101
0000001011000010
0000001011111111
1111101110100000
1111110010011100
1111111011011110
1111011010011110
0000101101000000
0000001111101100
0000001011001100
0000000100010011
1111111001101001
0000011101101000
0000010111111001
1111100000110110
1111100010010101
1110111111110111
1111110011011001
1110111011110100
0000001010011100
0000010011101011
0000010000001101
0000001100010110
0000000100100110
0000001101111101
0000010010110100
1111111111011100
1111010110110110
0000001001011111
1110110111010110
0000001100010101
0000000111000100
0000101000111011
1111101110110011
0000101101100111
0000101101110110
0000000101001100
1111010100101010
0000001010010000
1111100100010001
1111011010101111
1111011011010100
1111110010100011
1111110110100001
0000100001011100
0000010011100011
0000001011000000
0000010110000010
1111110101101111
0000101101000101
0000010110010010
0000010011101101
0000010110101000
1111100011010110
0000011000000001
1111010111011001
1111111000011010
1111111110001110
1111100010101000
0000000000011000
0000000101000011
1111111100110010
1111111001101010
0001001101101001
1111110011000000
1111100111111001
0000101011101111
1111110001011001
0000011111001100
1111110101010110
0000001001101001
1111110110111010
0000010000111101
0000000011100000
0000111011001101
1111111101010110
0000011111110000
0000011000111001
0001011100001110
0001000000010100
0000110001010011
0000101101011111
0000011010111010
1111011001101010
0000011100001100
1111001110000101
1111100000101011
1111011010010101
1111010001000110
1111101100101010
0000001010101110
1111111011000000
0000000101101111
1111101110101110
1111101100100001
0000001010001111
1111100000010110
0000001111110101
0000100011001010
0000100100100001
1111101100011011
1111101111101111
1111100001101100
1111101001110011
0000101110100001
1111111101100110
1111110010101111
0000100010111010
1111101011010100
0000100001110001
0000010100100010
1111110111100101
1110111001111100
1111111000010101
0000001101011011
1111101100010110
0000001100010101
1111110100110101
0000001111111010
0000110110100000
0000001100110010
0000010100010011
1111110101010001
1111100010101110
0000010100001000
1111101111000001
0000110001101110
1111101001111001
1111111011100000
1111110111101111
1111111111001101
0000001011011010
0000001100000000
0000100100010011
1111101101000011
0000101011010110
1111110101000010
1111110001010100
1111110111101011
1111010111101110
0000011101000110
1110110101101010
1111100010101011
1111100110010110
1111110000001010
1111111100010010
0000110001001011
1111111000001110
0000101111011010
0000100110111011
0000101101011011
1111101101111101
0000001110111000
0000011101100011
0000010000101001
0000010111011011
1111100111000011
0000000110101000
0000000101001101
1111110010111111
0000000110000100
0000010000000110
1111110111010010
0000101010010001
0000001001000001
1111110000111110
0000010001101110
0000010011011000
1111101101001001
0000010111110011
1111100110111011
1111010011011000
0000010101101010
0000010000011010
0000000100011011
0000001110111111
0000010111101110
1111101001110111
1111011011110011
0000101000101100
1111011100111110
1111010111001111
1111011000010001
1111011001010011
1111001110011010
1111011111111010
0000111011001010
1111110111110010
1111111100111110
0000011000110010
1111101101101111
0000000010000001
0000000000111000
0000001011100011
1111111100000101
1111100101010001
0000111100110110
1111111001001101
0000000000101100
1111101011000110
0000001101011101
1111010101000110
0000010100100011
0001010010100100
1111101100010111
0000001000011101
1111111111110001
0000001011101011
1111111110101110
1111111010111010
1111111110100110
1111010000000010
0000011110101101
1111100101110111
0000100111011100
1111110101101000
0000100111011000
0000100000111100
1111100000010000
0000010010010111
0000001001100011
1111101110100010
1111111010110110
0000001011011100
1111101101111111
1111111100100111
0000110011001000
1111001101010011
0000001101100011
1111110011010101
0000010100001110
0000000111001110
1111100001000001
1111001001001010
0000100000010000
0000010001111010
1111000000111101
1111111100001100
0000001111010010
0000000110110010
0000011010010111
0000111000101101
1111010000010101
0000000100011111
1111100111001001
0000001101101100
1111100100100101
0000000101011110
1111100100000001
0000100111111001
1111011110010110
1111011110101000
0000011000110000
0000101101100111
1111010001100001
1111110000110101
1111011011000100
1111110101011001
1111110010010110
1111111110001111
1111111110011100
0000011100111101
1111111110100111
1111011000111001
1111101010001110
1111111000001111
1111111001111111
1111101000110100
1111110011001110
0000110010000100
0000010110011001
1111110001000110
1111100111001001
1111100110011100
1111100000011101
1111110001100110
1111110110000110
1111100111101010
1111101111001101
0000100101111001
1111100000111010
1111111110110011
1111111101000100
0000100110010101
1111110110001010
1111111000001010
0000001111111100
0000000101111101
1111011100111000
1111101100000110
0000010001101101
1111010100000101
0000010000011000
1111011111100010
0000011100000111
0001000001000101
0000100110011111
0000101110111100
1111101001111111
1111110011111001
0000101000011001
0000001000000111
0000001000001111
1111111000101100
1111010001101000
0000001010001001
0000100101000000
1111010100001100
1111101001111011
1111110001000111
0000000011100101
0000111011100101
1111111001010001
0000100011110000
0000001100010101
1111000010111010
0000001111010101
1111010010101101
0000100001011101
1111100100101010
1111111101111111
0000010100011111
0000000010000011
1111110100100011
0000001111001010
0000010100101110
1111110101011101
1111001111000100
0000000110011011
0000000011110111
0000010100001111
1111011110111010
1111000100100011
0000000000011110
1111111011101001
1110101110000010
1111011100110011
0000110011101111
0000000110011001
0000010010001100
0000001100010001
0000000000000010
0000010010011111
0000000100010001
1111101000000101
1111011011010101
0000010011111011
