0000010000010000
1111100011111101
1111100101010010
0000110101111001
1111111001010000
1110001111011011
0000100110110011
0000010011110101
0000110010001101
1111010010101010
1111110100001010
1110001000111001
0000110100111010
1111100100001001
0000110001000010
0010001000010111
1111000111111011
0000010110000110
0000010000001101
0001110010000010
1111100000010001
0000000010110111
1101100010110001
1110010100010110
0001001100100100
0000000100011101
0000101010001001
1111100011011011
0000010110011111
0000101101011010
