1110100001000110
0001000010110000
1110011101001000
0001010111010010
0000001101110101
0010000001100100
0001011010100101
0000010001010110
0000001010001001
1111101010110011
1111101110011111
1111110000000111
0001101000101111
0001110101110111
1110011110100100
0001000110110100
1110010101000111
0000100110001101
1110011011010101
0000000011011011
1111110000110100
0000101011110011
0000000000100001
0000010000101111
0000100111001111
0000001101011110
0000000010111001
1110011010110101
0000000111111100
0001001001011111
0000111101011110
1111000010110010
1110001011010011
0001000100101101
1111100010111101
0000100101011110
1111110000011100
0000001110001100
1111111110111110
0000010011100010
1110110001111101
1111101111101011
0000110011100011
0000000111100110
0000010011000010
0000100111011010
0001110001100001
1110110000001111
0000100110001011
1111111010100110
1111110011100100
0001000000011010
0001001101011010
1111011110100111
1111001111011111
0000101011000011
1111101011011000
0000000100110010
0000011011011001
0000010011011110
1111110000001110
1111101111011101
0000101000010100
0001010000001110
0000100101001101
0000101111010101
0000101000101000
1111100111001000
0001101110101011
1110110111011001
1111110100101101
0001111010001000
0000100100000011
1111110000000100
1111100100101110
1101100100101011
0000110010111100
0000100100101001
0000000100011101
1111011101100111
1111100010000000
0001000101001110
0001110011010110
0000111101011001
0001100111001001
0001001000001101
0000011000011011
0000100011000010
0001111010001010
1111000011101100
0000001000001010
0001011000000101
0000110111101111
1100110000000001
0000001011000001
0000111110000001
1111111011010011
0001010101010000
0001110110100111
0001000001111000
0001100001111100
1111011011011101
1110010010010100
1111000000000010
0000111011100111
1111100001111000
0000101101011010
0000111010100100
1101100101011011
0000000100010011
0000110010011010
0000001000111111
1111100100001110
0001100101111010
0000001010011011
0001000011101110
0001000111100111
1111011011010101
1111001110100000
0001011110010110
0001010100010001
0000000001000100
1110110110011001
0000001101010011
0000011100110110
0000100000111100
0000001100011110
0001110101111101
1111110110110011
1111111110100001
1111001101101000
1111101010000001
1111111001000110
1111100100010001
0001010000110001
0000101001100011
0001011110010101
0010001101101100
0001100100011001
0000100111000001
0000011111000101
1111011000110101
0000101111000001
0000010111000001
1111000011001101
0000001001110011
1111001011101111
1111111000001111
0000000001101011
0000010000000000
0000111111101101
0000101101001010
1110100101110011
0010001111110000
1110001001110010
1111111110010010
0000101010000100
1110110110010011
1110010010010010
0001000000000111
0000100011100111
1111110101010011
0000000011000001
0000101110010110
0000000010010000
1110101111100111
0010011010011010
1111001001011110
1111101011111110
1110110110011101
0001001110111001
1111111001000110
0000000100110011
0000011011111101
0001000011011111
0000110000100100
0000001100010111
1111001000101110
1111101010101111
0000001110111011
1110100010110101
1111001110100001
0010011000000000
0000001001111111
1111101000010011
1110110001111101
1111111011111000
1111011110111001
1111100011101111
1111110100001111
0000010110011101
0000010100100010
0010000101111100
0001001111101001
1111110100011101
0001011010100000
1111011110000010
0000010111111110
0000110110001101
0000010010101001
1110110101110010
1111000001101010
1111111100000100
1111101010011100
1111001101100100
1111001110101111
1110001001001101
0000100100111100
0000011111010100
0000000001100010
1111111111010000
1101101010101110
0000011100110100
1111001101011100
0001001010110100
0001000101111011
1111111011001000
0000111010010110
1110110111101000
1111111110100110
0000100011110010
1110101100100110
0000000100010100
1111011111011010
1110010110010010
0000010100100100
0001010011001000
1110011111100011
0000100101001000
0000011101010000
0000111001010110
0000001001110100
1110110100010101
1110110000001010
0000001010101110
0000101011100100
0001011100001000
1111010000110101
0000110000100101
1111111000001010
0000110011000001
0000000110011110
1111111101110000
1111010000110001
1111110101010011
1111110111010110
0000011011101001
1110111100001001
0000010111000001
0001000001111011
0001010110110110
0000100101010010
1111110100000111
0001101001010001
0000011100001010
0000100001010011
0000010101100110
1111110100101001
0000010010011110
1110111000111001
1111110011101000
1111110100111010
0001100000000101
0000000010010011
1111100011011111
0001110000010001
1111101111110101
1111001010001110
1111111110100110
0000100000011000
0000111110110110
1111000010100000
1111111001101111
1110001111010010
0000001111010000
0000011010101011
1111001011000111
1110110011110100
0000111100111111
1110111001000000
0001101110011001
1110101000111111
0000010100000111
0000110001001011
1110111100100000
1110111101110001
1111001101000010
0001011100010010
1110011100000110
0000100100011101
1110110000100001
0010010001111000
0000000001100010
0000101011010010
1111011111110101
1111110010100101
0001110111110001
0000111010111100
1111011100101100
1110101101000001
0001110111101000
0001001111101100
0000101001001011
1111101100010110
1110111110110100
0000000101100010
0010001111101101
0000010000100111
0000101011101010
1111111110110110
0000110110000000
0000111000110111
1110110111011100
1111110000011110
1111001110101110
1111100110000010
1111100100011010
0001001101001111
0000101100010100
0000111111110011
1111110000001100
1111010110101001
0000001001010000
1111010011011111
1110011010000001
1110110101101001
0001101000110001
1110110110011101
1110001011111100
1111101000101010
1110101011100000
0000100111101010
1110111010101000
0000100111101101
0000110010110000
1110111010011101
1111000110100011
0000011110000100
0000011100111101
0000100100011100
0000100110011110
0000111011010101
1111111000100000
1111011100101101
0000110011011010
1110110110101111
0000100011001011
0000000000110101
0001001001100100
0000111010111011
1111100100101011
0000110000101111
0001000001011110
1111111011100001
1111011001110011
1111111011001000
1111110101101111
0001000001110110
0001100101101100
0000001000100000
1111101011011000
1111010101101101
0000011010110101
1101100110010001
1110011101001000
0001010011111111
1110000100110111
1110111110010000
0000000111010010
1111111100010110
1111110111110111
1111011000011100
0000001110000110
0000011110010101
1111111110110100
0000100101000010
1101111101100111
1111011110111111
1110111101111100
1111010000100110
1111001110000010
1111100010001111
1111100011101111
0001000111010111
1111101111100110
1110100001010111
1111111000000110
0000110000111001
1111000100000000
0010011001100011
1111110000110001
0001111110001100
0000010011101111
0001110011101110
0000000011011111
0010010101001100
1111110111110111
1111111110100111
1111101011000001
0000001000001101
0000010000011011
0000011011000000
0001000101011011
1111100000110001
0000011100110011
1111010110001100
1111100010110101
1111101110001001
1111111101011011
1111100101010111
1101110010001111
0000000100010000
1111111110010110
0001110100101010
1111000101110000
1111010110110001
1111100101110000
1111110110111111
1110101010111110
0000100110000011
0001001100110110
1111000101100011
1110001010101110
1111100001100011
0000101001010101
1101101011110111
1110111000111011
0001011000110111
1111010000010110
1110111011111110
0000011101110010
1111110000000100
0000000111101001
1110100010010010
1110111101101111
0000110011111101
1111011011100110
1110101000001101
0000000011110101
0000001011100000
1110111001111100
0000111100101001
1110010000000000
0000001101010001
0001011000001011
1111010111110101
0001100010111100
0000000010010111
0001110000011111
1110111100011101
1110000110100010
1111101111110011
1111011000110111
1111101110000000
1111000010010111
0001010101110100
0000100101111111
0000110001001010
0010001010001101
1111110110010000
1111100110100111
1111111001000010
0000100100010011
0000000111010000
0000001000000011
0000101000100111
1111010001100010
0000010010011011
1110111011011101
1111110110110001
1111001011111001
0000001100110010
1111100110000010
0000110001111010
0001000110010110
0000101011011001
0001001011100100
0001010011101010
1111011001100100
0000100011001011
1101111111101010
0000000111010001
0000111100001011
0000011110101110
0001000110111000
1111011011010010
1110111000110000
0000000100001100
0000000001010100
1111011101110010
1111111101111001
0000100101110010
0000000000010101
0001010001010111
1111011101100000
0000100010110110
1101101110100111
1111100011010001
0001101100000110
0001110010010110
0000011100001100
1111010001101111
1111101000101100
1111011010110110
1111011111000100
1110110110010111
0001111000110011
0001001011100000
1111110001001101
1111010000100011
0000011110101000
0001011101000100
1111000010011010
0000110010111111
0000011100100100
0001001111111011
0000110011000011
0000110110111100
0000100100101110
0000100000110010
1111010111001001
1110001111000001
0000010001100011
0000110111100010
0000101010001111
1111110001101011
1110101110010111
0000110110000111
1111010010001011
1111111000010000
1111101010011001
1110110101010111
0000000010101101
0001111111100110
1111110010010110
1110110001100010
0001010000101100
1111111110011101
0000000010111010
0001011001000010
0000000011010011
1111100110110010
0010001001100011
1110110001011000
0000111111110110
1111010110011100
1111101111101111
0001000011001001
1111101010101010
0001011101001101
1110001011000110
0000000100110111
1111001001001010
1110010110110010
1111110010011110
0000100010100000
1111111010100011
1111001000110101
1110111111010011
1110111110101110
1101101110111000
0000011110100110
1111001110000111
1110100000011101
1111001011000010
0000101001111000
0001111001110010
0000000101000000
1111111111010101
1111111000001001
0000100100100011
1111101101100001
1101110010101110
0000001001100100
1111000001001101
0000100001001001
0001010011101101
0001011111001011
1101010101011110
0001110100111000
1110111110101111
1111010000101110
1111101001110001
1111101001110110
0000001110101000
1111110011001101
1110100100110111
1111101111000101
1111101010101000
0000101100001111
1111110000111110
0000110001110101
0000100001100001
0000111111110101
0000011011110100
0000010001011010
1111111111110000
1110111110110011
0000011001110100
0001001100100100
0001010010110110
1111011101110110
1111110100001111
1110001110111000
1111101011100010
1111100101011000
0000110111101011
1111100011110001
1111111110111100
1111110101111110
0000011011110001
1110100001011011
0000000011111111
0000100101111011
1110100001111110
0000100111110100
1101101101111101
0001000000111000
1111011010000110
0000001111011010
0000111011000101
1111101001001011
1111001001011000
1111011101011111
0000010000001101
1110111011100001
1111110111110011
0000110101111010
0001000011111111
0001000101111000
0001010100000011
0001011011011110
0001000100000011
1110011000101000
0000010111010101
1111111010011100
0000100001100110
0001000000111110
0001111011001000
1111111110011001
0000000010101110
0000100001101010
0000011101111101
0001110111101111
1110111001010001
0000001111110000
0001111000100000
1111110111010000
1110111110000110
1111111001101011
1111001101000101
0000100001010101
1110111111110000
0000001100101011
0000111100010001
0001110000101011
1110111011100011
1101110011100101
0000011100100011
1111101100100011
1111111011111010
0000111110000110
0000100010100000
1111011010111011
0000110000001011
0000101110101000
0000100000100010
0001110100011101
1110111110111010
0001111111111100
1111101001000111
0000111010100101
0000111100111111
1110110100110001
1110101010001011
1110101001000100
0001101111101100
1110110101101111
1111100011100000
0000100001101100
0000110111011111
1110011100010101
1111010000101110
0000111110100111
1111111110011101
1110011010010111
1110101101011000
0000001000111010
1110010010001110
0000010001011011
0000100011100011
1111101000101110
1111110100101101
1111101100010000
1111000111110010
0000011111100101
0000010001110000
0000010100101110
1111100110001011
0000000010111101
1101110101001100
1111111000001101
1111101101001000
0001101111010001
1111110101110100
1111101001111011
1110000100010100
1111100110101001
0000000000111011
1111111011001011
0001010000000110
0000010000001111
0000001100011101
0000011100110110
0000000011010001
1111000000100000
1111110101101000
1111110010010110
1110100111011111
0000110100001111
1111100110101001
1111010001011010
0000001000010110
0000101010001111
1111101000010111
0001101011110011
1110010001101101
1111000010111011
1111001111001111
0000001011010100
0001000000000111
0001100010011010
1110100001110100
1111101111101100
1110001100001010
0000100011001100
0000000001101001
1111101101001011
1011110100000000
1111011101110001
1111011101000001
0000100010001111
0001000000000000
0000100110011011
1110111000001001
1110110110010011
1111001000111011
0001100010011010
0001001111000110
0001001010110001
1111101001111111
0001110100100101
1111101010000110
0001011000001000
1110011000010011
0000100111111000
1111011111001100
1111001010010100
1111100101101101
1111000110000101
1111000101010101
0001000010000010
0001000101110100
1110001111110001
0000111111010000
0000011001001111
0001111100111101
0000111101010101
0001000010111000
1111111111101001
0000100001110000
1111110110111001
1111001001101001
1111110101001011
1111100111011101
1111000001110101
0001000101110100
0000011101111111
1111100100101010
0000011100100111
0000001111111011
0000010111001000
0000011110000010
0000101111100010
