1110001001010111
1111000001110110
0000111010101000
0000011100100110
0001001010100011
1101111100110010
0000010010101101
1111110111111100
1111011101011110
0000111010101110
1111001101001101
0000010101110011
1111100100100111
1111011000001010
0010001101001001
0000100000000110
0000100001100100
1111100100110000
1110101111011010
1110101001100011
0000110100100101
0000100000000000
1111100000100011
1110101001110101
0000100011100000
1111101011101010
0000001010100011
1101010010101110
0000100001000001
1111100100101001
1110011000100100
1110011010010010
1111100010110111
0000101000001011
0000100101101011
0000011111101101
1110111011000010
0000000100110011
1111010101011010
0000101000011110
1110001001100010
0000010110100100
1111010100100110
0000101100011011
0001101001000011
1110110101100011
0000010000010010
0000100110001101
1110100101110000
0001000001100001
0000110011010100
0000100101011101
1111100100011010
1110110010011111
1110001011001000
0001001001100000
1101000001010010
0000100100010011
0001010101010000
0010010111000000
0001111000011100
1111101011001101
0000000001000111
1110011111101011
0000100010110111
0000101000001101
1110101010001000
0000100111111111
1111100000111101
1111100001001111
1111100101010101
1111110101011101
1111100101110011
0000111011000100
0001000101101111
0000101101010100
0000110110111000
0000001000100000
0000101101011101
1110111100110101
0001000010111000
1111100001000110
0000110101100001
0001010001100100
0001101101010000
0001011010001100
1111000001011011
0000000100000100
0001001001000001
1111010100010001
0000001100111111
1111010111001111
1111011111111011
0000111011010010
1110101001000100
0001001101010111
0000010100010100
0001111110111111
1111100010110100
0000110010000101
0000110101000001
0010010000000110
1101101101101011
1111100100011110
0000100010100111
0000001101100011
1111110110100001
1111010010010000
1111110111011000
1110110000100001
1110100111110010
1111101110111111
1110010001101110
0001010101011011
1111010101101100
0000010110011010
1110101100010001
1101101101111110
0000011101001101
0000111010011001
0010001110110010
1111110011101011
0001100001111001
0010000000101100
0001011001001101
0000100111110111
0000010010110010
0000001001110101
0000000101000101
1110101010011101
0000001100000111
1111110101001000
1111100100100010
0000000000000001
1111000110001011
1111011000100101
0001000010111110
0001101011111100
0001000101000100
1110101010111011
0001000010010101
0000010011100011
1111010001001110
1111000011101001
0000001001101011
0000101111100000
0001011010000000
0001100100011101
0000000110101000
0001001001001110
0000001000101011
0010100010000011
0000100000010110
0000000000010011
1111101010101011
0000010110100001
0010111001010001
0000101111101001
0001111000101010
0000100100100010
0000110000100110
1111101000000101
1110110000000001
1110100001111101
1111100100010010
0000001011101100
1111010111010000
0000100000001001
0000001110110100
1111110100110010
1111100000001010
1110011111001000
1111100000101000
0000100010110001
1111100010100111
0000110111111010
0000001011011011
0001010000010110
0001000110111100
1111001111101001
1111011011011101
0000001001011101
0010011011101110
1111011101110001
1111101110111000
0000001010100000
1111110110000101
0001011011101110
0001000000110000
1111110000000111
1110111101100000
0000001111110100
0001000010000101
0000111100110111
1111010010100011
1110111110101101
1110110101011010
1110010110110110
1111101110011000
1111100111010010
1110101000011101
1111111100111101
1111111011100100
0000110100011111
1111110011011101
0000011011001000
0000010010111011
1111100111000010
1111100000111101
1110011100000010
0000100001111100
1111001010010011
0000001110001110
1111000110000010
1110101111010110
1110011011101110
0000100011100110
1111010110110001
1111001100001011
1111111101101111
1111000111001110
1111110001000011
0000100001110110
1111010001101110
1111100000011001
0000010111010110
1111111101000111
0001000001100011
1101110101111000
0000001010110110
0001001010000011
0001111001100010
0001000010010100
1111010111010000
0001010001101000
0000110011101010
0000010001100010
0000011011010001
1111110101001111
1110111001001111
0000010000000011
0001101101111011
1111100001011011
0000010011100111
1111000100001101
1110011110110110
0000011111110110
0000010001010101
1111100111110011
0000110010000001
0000101100011100
0000000110000111
1111100100111110
0000100101001010
1111110000001010
1110111011101010
0001000101101110
1111111100111010
0000010101001000
0001000110110010
0001001010011100
0001001000111011
0001110010010100
0000001111001111
1111000111111101
1110100011001000
0000100000101110
1111101101000001
1111100100101001
0000011110101100
0000000110111110
1110010011001001
1100111100001111
0000001100100001
0000110111111100
0000001000010101
1111101111111100
1110111000110101
0010011110110110
0000010111100110
1111010000101001
1111011101110111
1111111001001010
0000110011111010
0000001111111011
0000000010111011
0000101000100101
0000010000100110
0010001011111011
0001000101000110
0001001111001010
1111111111010111
1111101010101111
1110110001100011
1110010101000010
0000011100110110
1110101110111000
0000000001011000
1111001011011111
1110110000100101
1111100111000110
1111010111111101
1111011011010110
1110110011101000
1110111100000101
1111001000011011
1111001110100010
0000100010110110
0000000101001000
0000101010100000
0010000011010010
1111100011001000
0000111000001101
0000001100000010
1110111010100101
0010101010110101
0001001011010101
0001100100110010
0010001100011000
1111011001101110
1111001100110101
1110010001110110
1110100011000000
1101001011101011
0000011011111000
1111000011110001
1111011100010100
1111111101111111
0001111100100001
1111111101011100
0000111111011110
0000001110000000
0000111111111101
0001011010110101
0000000010100101
1111010100010110
0000010011111111
1111001011100000
1111010100111001
0001001111000111
1111011011100001
0001011110010111
0001110110001111
0000001101111110
0000100111101110
0001001000110001
1111101100111101
1111101010001001
1111100001110110
1110001110001110
1101100100100110
1110000111001101
1111010100111000
0000110010010100
0000001000000000
0001000110101111
0000001100010101
0000000100111100
0000100111001110
0000001101001000
1111101110110000
0000110000110111
0000000000001011
0000001011000101
0001010100001110
0000001010010001
1111010110010101
1101011011010110
0000110101110011
1110010111110100
0000011111100011
1111010011011110
0000101111000111
1111000010001010
1111101111011010
0000110010110110
1111000010111111
0000000111101110
1111001000111100
0000001101000010
0000001101101100
0001001101011010
0000011110010001
1111100011100000
0010101010101010
1111110000101110
1111111101000110
0000111100001010
0001101001101111
1111111101100111
1111110001000111
1111010011001100
0000100110010001
0000111000011010
0000010111101011
1101111001101011
0000001100011011
1111001111101101
0000000010101000
1111111000000011
0000100001111111
0000111110111111
0000100111010011
1111101101110000
1110111011101011
0000000001111101
1111011101001110
0000000011001011
0001110011100110
0001001110100010
0001110110101001
0001001010110100
1110001100101010
0001110111010110
1111111100110100
1111101111101101
0001111000111011
0001001000010111
0001011000000000
0000001000111101
1111111110110010
1111101110100011
1111110100011110
1101111101111011
1111010001110101
0001101100001101
1111111011110011
0000000101010000
0000011000100000
0000100101000000
0001010000101000
0000001110011100
1111101011000011
1111111111010111
0000000011011100
1110011110010110
1110100010110101
1111001011111011
1111011101011011
0001010100100010
1110110010001000
0001011000010101
1111000000010010
1111111001101110
0000011001111111
1111010110111001
0001011011001111
1111000000011100
1111100011101101
0000101010110010
1110101010110100
0000100111110110
0000111101100101
1111010111101001
0000011111010111
0001111101101101
0000001101100111
0000110110001110
0001010000011110
1111011111011101
0000111100001010
1111001000100000
1111101010101000
0000001110100100
1111010110110011
1111000001110010
1111101000000011
0000110111011111
0000110110011011
0000100010111110
1110110110001010
0001001101111110
0010000101011010
1111010011100011
0000011000110101
0000100001011011
1111001110011111
1111001001001011
0000101101101000
0000101101110010
0001000111101101
1110001100010010
1111101110100100
0000101000001101
0001001011101101
0001111110011010
0001110111010100
0000110111001010
0010101001110100
0000001010011100
0000001010010100
0000110100110101
1110011101110010
0000000111010110
1110111011011001
0000011110101101
0001011100010010
0000101000111011
0001100001001010
0000011110111100
1111101001110000
1110101011010100
1111011001110010
1111111010100000
0000000001111101
1111011101010101
1111100100100000
0000000101100011
1111100000101000
0001111000111101
0001111110000010
0000011001011110
0001010010001001
0001110100000000
0000101011001101
0010001010000010
0000110011101010
1111011100011110
0000100110111101
1111010111101000
1111001001011000
1111101000001001
0000011101010001
0000111001011001
1111101101010010
0010010001100010
0000000101111010
0001000100001100
0000010111001000
1110110101010110
0001001010101011
0000101100001100
1110111011001111
1111111110101011
1111101010111100
1111010001011010
0001010000010111
0001000101001000
1111001000110000
0000000000110111
0000100110000100
0000100011001001
1111100000101111
0000010111000101
0000011011011001
1111011101001000
1111010101110001
0000101011010101
1101110100110001
0001010110011110
0001011010110001
0000111111010001
0001101011011100
0001110100010100
0000101011000011
0001000100011111
0000001011011110
0000001000110110
0010000111100110
0000110000111010
1111110100011100
1111111111000101
0010000010000011
0000001101000000
0000110110100111
0000011010100100
1111100010011110
0010010000010010
0000000011000010
0000001001010001
1111011001001001
0010101111001001
1111011100000100
0000010000100101
0000100101101110
0000111001100101
0000010011101001
0000100110011101
1111000111110110
0010011010110111
0000010110110000
0000101001000011
1111101111101001
1111101100000010
1111111010101001
1111100110001011
0000111011101001
0000010010011010
1111011111111000
0000000110100010
1110101011010110
1111001001011101
0000110010010001
0000110110001111
0000111011101101
1110010100100001
1111100111110110
1111111011101101
1111011010010110
1111001010101000
0001010111110001
0000101110010011
1110110101101001
0001010111000101
1111000101111101
0000101001010000
0000101001101010
0000101110001101
0000001000111101
1111111100001110
0000010000101000
0001010100010011
1110010111001111
0000100111100110
0010011110100101
1110100011111110
0000000100011100
0000010110111000
1111111101010101
0000011110111111
1111101000000101
0000011100000100
1111011001100011
1111000000111100
1111111010001010
1111111000010010
1110010100101000
0000011101101000
0000000010000110
1111100100001010
0010011111011111
0000010010001101
1111111111000011
0001011011001011
1111111100111000
0000010100111001
1111101110110010
0000001101000001
1111110001111111
0001010001011000
0000110011000000
1110111101010000
1110011000111101
0000010001110011
0000000110010000
1111100000100000
0001000101100001
1110110011110100
1110011111000000
1111101001010111
1110100100100000
1111110001001010
0000011001111001
0000000010010010
1101111110101111
1111001000010100
0000100100100001
0000110000101000
0001011101000101
0000011001000010
0001000111001100
0000001010011001
0000111111101001
0000010001110110
0001001000000001
1111110100101111
1111011111111100
0000011011010111
1111100110000011
1111111010011111
0001000111101011
1110111110100011
1110101010101010
0000111010110100
1110110001110000
1101110100001000
1111000000001011
1111000101010110
1110101001110100
1110100101010110
1111001100011001
0000000110100101
1110111100001001
0000010000110111
0000101100111010
0000101101000000
0001101011001101
0001000010001100
1111111111110110
0000011011001110
1111110001111110
0000000000000110
1110111001000100
0000110100110001
0000000000101101
1110001001111110
0000110001111010
1101110010001000
1111011011010000
0000110001001011
1111111000001011
0001100010000111
1101100101010100
1111000000010001
1111100001000010
0001011011110100
1110011110110001
0000100000110010
0000000101111011
1110101101111101
0001010010110101
1110101110010100
1111010110101110
0010110110010111
0000010010000110
0001111101101011
0001001010100011
1111101111111011
1111111000111111
0000110000010111
1111111000000110
0000110101001110
0000100011101010
1111011000100110
1111001011000011
1110111010111110
0000001101100100
0001001111111100
1101110110010011
0001100011110000
0001100110101001
0010001110011011
1111111101001001
1110001101001010
0000000100110000
1111110111000111
0010001001110100
1111010000100100
1111001011101001
1111100110101100
1110110100101101
0000101011101111
0001100010011000
1111101010101100
0001111100110010
1111011010010100
0000000001011011
0000011010001101
1111101011011011
1111111011010101
1111000001101001
1111000000100101
1111010110010111
1110100011010100
1111100100000001
0000000000010101
0000101110011000
1110011000010101
0000001000010011
1111101100100011
0001010011000100
1110010011111100
0000000110110111
0001110001101110
0000111110100101
1111101110110011
1110011011001010
1111111010101101
1111111111100100
1111010010001001
1110110001011000
1111101101000000
1111110010010111
0000011101111110
0000101111100111
0001011001110111
0000110001101001
0000000011110110
1111111001101101
0000001110010000
1111110011110110
1111101110111110
0000010110000011
0001011010101011
