1110111101010001
0000110111100011
1111100101000101
0000000111110000
1111010001010010
0000000000110000
0000010010011010
1101111101111100
0000011000011101
1110011100010111
0000110110000100
0000001000111010
1111000011011011
1110001100110000
0000001010000011
1110110111010010
0000001110111010
1110010000111100
0000001010101111
0000000101010100
0010001010111110
0010000110111000
1110101000010110
1110000001101111
1111110110000110
0000010111011101
0001000101010111
0000101100010101
1111110111110111
0011010111100110
0000101001001100
0000010110110101
0000000010011010
1110101100110001
0000010011110011
1110011001000000
1111001001001101
1110010110011001
0000111000110111
1111101101111000
0000010001111111
1110110000101010
0000001011111100
0001100111101001
0000001111011110
1111111111111010
0000011010010110
1111101000010010
0000011100011010
0000011001001101
1111011100001111
0000011100101000
1101111111100011
0000001001101110
1110111011100111
1110111110100010
0000010000000000
1111111000000000
1110111010101100
1111010101011001
1111000001001101
1111111110001010
0000000000001110
0001000000001000
1111001000110000
1111010100011000
1110101100001001
1110110000001000
0001010111100100
1111011001001110
1111100001111110
1110011111000101
1111010010001001
0000010010100110
0001110011010011
0000000101110100
0000111101111000
1111111011010011
0000101011110111
1111010100100001
0000000001010011
0000000001110100
0000111100001110
0000011011000110
0000010100010011
1110000001011001
1111100110110111
0000001011010110
1110000000101101
1111111100111000
1110010000010011
0000110101000101
1111000111011110
0001000001010101
0000000110100001
0001010100001100
0010011000001111
0000011011101101
1111100011110101
0000101010001101
0000101011011101
1111101001010010
0000100001110100
0000100000111110
0000111000010011
1111110110110100
1110100011100110
1111111101001100
0000111100010111
0000001101001110
1111010011011011
1111110001111000
1101111011101111
1111101101111100
1110111000100001
1110011111000011
0000000101011111
1111010110011000
0000010101110010
0000001001010110
0001001101100010
0001101111010011
0001011110111000
0000111100011100
0010000000000001
0000101000111010
0010101110111010
1111110110001011
0000100001010101
0000110010111010
0001011000010111
1111110001110011
0000100010000110
0000111010010101
0000111010010100
1111001111111110
0000011010011000
0000111101110010
0000000101100011
1111110110111110
0000011000000001
1110000111100111
1110100110010001
0000010001110111
0000010001110001
1111000100110001
1110110110101110
0000011100010101
1111101011010101
0001001101101100
0001100010111100
0000001111011010
0000011011010110
0001001111100110
0000001111001110
0001100101011011
1111111110011001
1111011100001010
0001100001011111
1110000101110010
1111111101100101
0000111110000001
0000001010001001
0000010000011001
1111111001011001
0000110011101110
1111111110010010
1110011111100011
1111000110111110
0000010001110001
1110110010111100
1111000001111000
1111111010111110
1110111110010100
0000010000000000
0010011000100011
0000011011110010
1111010111011011
1111101101000111
0001100100011101
0000000100101001
0000011101000111
0001110010100111
1111010100111111
0000101000011101
1111110000001101
0000001011101100
0000101111110001
0001000001011001
1111001110110110
1101101110000001
0000111010000001
1110101000101100
0000011011000001
1111001011100101
1110110000000011
1111110000010010
1111111001110111
0000011000101110
1111111000111110
0000111110110100
1101011110001000
0000110011101011
1111100100101000
0001001110110011
1111111010010000
0000010101010111
0000111001000001
1111101110000101
0000000111111101
0000100010101001
1110111100110011
0000001011100100
1110001010000100
0000100110100000
0000001011011111
1110100010110111
0000010100101100
0001010110100001
1111111100111111
1110111011011011
0000111110101100
0001001001111101
1111111110001111
1111001101001010
1111011000100001
1111011110110110
1111101000100000
0000111000110101
0000100000100010
0000001001100010
1111110001010011
1111101000010001
1111001001111001
1111110011111001
0000100011111000
1111110101111111
1111011011000100
0001000101100010
1111000101101001
1111110101110000
1111011100101010
1111111011101110
1111101101110010
1111101010100010
1110111011010101
0000101101110111
1110011010101110
0000010001111110
0000001010011111
1111111001010101
1111111011110010
0001111000101010
0000001111101100
1111101000101000
0000101010001101
1111101010101000
1111101110000010
0000001011001000
0000000100111010
1111010111101001
1111111011110110
0000111111111101
0000010110001111
0001001011111001
1111100111110011
0000011010011100
1110110001110110
1110111010101001
1111010011101101
1110111101000101
1111011100100110
0000010101111010
1101000100100110
1110101000110010
1111011111111100
1110001110000111
1111111101110000
0001001111010001
0000001110011100
0000001110000000
0001001011000100
1111101010011010
0001000101010010
1101110101101001
1110011100000110
1111100110001000
1111001000111111
0000101100000011
1111101111111101
1110111001001100
0000010101000100
0000100100000010
0001100110100011
1111101111010111
1110010101110010
1110011011010010
1110111100100110
0000001010111111
1110000100000000
1111010001100001
1111000101000100
0010000001100010
1111010001111011
0000011000100010
0000101010011001
1111101011010111
0001000110001111
1111110010000010
1111001000110001
0001010001011010
0000111000011111
0000000011101101
1111001110100100
1111111111101010
1110100010100100
1110001100011011
1111001011010001
1110101111111111
1111101101111100
0000100111011110
0010000001000000
1111101110000110
1111110001000110
1110101111011000
1111011000111011
0000010000101000
0001011110001100
0000010001100010
1111101010101111
1111110111011110
1111101011111010
1111010100010001
1111011110101101
0000011010101011
1111001110101000
1111111010000110
0000101000001101
1111111111011010
0000000011111000
1110101001001101
1101111101101001
0000000001100111
1101100001001011
1110110110010001
1101011101001010
1111000100011011
0000000111010011
1111010001101001
0001011011101001
0000001100100010
0000110001011110
1111111000101100
1111100000100011
1111110011011101
1111011101100111
0000111100000111
1111011101000111
0010110001001110
0000111111111011
0000110001010111
0000100100100001
0001011111010111
0000000000100110
0000010100001111
0000010100110001
0000011011101000
0000011110100000
1110010100111000
1111010110111111
1101110001001100
1111010100011100
0000000010101110
1110110111011100
1110001101001100
1111001110011001
1111101100010101
0000010111011001
1111110000000011
1110110010001100
1111101100001010
1111011110001010
0000010000111011
1111101111010000
1111101110011100
1111111001110101
1111010110111100
0001001010100010
0001010011010101
0001101110110100
0000001100000100
1110000101111010
0000010101000000
1110111111011100
1111011110000111
0000011010101110
0000100100001111
1111110001010011
1111000101101100
0000100010111011
1101101101011010
1111100010000101
1110111101001100
0000111000111001
0001001111011110
0000101001000001
0000110010101010
0000000111111011
1110111101000100
1111000011011000
1111100011011000
1110101111011111
0000001100010010
0000001100111011
1111001111111000
0001000100101011
1110111110001001
0010010110101010
1111010100000001
1110101010011010
1111001001100101
0000101110001000
0000001101101000
1111110001010101
1101001010101011
1111110000111100
1111000101101010
1111110101100001
1110100111110000
0000100000100001
1111111011010011
0001100000000111
1111111000100010
0000000001111010
0000111001001101
0000011010011110
1111010100001110
1101101100100001
1111101110100111
0001010101101001
0000001110001100
0000000000101001
1111110000010110
0000010100101110
0010010100101011
0010000110110110
0001000000011101
1111110010001100
1111100100110111
0010001000100011
1111000010000101
1111101101101111
1111100000010101
1110110000001000
0000011011010111
0000001101011000
1110111000000110
0000010100001101
1111111010110001
1111110100011111
1111011100001010
0000011100100001
0000100011001110
1110110101100111
1111010111010010
1110000110101000
1110010010101101
1111110101000010
1111100100010110
0000111100101110
0001011001100111
0000000011000000
0000101000001000
0010010010000010
1110110101111110
0000110110100010
1111011000011111
0000001101110010
1110010001001011
1111010110111110
1111010010100101
0000111001110001
0000001101101101
0001001011100111
0000001100101010
0000011011100100
1110101001111101
1111111000010110
1110110101111011
0001001111111110
0000110010010010
1110111010111100
0000000001000001
0001001110001011
1111010010000100
0000110011001000
0000111000111011
0010001110110101
0000000110011111
0011101111000100
0001010110110101
1111110001011110
1111100000111010
0000001001000001
0000101000010000
1111101011101111
0000011001011010
0001001001010101
0001000100001000
1111011110001100
0000101010100101
1111111100010010
0000001111100110
0000001100110110
0000011010011101
1111000101111100
1101111000000010
0000100010111101
1111010111101001
0000010011111100
0010100011101111
0001000110011001
0000000101000110
0000001000101110
1111110010100001
1111111100110010
0001101011011001
0000101011111000
0000011010010001
0001001011011011
1111101001010110
0000110010110110
0000000110001100
0001001010110010
0001111100101100
0000100001010101
0000111010000000
0010000001101001
0001100110101110
1111100111011000
0000110100100011
1111000001011101
1111100000101011
0000010010100011
1111011111011001
1111011111111101
0001100110100110
1111100011010000
0000011101000101
0001000111001101
0000100101110101
0000000010000011
0001111011100011
0000001010110110
0000110010010110
0010000011101110
0001001101100101
0001100010101000
0000001001111001
0000000110001110
1111110101110011
0001100011101010
1110111010011101
0001011101011111
1111110010000111
0001001011001001
0010111010001011
0001101000001110
0001010011010001
0001110001100010
0010011011101110
0000010111010010
0000010001001001
0000000110110011
0010001010000110
0001110111100010
0001000011000110
0001011101101101
0001101111110000
0001101101111010
0000100100101101
0001101100010100
0000101100010101
0001001110000101
0000000011011010
1110000110011010
1111000010100101
1111000111100001
0000010110110100
1111011001110100
0000111100001001
1111111000010101
0010100000010000
1111001110001010
1111110100000010
0000110101100110
0001110111001110
0000101000011001
0000110011010001
0000101011010000
0001100011010010
0001101101101110
0000010000110101
0001001101100100
0001000011100000
0001000100111010
0001011101101110
0000100010010001
0000111101000001
0001101010111100
0000111011110001
1111000011001101
1111110111110111
1111100111101000
1111110101001110
0000011100110100
0000100010110101
1110001100101101
1110111100101001
0000010011100110
0001000111110100
0000010101010010
0000101000101100
0000011110010011
1111100100110000
1111111011001010
0001010101011110
0000010010011111
1111000101111011
0000101101011110
0000000111101100
1111011001011111
1111110010010000
0010011101001011
1110110000010110
0000010000010011
0000010101001111
0001010011010011
0000111101000001
0001101010101111
1111100000111100
0001101111100110
1111001111101101
0001011000100000
0001010110111100
1111111010011000
0000001100000101
0001110110110001
0000010000011111
0000011100110000
1111110101100101
0001101011100001
1111111001001010
0001101000000100
1110011011110010
0000110111000011
0001001110101101
1110111001101110
0000010010110100
1111111110010111
1111111001010100
0001010111111110
0000001011100110
0000110011011110
1110111010110101
0000111011100011
1111011110011011
1111011000001111
1111101100010000
0001010101001110
0001011010011001
0000001101111110
0000010011001001
1111011011010101
1111101010111110
1110010001000011
0000010011011111
0000000101000101
0000110000110011
0000110100001100
0000010001011100
0010000000111111
0001001111010111
1111001111100000
0010011001001101
1111110111101000
1110101100011111
0001000101000011
1111111111011010
1111101100100110
0000000111011111
0000111100001010
0000010010101101
1111010001010111
1111100010001110
1110011100000100
0000011011101011
1110111010101001
1111111001100010
1110000010000011
0001101110110010
1110101110000100
0001001001001111
0000001001000101
0000110111010111
0000001010101111
0000000110111101
0000010011111011
0001001110100010
0000000110010000
0000001010000001
0000111101100100
1111101100010001
0000101100010011
1111100100100111
0000100001010001
1111000010101011
1110100011001001
1111100011000010
1111000111010011
0000100011100010
0000010110111101
1111101110101111
1111011010001001
0000110001010000
1111111001011110
1110111000011111
0000000000001110
1110110000111000
1110110001011001
1111001111110110
0000100100010111
1111110001011001
1110011010001101
1111110000000100
0001101010001100
0000001101110101
0000110100010101
1111100101010000
0000001000010010
1111101000101100
1111111011111010
1111101110000010
1110010011110101
1110100111110010
1110110101010010
1111001111111000
0000011010000101
1111110000100011
0000101000101011
1111000110100000
0001001110110010
1111001000010001
1110111100101001
1111010011000011
0001101000110001
0000001101100011
0000001111000000
0001011011101001
1111001001000010
1111011010101111
0000101010111010
1111111000100000
0000101101101011
0001011001001001
0000110100001110
1111100001100111
0000010011111001
1111110011011000
1111100010000100
0010010111100011
1110110100011001
0000010101100101
0000001010010011
0000010110000111
0000101111110000
0000000001101011
0000101010011100
1110100111111110
1110110110010010
1111011101110011
1110010011110111
0001110010010100
1101110011111100
