0000001011010100
0001100001011010
0000001010010101
0000011001100111
1110010100010001
1110111001010100
1111101011111100
1111010100110000
0001001111011111
0000101001011110
0000111101001011
1111100111010100
1110111010100101
0000101001111111
1110011000111000
1110101100011110
1111011110000100
1111100011000110
1111011011101001
1111111011111101
1111010101010100
0001001000100010
1111111010001111
1111011111101000
0000111011111000
1111110000110111
0000101010101111
0000110110110000
0000101110000010
1111010010111001
0001011111001110
0001110000010001
0000100011100111
0000010110100001
0001001000111101
0001100110110001
1111111010111001
1110100010110000
0000011011011100
0000111001101100
1110101100110111
0000111011000001
0000000110010101
1111101110000101
1111011011010000
0000110101001000
0000011000110000
0000000110110111
1111001101110100
0010000001010101
0000001000100101
0001101000011001
1111011100100101
1111000011010101
1110000100111101
1111100010110011
1110010111000000
0001000001100011
1111000111110000
1111010000001101
1111110110110011
0001000010100001
1111111010100010
1111111100001011
1111001001000011
1111100110101100
0000110101011011
0000011010001000
0000111101001100
1110010000111101
0000101100111111
1111111001010011
0010000111010110
1110100000000111
1110101110101000
0001000011010110
0000100100011100
0010101101011000
0000010010101100
0000100100111111
0000111011110001
0000100011110010
0001110000100100
1111101001001010
1101110100111101
0000101110011111
0000010111110100
0000100110110011
1111101001110101
1111011101100000
1101001011101001
1101111011100100
0000100011010000
0001000101010000
1110100101011100
0000001010001100
1111100100100000
1111001011001001
1111100101000110
1110011110110000
1111100101100111
1111011101111011
1110111101001101
1111011010111000
1111010110001110
1110001001101000
0000101010010110
1110011100110100
0000101011111001
1111000000000010
0001011110001110
0000100101111111
0000000100110111
1110111101110010
0001010100111110
1111111101001111
0001000001101100
1111101011001001
0001010101110101
0000101101000000
0000010011001111
1111011100110110
0000011100011100
1111011101011100
1110111111101111
0000011100100010
1111000101000010
0000001101010000
0000011101001010
0000010001001001
0000100011100011
0000111001010000
0000000010101110
1111011000011100
1111000010000110
1110010000010001
1110000001001101
1111111010011101
0000110101010000
0000010111010000
0001010101000000
0000110011011111
0001010111001110
0000010011010011
0000100111101110
1111101010110000
1111101111000101
0001000011011010
1111000100111110
0000110110101010
1111101001111010
1111111010001000
1111011011011011
0000101100110001
0000111101011001
1111110100101000
0000101001001001
1111001010001110
0000110001001001
0000010011000001
1110011001100101
0001010011000110
0001010100010100
1111110101101001
0000000111111011
1111110011101001
0000000101100111
1110100001001011
1111010000111011
1110000000011101
0001001100110011
1110110000100011
1111101100100100
1110111100011100
0000100101011001
1111111100101001
1111000110100101
1110100010000111
1111101001100111
1111111110110011
0000100001111101
0001010011000000
0000101011011101
0001110100110000
0000011110010110
0000101011111011
0000110001101011
1100011100101110
0000000001010001
0000010111100010
0000011001100101
1111110010100110
0000001011110001
0001010011001010
0010001100010010
0000000100110011
0000111101001001
1110111101010110
1110101011011101
1111101010000011
0001111110101001
1111010111101111
1111111111110010
1110111101010011
1111101110001101
0001100011010100
0000000101111000
0001100011011011
1111011011100111
1111001110010001
1111000010101110
1111111001111010
1111001101110000
0000010101110011
1111111100011010
1110001100110110
1111000110000101
1111110001101000
1111101111111011
0000011100001000
0001010001111001
1110101111000010
1111010100001111
0001010100110001
1110110000000110
0001100100001101
0001000010010000
1111000100000001
1111010100011010
1111101111100010
0000100100000101
0000011100111100
1111000011101000
0000100001010001
0001001110011001
0001010110011010
1111001100001111
0001000011100100
1110101010100010
0000001001000101
1110100100101101
1111000110011010
1100101001011101
1111100111010011
1111101011000001
1111110111010010
0000001011100000
0000010111011000
0001111001001100
0010011010011101
1111000001101110
1110100111111011
0000000111000110
1111010111110011
1111101100100010
0000001011011101
0010001011010010
1111001001001000
1110101111010010
0000011110010100
0000001010111001
0000011000001001
0001000001110010
0000000010011111
1111011010010010
0000111000110101
1101101101010010
1110010000010010
0001001101000111
1111101010010100
0000110110110011
1110011101000110
1111001011001001
0000100111101000
0000100110010111
1111001111010101
1110111100001101
1110000010010000
1111011110001011
1111001111001100
0000100011010010
0001001000011100
0000010001111010
0000001100111000
0000001111101000
0000101111101110
1111010111001111
0000000000111000
0000010010000011
1111100011101110
1111110001110010
0000011110101111
1111011010101101
1101100111000111
0000000111011000
0000011101111100
1111010110011100
1111001110100000
1111000001101010
1111110000100000
1111101001111010
1110110101010010
0000100010011110
1111010101000100
0001000011001110
1111110101001010
0000100000100110
0001101110001111
1110110110000111
1111100000000100
1111001100101001
1110111110001110
1111110110000001
1110010011101100
0000111001111010
0000100000010101
1111110110000100
0000010111000000
0001000101111111
0001110100101000
0000011011010001
1111000011001001
0001010010100000
1111111101100101
1111001100010000
0001110001001110
0000010110000000
1110111110011100
1111000100000100
0000100001010011
1111111011000101
0000001001010010
1111011101010010
0001010000111101
0000010001010000
0000100001100000
1110100101011001
0000101000101101
1110010110111101
1111000101101000
1110101001000111
1111010101101011
0000110000111100
1111100010011110
1110000101101000
1110000110011101
1111111001011111
0000001011000101
0001011010110010
1111101101101111
1111111110101111
1111101001110001
1111010011101100
0000110101011001
0001000110011011
0000011010100011
1111010001011100
1111001111111000
0000110110011100
1110111111100010
0001000101110010
1111110000011101
1110010011001011
1110001110001011
1110000001100101
1110011001111000
1110111100101001
1111010110101010
1111101101001000
1111011010100110
0001000100000110
1111101011101111
1111000110011110
0001000011110011
1111010111001101
0001011111010100
1111001101101111
1110101110011110
1111101001010101
0000001000101110
1111100011010000
0000010111100101
1110100111100000
1111110111100011
1111101011110010
0000111101000000
1110011001011100
0000110100001000
0000100001100110
1110111110101101
0000011101111110
0001100000010100
0000010101100110
1110100101110010
0000110100111110
1110111000010101
0000100000010010
0001100010110011
1111110101101001
1110111101010111
1110100101000101
1110101111001011
0000100111011010
1111101100001011
0000110100100110
1111000011110111
1101110010111011
0000011010110110
0000101101101011
1111000100101100
0000111111000101
0000010101100010
0001100101001100
1111111001110010
0001001001010000
0000011010000010
0001011011100111
1111101011010010
1111000010111100
0000001101111001
1111101000010100
1111100100101010
0000110000001010
0000100111111011
0000010100001100
1110101111010011
1110111100000001
0000010010011111
0000010010010101
0000101010100010
1110011000011001
0001110010010000
0000010111101111
1110110000010010
0000001010010100
1110011110101001
0000100111001011
0000110010101111
0001011100100011
1111010101011010
0000001100100011
1101111101001000
1111100101011111
0001000110001001
0000010001000000
0001010100001010
1111101111011110
1110101100000111
0000010101101101
1111101111111001
1110111101010000
1111110100000111
0001111000111101
0000101101101010
1111011000000000
1111101110011001
0000011100001100
1110110000110101
1111111110110000
1110011111010111
1110110010111001
1111100101001000
1101110101111000
1111111111101100
1111010111100000
1110101001100110
0001001001001100
0000011110010101
0000100000101101
0000010101100010
0000010111000011
1110011100110011
1111101001100001
1110011010011111
0001011000111011
0001000100111010
0000111000111001
1101100101001000
0000100011010010
0000011001101010
1111000111100110
0000111000110010
0001001100110100
1111000111000100
1111000101100100
1110110000010001
1110101010110100
0000000110001110
1111010111000001
0000101000100000
0000001101100100
0000101001010111
1111111001101000
0010010110101111
0001101111111000
0000011000000001
0001110001100010
0000001100001010
0000111110101100
0001001001110101
0001111000101011
1111000011100100
1110110010111100
1110101011001100
0000011101001011
0000110000100110
0001101110110110
0000001100110101
1110100001000100
1111110100100011
0000000011010011
1111010010111111
1101111001100111
1110111101101000
1110110011001100
1101101101000011
1111011110101001
1111011000011010
0001001001101101
1110000101110110
1110011100001000
0000011011110100
1111101100011111
0000100000101000
1110101110100111
1110000110111111
0001100010100111
1111000011001001
0001101001000111
0001001101001101
1110111110100100
1110101001010000
1100110110011100
0000000000000110
0000110110110101
0000000000110011
1111111101111100
1111001010000011
1111111100111010
1110010001111011
1110101111100011
1111110101010011
0000011100101010
1111010010000110
1111100000110110
1111011010110011
0001101011000000
1110100011100001
1111101111100001
0000010011100100
1111101000110100
1111011100000111
0000000001111011
1110111111000101
1110110110110101
1110001110011101
1110111111101001
0000001001100111
0001000010001010
0000100010101110
1111110100011101
1111000000110011
0000000110010101
1111011110100000
1110100011011000
0001011110100010
1111100100101111
0000110000011110
0001000101010101
0000001001101101
0001100010000000
0000001001111110
1111110010011100
0001011001011010
0000001111011001
0001000110101100
1111100000101111
1111100101101001
1111010101000100
0000110010111101
0000000101000110
1111001010001001
0000101111011101
1111000100101011
1111010110101010
0000111111101001
1110101000010001
1110000011111100
0000111011101011
0001100000010010
1110110110000001
1111101001110101
0000111010111000
1111100011010011
1111110001011011
1111100111111100
0001001100001000
1111100010101110
0000000100100111
1111110010111110
1110110010100100
1110100010110100
1111101011000101
0000010001001111
0000100000100111
1110100101000010
1111010001010101
0000000111010100
0000010111111111
1101110110111001
1111101110111010
0000111011100011
1111111010100000
1110111011100000
1111001001011000
1110100000000110
1110110110100001
0001101011101100
1111101011011111
1110101101100110
1111000010100001
1101110111101110
0000010011011000
1110111000011111
0001001100110011
1110101011000110
0001000101100000
0000100001001001
1110110001110011
0000100001010101
1111101101111000
1110001010000010
1111100111010001
1111111100011110
0000111111000111
0000010010010101
1110101011010001
0000000001100001
1110011110001100
1110000001110001
0001001110001100
0000011001010010
1110101111111001
1111001000010011
1110011101010101
1111011011111101
1110100110111011
0000011111000100
0000100001011001
0000100111111001
1110010011000100
1111100011100100
1111011010110010
1110110111111010
0000111111110010
1111111000110110
1111110111011001
1111101000010110
0000101011011110
1111101000001101
0000110011100011
1101011000000110
0000101000111001
1110110010100001
1111100101101010
1110100011010101
0010000111101110
0001010110001101
1111110101001110
1111111110001000
0000110001100000
0000001010000011
0000110110100101
1110001011000010
1111111000111100
0000111110001101
1110000101111011
0001010100000111
0000110000011100
1111101001101001
1111010110111011
1111000110001001
0000110011000001
1111101100011001
1111110010011101
0000101111001111
1111101111001110
1111011110110011
0000101001001001
0000000110000000
0000111100111111
1111010010010000
1111010101101100
0001001011010111
1111110001010011
0000111000101111
0000010101001011
0000111100011010
1101111011110111
1111110010010101
0010010010110001
1111010111101101
1111110110111011
1111001101011001
1111110010011101
0000111110101001
1110111100110000
1110110100010001
1111111100000111
1110010100001111
1111011000001010
1111111011001111
0000011010100010
1110011001011001
1111000010010011
1110110111000101
1111011000110000
1110100100111011
0000010011101100
1111111001000011
1110011110101100
1111101101000010
1110111001111110
1111001110010110
0001100110000000
0001010010101010
0000100010100010
0000000010001000
0000100110110000
0000100010111001
1111001101111001
1110101111100010
0000000111011101
0000111000101011
1111101000010011
1111011111110001
1111000110000000
0010101010110000
1111111101101001
1111111100000001
0000000011101101
1110111100101101
1111000101101011
0000000011010101
1110110101100111
1111110001111011
1110101101111100
1110010011011001
0001000110001100
1111100110001010
0000001100010100
0000000110010000
0000001100111001
0000011110001111
0000010001010000
1111100110100110
0010010000010001
0000011110110011
0001001100001110
0010100100011011
1111101101111010
0000100110100001
0000001100001101
1111101111001101
0000001011110010
1111000011100111
0000001000001000
1111111101100100
1111110100101001
1111001010101110
0001100000101010
1111110101011000
0001010111111010
1111010110010100
0000011000101110
1110010101110101
1111001110101110
0001011101110000
0000101100111100
0000010110100011
0000100001011010
0000011101000011
1111011011111010
0000000010100111
