1111010010011111
0000000010110111
1110111000111111
1111100101001110
0000110100010001
1111110100011111
1110101100001111
0000010011111111
1110110100101110
0001000101110111
0000111001011111
0001001110010001
1111111010111111
0000101001011011
0000110000000100
0000100010100101
0000001100011110
0001000011010111
1111101110110000
0000000100011101
0001010010001100
0001001001110000
0000101011110111
1111100101011101
1110111000110110
0000111001011101
0000000001111101
0000101101001110
0000100110000110
1111100100010011
1111010110100110
0000011010101001
0000000110010111
0000000110011011
0000111110001110
0001110011101010
1110111110000000
1111101100111100
1110100010101000
1111001011110000
0001100110110001
1110111000010011
0000010111101110
1111111101000010
0001011111000110
1111010100111011
0000110010110011
0000000100100101
0000010010010111
0001000100110000
1110100101010011
0001100010010100
0000010101011110
1111101110101011
0001000010111110
1111010011000010
1111110001100001
1111000010100001
0001111100100110
1111110101110111
0000010110100111
0000010001100001
1111011101011101
1111110101010101
0000101100010100
1101100010110011
0001100101100100
0001000001011010
1111111101010000
0001000001010000
1110011100100001
1111010011001000
0001000100010000
0001010001001011
0001011000011001
0000010101110000
1110101001100011
0000011110111001
1110010010011010
1111101100011101
1110101101000111
1111001001100011
1111111101101011
1110100101010100
0000000011111111
1110011001000110
1111110110011011
0000100111101100
1111100001011101
1101110111101000
1110100110111101
0000001010111001
0001001001100001
0000010010000000
1111101101011111
1111101010110110
0001001111100010
0001010000111100
0001000011000010
0000000000010111
0000000000101001
1110111000111110
1111110010110011
0001101111000001
1111111001111111
0000010010101111
0000100010100100
1110110001011000
0001011001110110
1111011100110101
0001011101110100
1110110100010111
1111011001100010
0000110111000001
0000001101011101
1111101000000100
1111101011000101
0000101111010000
0000010010011010
1110111010101011
0000110111110001
0001100001011001
0000001001110111
0000010101001110
1111110000111001
0000001011101100
0000001111001111
0001101001101011
0001100100001001
0000000001011011
1110100000100101
0000000011100100
1111011111011000
0001000101001011
1111100011001110
1111000010101011
1101110000101111
1111111110100101
1111110010001110
0000101111000000
1111100100011010
0000001110011111
0000101111100100
1111001110011010
0000100001111100
0000001101100110
0001000000111101
0000001101111011
1111001010110111
0000010101101101
0000101010011101
0001000111101001
0000100010000000
0000000100110000
1111111110101111
1110111001001110
0000110000011111
1111011011101010
0000110011000000
1111110100110000
0000111111100010
1110001101010101
1111011101111011
0000000000000100
0001010100111001
1111000000111111
1111010001110100
1111010001101111
0000010001001010
0000111000001100
0001001100000111
0000110101010111
0001111000111111
0001010010110100
0000010101111001
1110111010100011
0000010001101101
1111001011101011
0000110000001110
0000010100111110
0000001101011010
0000100001010111
0000110011100000
1111101101110100
0001010001111101
1111100010111011
1111100010010001
0001011110110011
1111100010100111
1111111011111011
1111001101110111
0000111111101011
1111110101100011
0001001111001011
0000001010111110
0001000110111011
1111011000101110
1111011111101100
1111100101110111
0000000110110100
0001011110011011
1110101001011010
0000101000101100
0000100011011100
1110010000000010
1111100110011110
1111111011010011
0001000000110001
1111000011000011
0001011001011010
0000110000000110
1111001010111000
1111110111001010
1111100010011010
0010011110000001
1111110110101111
1111001000101110
0000010111011110
0001000101001101
1111101110001010
1111100000100101
0001101110010010
1110000111001100
1111001001100110
1110111111000011
0001100000101000
0000001100110111
1111101111001001
1111110101110010
1111010100110010
1111110100111100
1111010100110110
0000000110101000
0000100111111010
0000111110100111
1101011110100100
1110110000001111
1110101000011100
1110100111110000
0000111111110111
0000001011000000
1111111010110111
1111100110010110
0000000100110001
0001001111000011
1111010001010010
1111000000100101
1111011011111111
1111110101111100
0000101000101100
0000110101111100
0000001001100001
0001000000011111
0000111110101100
1111001001101000
1111110001111100
0001100001000001
1111100010010101
0000110000000110
1111010011110000
1111011000101010
0000100010001111
1110101001001011
0001010101100001
0010100001010011
0000101100100011
0001011100011111
0010010000011110
0001010010011000
0000000000101110
1111000110101011
1111111011111111
1111010010111110
1110110011000000
1110010010100111
1111001100010000
1111100000011101
0001001001010101
0000001010110010
1111001010110000
1111101100110110
1111011010010111
0000000111101000
1111001110100010
0001001110010000
0000000101111110
0000101111011001
1111100110111100
1111100111011101
0000000001111110
0000011001110010
0000011111001101
0001000100001010
1111001101110010
0000101101011001
0000110011011000
1111111100010011
0000010010010111
1111101101101111
1110101010000001
1111111111111001
1111101000000111
0000001011100000
1111010111100001
1111000010101000
0001000111110110
1110101111001111
1101111000000101
0000010000010011
1110101001011011
1110100101100100
1111111101110001
1111110100011100
1111100011111001
0001010010110110
1110111010111011
1111111101100111
0010000000010110
1110111101001010
0000100101011110
1111111000000011
1111110110100110
1111010010110111
1111100100001010
1111111010011001
1111111110101000
0000111111110111
0010100011100011
0001101111000101
1111000011111010
1111101011010000
1110011001111110
0000110100110001
0000110000001110
0000010010001101
0000010011001101
1101101011000111
1110111110011000
0000000110000110
0000010100110000
0000000001001011
1110100101110011
0000011100011000
1110100101110000
1111100001011100
0010010000010101
1111101001100101
1111011000001101
0000011110010000
1111101000001100
0000011100110001
1110110111100010
1110010111010000
1111001101101111
1111001100011110
1111010101000011
1110010011100110
1111100100001110
1111101100110010
1111000101110010
0000110011110010
1110001001110101
1111011001101010
0000111010110100
0000000100111101
0000100110101000
0000111001010000
0000011101110001
1111000110011100
1110000010111101
1111100011010000
1101110111001010
1111011100011000
0001000101000111
0000110100001010
1111111010110111
0000001010110010
1111111101101101
0000100011000111
1111101110101011
1111011000011000
1110101110001101
1111101100010101
0000011000000001
0000001101101001
1110010100011110
0000111001010110
1111110000011100
1111101001010111
0001000000110111
0000001000100000
0000011110000111
0000101011101010
0000001010000101
1101101010001000
1111111000011101
1111110010010001
1110101100001000
0000001011110010
1111110011110011
1110000111001110
1101010111011100
1111001100101101
1111111001010010
0000001011010011
0000011000111011
0000010011010001
0000001001011000
1110010001001010
0000010111111101
0000001100101011
1111101100100011
0001010100101010
0001101001000110
0000000110001001
0000011011100001
0001110100101000
0000101110001001
1111010101101001
1111100101001001
0000101010000111
1110010110101111
0000010010000110
1111110000011010
1111001011001100
1111111001011001
0000100111011111
1111111111111100
0001001111111000
1101111110001011
1111100100101010
1111111100011101
1111101100100110
1110101010001111
1111111001110001
1111111100111100
0000010001110111
1111101100010110
0000010101111110
0000000111000110
0001000010001011
0000001110100000
1111011001111001
0010000111100101
0000010111010010
0001000001100110
1111111010111001
1111001100100101
0000000100111000
0010000111010101
0001011101010110
1111101110010100
1110110101110000
1111001111111111
0000000001110101
1110111100110110
1110100101101001
1110101011011011
1111001011101001
1110101100101011
1110010101100110
0000001101001011
0000100011010100
1111001001100000
1101011111001000
1111111000001110
0010010011000000
1111011010100110
1111011101110011
1111101110110100
0000001101101001
1111101010111100
0000011001010011
0000001110011001
0000001001111011
1111111010010011
0000000001100101
0000110001110010
1110010110101000
1111110011110111
1111111000010100
1111100110100110
0000111000110101
0000101100001001
0001101111001100
0001100100100100
1111000000111100
0000100110100110
1111011000011101
0001000010001000
0000011110010111
0000100001110110
0000000100110001
1110011001010100
1111000001010101
0000000001111000
0000110111001010
0000010101011001
1111101001100101
1111011100011110
0000011110111010
0000010100000111
0000011000111110
0000110010000101
1110110110100101
0000111001010100
0000011001101001
0000010100001001
0001011011011000
0000000100100000
0000101000111111
1111111110110101
1111000011101110
0001110101100001
0001010000010111
1111011000110110
1111111101100011
0000010000111001
1110010111100000
1111100101000011
1110101011111001
1110111010011101
0000001100101010
1111001000100000
0000101001101000
0001111011110101
1111010010101111
1111001000101001
0000111011000000
0000001111101010
1110010100101001
1111010110111011
1111100111110101
1111001110000000
0000001100101011
0001001101011100
1111000111000011
0010000110100100
1111010001110000
1111000010000111
0000100111100100
0000001001011010
1111110001110001
1111100101110011
0000101111001000
1111101100101011
0001011010100001
0000001000101010
1111101010110110
1111011001000001
1110110011100011
0000001011110010
1111110110011101
1111010000101011
1111111101101000
1110011100011010
1110100101101010
0000001100011010
1111010001000000
1111111011010110
1110011100101000
1111100010100110
0000000001111010
0000011101011110
0000001011000101
0000001110010111
1111011100101001
1110110110000101
1111000000001111
0001000100000000
0000010110100000
0000011110110111
1110101000001101
0000101101110101
1110111001111111
1111101111011001
0000010001101001
1110010001010010
0000000011001100
1111011010100111
0000101000110001
1111010000111000
0001010011000010
0000011110110101
1110100111011001
0000010010101010
1111011000110100
1111010111110011
1110101110011110
0000000101011100
1111010111111100
1111100010110000
0000100110110100
0000000000010010
1111110010000000
0000101010010011
1111010011011010
1111110110001111
0001011001000110
0001100101000001
1111101011011001
0000111100000110
1111100111100101
1110111011110001
1111110010001001
0001110110101000
1111001000011100
0000011010010111
1111001100110111
0000001111011111
1111110101100100
1110111101101010
1111001101100001
1111001001000110
1111100101111011
1111011100010110
0000011001010100
0000001100010111
1111001011000011
1111000100001001
0000100000000000
0001010101110111
0000011101110110
1111100000000110
1110110100000110
1110010010011010
0000110011010010
0000010010011100
1110110101011000
0000011000011111
1111001101100101
0000010001101010
1111101011100000
0001100010100000
1111101001100100
1111101010011011
1110110001000111
1111011101111110
1110111010011010
1110111011001000
1110011001011000
0000110100000110
0001011010100011
0000110110001111
0000111010111111
1111101111100111
1110011111100100
0000101101001011
0000100001100000
0000101010010111
0001111101111101
0000000010010011
1110001110100100
1111101111011000
0001000010011011
0000110100111011
0000011111110000
1110110101111010
1110011000001101
1111110011100101
0001000100111100
0000100110011001
0000011111100001
0001111010001000
0001000110100010
1111000001100010
1110110001101000
1111110100010010
0001000100110010
0000100000010001
1111111101011111
1110111110001010
1111101000111000
1110100000011000
0000100101001010
0000100010111000
1111000001010010
0000000011001001
1111011000110101
1111010111101101
1110011110000001
0001001110111010
0001101101011000
0001010011010100
1111100001110011
0000001010001110
0000011110101101
1111110011110110
0000110101011101
1110001110111111
0000100110100011
0000000011011010
0000001100110100
0000011100010011
1111111101001001
1110111000100000
1111101001010101
0001100000001110
1110111100110100
0001010000111011
1110110000001100
0000010100000001
0000100010101011
1110110010111111
0000011101010100
0000000110110101
1111010100001011
1111111101001100
1111011110000010
1101110101011010
0001011000101011
1111110011001001
1110001111000000
1111010100001101
1111101101001001
0001100011110000
1111000101100110
1110110100011010
0001000010000110
0001011010110011
1111010100101001
0000100101000101
1111001101110000
0000010111100111
0001111100100110
1110111111100001
1101111100110000
0000111010001101
0001011001001101
0000001111100110
1111001000110111
0000001100011100
1111111111110001
0000101110001001
0000011011010111
0000101000110100
0000011110011110
1111101100100110
0000001110101110
0000100011111011
1111101111001000
1110011111110100
1111110000011100
1111000101011111
0010010010110111
0000111000101010
0010100001101101
0000101010000111
1111110110000100
0000110100011010
1111100010010100
0000011111100101
0001001110110011
0000001001110110
1111000101101110
1110100001100101
0000001000110101
0000000011001001
0000011001000000
0001000101110111
0000010001010011
1111001100101011
0000000011111010
0000011001110011
1111010100101011
1111000100110000
1111001111111101
0000001111010000
1111010000100111
0001101101010101
0001001001101000
0011100101100011
0000111101100100
0001000100111111
1111011101001010
0000110100111110
1111010011011110
1111111110001100
1111111000001001
0001010011111011
1110111000110010
0000101101100000
1110010110011101
1111001000110010
