0000100010010110
1111110000011000
0001000001110000
0000101100011111
1110110011010111
0000011011111001
1101010010111111
1101111100000001
1111011110001110
0010011101000110
1111011101100010
0000110110100001
1111111011011111
0000101101101100
1111111011111101
1111111001110011
1110111101001000
0000111010101111
0000011000101000
0000011000101100
0001100110100000
1111100011100101
1111001001001110
0000010011101111
1110011101011011
0000111111010111
1111110011001011
0000001100101100
0001000001000011
0001011001011011
0000001011010000
0000111011100100
1111100000101010
0000110111101000
1111101110001111
0000001010111001
0000111100111100
1110010001101010
0001001100101101
0000011111101000
1111011100110111
0000001101011110
0000000111000101
0000101101011000
1111011011010111
1111010110011110
0000011010111110
1111110111010011
0001101011011100
0000111101001011
1111001101101110
1111011100101100
1111011000000100
1110100000011100
1111011100110000
0000111111101000
1111001110011101
0001000101110101
0001010011111111
0001011011011110
0001000001101011
0000001000101111
0000111100100101
0000101110000110
1111110111110001
1111001110000110
0000100001001111
0001000100010100
1110010100110000
0000011010001101
1111110111001011
0000101000110101
1110101100110000
1111111000100011
1111111010111010
0001011100111010
0000001001101101
1111001101001110
0010000111010101
0000101001011100
0001100111111100
0000111000010101
0000110010010110
0000110001010000
1111110100101111
0001001010100100
1110110101001110
0000000000010101
1101011010010010
1111101001101101
1111011010101011
0001011100001111
1110101010000000
0001000101011001
0000101011101001
1110010001001110
0001011100000111
1111110001111110
1110111001101011
0000000000110011
1110111001100011
0000110110111001
0000111101000110
1111000011011110
0010011110001100
0000110100111110
0000111100101010
1111010011001100
1110111010000110
1110110100101111
0001110101011001
0000111110000111
0010011100001000
1111001110000010
1111010110101110
1110110010110111
0000100011001100
1111100010100001
0001000110010001
1111111000001100
0001100000101000
0001011111011000
1111110111100001
0000011110000010
0000000011100001
0000000111100100
1111100010100001
1111110111001111
0001111110010000
0000010000001100
1101110000100000
0000011011001100
1110011101100000
1111110010001001
1111101001011010
1111000100111000
0000101100011111
1111011000001100
0000001001101010
1110000000111011
0000101011000001
1110010100011111
1111110001110101
1111111011101011
0000101000101111
0000010000011100
1101111110001110
0000001010010110
0001111100001101
1111010100010001
1111000101010100
0001010001111111
0000001110100111
1111000101000100
0000100111110110
0000110010101101
1111111111100100
0000000011001000
1111101011001010
0000000010110110
1111111010100001
0001010001100011
1111001101100010
0000001111101001
1111111001011001
0001110011000101
1111000101001111
0001110001000010
0000110011000010
0000001100100011
1111110101001011
0000011000011101
1111110011010000
1111010101010101
1101110100110111
1111101000110111
0001010110100101
1111101111111000
1111000010011101
1110101111010101
0000110111010011
1111010100111000
0000000011001110
1110101100100010
0000011000011000
0001011010011111
0000100000001001
0001101000100001
1110110010001111
0000110001111111
0000000011001111
1111100000100100
0000011011110000
0000110100101100
0000010110110001
0001010000100000
0000000111101000
1111111011110101
0000011001011001
1110101100100110
0000000001100000
1111100001011010
1111101011001000
1111111011110010
0001001111000101
1111100111101011
1101110100000001
0000001010010010
1111010011001010
1111110001001101
1111110010101101
0000000000001110
1110111110110111
0000011011111001
0000000100100101
1110101111011111
1111011101110010
0001001001100100
1111111000011010
0000111101000110
1111110110011100
1111000100011110
1111001101010101
1111100011101100
1111111101001011
1101110110100111
0000110101100011
1111111110000000
1110011101001001
0000011001100100
0000001110000100
0001010101110000
1111010100000010
0000110001100011
0001011010010110
1111010011111110
0000100100011101
1110101111110001
0001000011000111
0000001010000011
1101110001101110
0000000101001000
0000011111000101
0001001001010110
0001100011001101
0000000001101100
0000100110100000
0000000001100101
0001010001100110
1111010000000101
0000010010000011
0000111000010110
0000110011000000
0000011101000011
0000100011001111
1111000010101010
1110001011000000
1110000100000000
0000110000000100
0001000101010000
0001100000010010
0000110011001010
0010000100000010
1111001100011011
1111010110100101
0000110010100110
0000001111111111
1111100110000101
1111011001011111
0000101110110111
1111111011101000
1110111110000101
1111111111110001
1101110111110111
1110001001010010
0000000101110101
0001001010100000
1111100101111111
0000100101001111
1111010101010110
1110111010110001
1111100110001101
1111100011011110
0000001100110001
0000011010111001
0010010000111110
0000101001010011
0000001100011101
0000001101111110
1110100111011100
0001010010011111
0000111000100011
1111110000100011
0010001111000101
1110000000011001
1111110011101010
1111010010110011
0000111110011011
1111000101111110
1110011010010101
0000101110100011
1111101111110110
1111011101000110
1111110111000100
0000110001101101
0000000100111010
1111110010010001
0000110001010010
0000111111101100
0001111010010100
1101001000111100
0000001111010100
0000110101011010
1101101100010000
1110101110011110
1111010110100000
0000110001101111
1111011110110100
1111110111000001
0010100110110110
0000001110110000
1111110101110000
0000000100001001
0000000100101011
0001100111101011
0001111101001101
1111101100111101
0000000100100101
1111111000010010
1111011000011100
0000010111100111
0000001100110101
1111000010000011
0000101010100101
0000110011111110
1111101010101011
1111011010100100
1111011101000011
0000001100111000
0000101101001000
0001101110000001
1111100111101010
1110110100111011
1111100111010001
0000011100101010
1111001010001001
0000000101011000
0001010000001010
1111110100100101
0001000101111011
1111100110101101
1110110010011101
1111101001001000
1111001011001011
1110010010000000
1111010100010001
0000010000101010
1111011011101100
0001001111011010
1111000100010110
0000101100000010
1110100001000011
1110110010110011
1110110110001001
0000011011111000
1111111000011111
1111000101011111
1110011100011001
1111001101011100
0000010011110110
1111100111000001
1111010110101101
1111000010010010
1111001111010111
0001000110101101
1111001101000101
1111100101001100
1111111011101010
0000011100101011
1111110001000010
0000000101110000
1110010001000010
0010000001100010
0000101000011001
0000001101000110
0000010110110001
1111011001100011
1110001100100001
1111110110111001
1111010001111110
0000000000011000
1111110101100111
1111111000110001
0000101001011110
0000111100110000
1111110110000011
0000010000100111
0000110011011001
0000111100011010
0000000101101000
0001011000111100
1111001100010011
0001001001001100
0000111111101110
0000001010111010
0000101101000101
1111111110101001
0000000110111000
1111001011101100
0000011001100001
1111011010011100
0000011011100010
0000110011111010
1110111101111010
0001010010001011
0001001100001110
1110101100100110
1111111001100110
0000110110101100
1111111110100011
0000101000001101
1111111010101011
0000110101001010
1111001110110010
1111110101001011
1111101010011110
1110111010111011
1101101111111010
0000011110100100
0001001000111110
1111110000111001
1111000001010010
0000011111101011
0001010110111100
0000100001110111
0000110101001010
1111001000110110
0000010000101110
0001111110101000
0000101011001010
0000110001001111
0000001100111110
0001010000010111
1110111110010000
0010000011010101
1110111111000011
1110101101111111
1111110110000101
1111100110100111
1111010000101011
1110110111011101
1111101001011010
0000001101100111
0001011001010011
1110100111010010
1111111100011000
0000100001000000
1110011111000110
0010001111101100
1111001001111010
1110110001100000
0000100101011111
0000001000111101
0001000111111100
1111001010110000
0000100101000101
1110110000100110
0010101011101101
0001011110001110
1111011101000000
1111100011100011
1110000010100010
1111010000111110
0001111001111001
0001010000111001
0000110111100011
1111011101001010
0000001100100010
0000101110001000
1111101100000011
0001010011001100
0001011010010001
1111010101001000
1111011010110101
1110101000001011
0001010110100010
0000011000011110
0000010101101100
1111101111001110
1111001010010100
1110111101011000
0001111111101110
0000110110100111
0000110010101000
1111001100100000
1111111001000000
0001000011101000
0000010001101011
0000000100111010
1111101111000100
0000010001011001
0000100000111001
0001010100101001
1110001100000000
1111000010011101
1111101101101100
0000000010000101
1110101100100001
1111011010000110
0000111000001000
0000111101010001
0000100110001000
1111001000010110
1110010111110010
1110011101010100
0001010000000110
0000100000100110
0000000000011011
1111100100000110
0000010100010011
1111001001111110
0000001100001000
0001011001101110
0000110010110100
0000000111010110
1110011001111010
0000111111010111
0000010100010111
1110101100011001
0001000101100000
1110000110111001
0000001100111100
0000101100101011
0010111110101001
1110100111000000
1111101110010101
1111101101001100
1110110001000100
0000110011011011
1110101011100111
0000111000010011
0000010110111111
1111011101011001
0000101010101000
0000110001111011
0000010011110001
1111010101101100
1111011100100000
1111110000100110
0001101110101100
1111000100000011
1110111100110110
1111001010110011
1111000010011011
1111011110111111
1101110100100101
1111011111011001
0000001001010010
0000001001001110
1111010000111111
1111010010111001
0000010110100000
0000101010100110
1111111010011101
0001001111010100
1111110000011111
1110010100110000
0001000111000010
1111110001101010
0000001010111111
1110000011111111
1111101100111011
0000101100111110
0000011100110110
1111100000100011
0000100101110010
0000110010010100
0000001011010001
1111110111100100
0001011011001100
0001011000001000
1111111010100000
0000111010000011
0000010100101100
0000010101111101
0000110001100100
1111000010001100
1111101011000111
0000000010110011
0000111110110011
1111011000010110
0000100101011110
1111011110100010
0000110100100001
1111010010000001
0000001110011111
0000001000011101
0000101011001001
1111101000011000
0001001000000000
1101110110101000
0000000000111000
1110101010010101
1110110000011001
1111111101011111
1111110000110001
0000010000001101
1111000001111111
1110111011101001
0001100101110011
1110000110100001
1111011000101110
1111110000000100
0000000101001011
1111101110000010
1111110001010010
1111000100101110
0000110010111000
0000110100111110
0001110001101011
0000000010110001
0000001101011000
0000000110110100
0000011100100011
0001001010010100
0001100011000000
0000001001111111
0001101111110011
0000001010100101
1111010110111101
1110001101111100
0000101000010110
0000100100011111
0000101000111101
1110001000000110
0000011010101000
1111101001111111
0000001110000100
0000001111000001
1111001010000111
0001001111001011
1111110100010101
0000001000011110
0001001100010010
0010100110000011
0000001010000101
0000110101000101
0000111000010000
1111111001100010
1111010000100000
1111001111101001
0010100101000001
1111000100110000
0001110010010110
0010010110110101
1111110001010101
1110110111010000
1111101001011010
1111000111011010
1111111100011010
0000111100011110
1111111100000011
0000010100010101
1110000101010001
1111100100110111
1110111111101001
0000100101001000
1111111011010011
0001001110111101
0000000100100011
0000111000010110
0000011110000100
0001010100100100
1111101100101101
0000001010110010
1111110010101010
1111101010100011
1110011001100011
0000100111011100
0000100001101011
0001010000010101
1111100011110100
0000010001000101
0001010001001100
1111011010011010
0000101010011011
1111010010011010
1111110111000000
0001001000010100
1110100010010010
0000111010010111
1111110000011000
0000101010001110
1111001110001101
0001101001110111
1110011110100111
0010010110001011
1111101110101100
0001100100000110
0001001011011101
1110000111000011
1110110010101101
1110010011111111
0001001010110011
1110110111010000
0000101011111010
0000000010110010
0000000111100101
1111110001000000
1111011100100001
0001011111010010
1111011111000111
0000000111101001
1111011101000001
1110110101111110
0001001111110101
1101111001011001
0000001100000011
1110110101000110
0000110100000011
1111011011101011
1110111001011000
1111100110101000
1111100001110001
0000011011110100
1110000100101001
0000111100010001
1111101011110001
1101110111111011
0000001110100111
1111011011010110
1110000101100101
0001010000111110
1111100110001000
1101101110110001
1110011111011010
1111100011101011
0001000010000010
1111110000101011
0001001011101001
0000110010011111
0000011010110111
0000000001010000
1111000010000000
1110010001100001
1111011001011000
0000011000001110
0000011011010011
1110011110010000
0010011111110010
0000100010011011
0000111000000111
0000001011001010
1111001110111000
0000000111011101
0000111011111001
0000000000100011
0001110111100001
1110011010110111
0000011111100110
1111111010011011
1110100000011010
1111110110011101
1111000111001111
0000000010111110
0000001000010001
0001101010010101
1111100100110011
1110001001110110
0000101001011010
1111011010001101
1100111110111110
1110010100110101
0000000011100101
0000101001010101
1111100010110110
0000100001011001
0000111000000001
0000010011101011
1111101001011111
1110101010000001
1110111011010010
1110111010010000
1110111111011101
