1100001010011011
0001100001000001
1111000110111010
0000010011000001
0001000111001011
1111100111100010
1101001010001110
1100101100010110
0100100100011000
0000001100101111
1011110100101110
1101000011001010
1101100011011110
0011011111011100
1011101000011111
1111011011010010
0010010000100011
1111110010100101
0001000011111100
0001011100010111
0010010101011100
0001110110110100
1110011111100110
1111001100001100
1111111110111011
1101010001011101
1110100010111101
0011110001100101
1111110101100100
1100001100101010
