1111000011110111
0000011111100010
1110110111111000
1111110010001100
1110011111100111
0000100001111110
1111101000001111
1111001001100011
1110000101011011
0010010101000011
1111011111000100
1111011010110101
0000101001001111
1110101110000111
1111011100100010
0000000000110001
1111000011111111
1111110100111110
0000001101101001
1111000101010000
0001110101101000
0000101000010110
0000000000001010
0001011101110001
0000011110011010
1110101111010110
1110100011110010
1111111011101100
1111001100011001
0001011001010010
1110001010011010
1110110011111111
1111100001001101
1111110100101010
1111110011111100
0001110111111110
0000000100101101
1111101100000010
0000000101011011
0000101100110101
0001000000011110
1101101000100110
1111111101000000
1111100100101011
1111101011001010
1110111011011010
1111000101011010
0000101110110000
1111010001000110
0000010011011001
1111101111000110
1111111000101010
0000010000111111
0000011101001001
1111101111111111
0000111000110101
1110110000000001
0001100110101010
0000001111011010
1110010000011100
0000100000011110
1111010101110111
1110100011111110
1111011101111011
1111101100010110
0000010111111000
1111000000111100
0001010110100011
0000100111001101
0001001100110101
1110111110100011
1110101101011100
0000001101011110
0000000001010000
1111000111010110
1110101011011000
0000111111011100
1111100100001100
1111110001011010
0000011000110100
0000110100000001
0000011010010010
0000101011011011
0000110001101111
1110010110110000
0000000001111001
1110100101010010
1111111000011100
0000001100010011
0001100100000111
0000100010111001
1111111100110000
0001001111011110
1111111010010101
0000011000100001
0000110001101100
1111101010101000
1111111011110100
0000110011110000
1111111110010011
0000000010011011
0000100110110111
0000110010110010
1111001101100101
1110101011100100
0000111111011001
0001010100000000
0000110011011000
0000111101100011
0001101110100010
0000100100000000
1110001100111010
0000101100001011
1111011100111000
0000110000101110
1111111100001111
0000011101100100
1111110011011101
1110100100101101
0000111110001110
1111110001001010
1110011111011101
1111100110111111
1111100111101010
0000000111100101
0000110111110000
0000001011010110
1111100010100001
0000011111010110
0000000011110010
0000100100011000
0000101111001110
0000011100110110
1110111100101101
1111010000011001
1100111011110100
0001101000111110
0000001110000011
1111100000011011
0000011111000110
0001011111111101
1111111010111011
0000110000010010
1111000011000000
1101110001100001
1111100001000111
1111110001000001
1110110110110011
1110100010110000
0001001111011110
0001000010100010
0000011011101110
0000011011000111
0000011111101010
1111110011110000
0001000001110001
0000010111110010
1111111111001100
1101101111011000
0001100001111111
0000010100000110
1111000010011010
0000001111010101
1111100000000111
0010000110010010
1111100110101011
0000100100010110
0010000110001010
1111100111010000
1111000101110001
0000111111000111
0000010001100011
1111101101101100
1111010101101111
1111100010011000
1110100110001111
0000000100010011
0000001100001000
0000111110100101
1110111111110101
0000100101101011
0000101100110110
1111000111101010
0000110110100101
0001111111011100
1101101110100110
0000110011011000
0000001001100100
1111011100101110
0000101001111000
0000101111100001
1111010010110001
1111000000010010
1111011000110111
0000101101111100
1111000001111110
0010011111011000
1111011100000111
1110101011010101
0000100100000011
0001011001010111
0000010110110101
0000010001001101
1110100111110110
1111100101011011
0001011011100000
0000110101101010
0000100111100110
1110011010000101
1111100110001010
1111010011100100
1111100101001010
1110011011001011
0000100011010011
1111001101100110
0001000100001101
1111110001011010
0000100110001101
0000001100000011
0000000100101110
0000010101100001
0000000001000000
0001010011010010
0000110101000100
0000001000001000
0000010001101101
1110111101111110
0000001010100011
0000010001010111
1111110111010000
0001011001011010
0000011100011010
0001010000010101
0000111100111100
0000010001101101
0000000111101010
1111110011100010
0000010110110011
1111011001110100
1111011001100001
0001101101010110
0001000101001000
1110001011110001
1110111100100100
0001010010010111
1101111110101011
1111101111010011
0000110111110010
1111000101010001
1111001000101101
1110000011110100
0000000101111100
1111110110001110
1111011111101100
0001100001111001
0000110001100101
1110001100010000
1111011100011000
0000101110001110
1111011100010001
1110111100010111
1111001110000100
0001110010001101
1110100010011110
1111111111100100
0001010101101100
1110110010110011
0001111110011011
1111110011000101
1111010011001101
1110100001111001
1111101011011100
0000001111110010
1111100101001001
0000000111011010
0000101000000111
1111110111101111
1110110101111001
1111010011001001
0000001011010111
1111111111101001
0000101011010011
1111111000001011
0010010100011010
0000101001101001
1111110000111100
0001101011011000
0000010110001011
1111011101100000
1111100001011101
0000000100011110
0001011110110101
1111111100001110
0000101001001001
1111010111110100
0000100111110110
1111000100001101
0000111001101111
1111010101000010
1111101101001001
1110011011010101
0001011010100100
1110010100011000
1111010100101100
1110001110000001
1111001110010111
0000111111001101
0001101010000111
1110011101011100
0000010110110011
1111110110011100
0000111001001100
0000001100111000
1111100100010000
0010000000100100
0000101010010110
0000010011010001
0000001111000010
0000101111111100
1111100110000000
1111100010011111
1110110000110101
0000000101100100
1111011110000111
1111111110111011
1111011110101001
1110001111110011
1111101110100111
0000110101101010
1111100000001010
0000100000111001
1110101001111011
0000101100100011
1111101111110000
0000000001101101
0001011000111000
0000000011111111
1111101010010011
0000101110010111
0000001000101000
0000011110010101
0000111111111111
0000100010001001
1111101011110100
1111110110010100
0000110111100100
1111110010000001
0000101011110010
0000011110010001
1111101111110101
0001010011100111
0000100011110001
1111100110100010
0000001111011111
0010010111010001
0000000100111000
1111010011011111
1110001110110001
0000100001111101
0000000101001000
0000010110100011
1110111110001010
0001000011111110
0001110001011100
0000110110111000
0001000111001101
1111100111110010
0000000111000110
1111111000001110
1111011110000010
1111111100011101
1111011101111010
1101010111001110
0000100011011010
1111001100100010
1111111111010001
0000000011011011
0000001110011110
1111001010100111
0000011010100000
0001000001101000
1110110101011111
0001001111000100
0010001000110011
0001011110011100
0000000001000010
1101111111101010
0000111111001100
1111110000101000
0000011000110110
1111010010011101
1110000000000000
0000110100100010
0001001110111101
1111001101110011
0000000101010100
0000001111110011
0000001010000100
0000001111011111
0000100110000111
0000010110000101
0001000100110000
0000011100010101
0001001100111110
1111101000010111
1111110000011100
0000111001001110
1111000100010101
1110101100011011
0000011010101000
1110111110111110
1110111001000000
1111101100100011
0000100111000000
0001110111010100
1111101011111000
0000010001100111
1111110100011011
1111001011101101
1111100110110011
1111100000010010
0000101011101011
0000101011011000
1111110001111100
0000011000001110
1111101110000001
0001000000110010
1111010100011110
0000011001000100
1111110010000000
0000101000100111
0001001110001000
0001110010010000
0010001110111011
1111110001011011
1111111011111110
1111010011000101
0010101010100011
0000111111010100
1111101000000101
0000110111111000
1111011111111011
0001010010011000
0010010011101100
0001000100110110
1111010001001010
1111100110110100
0000011110100001
1111110100011001
1111100000001101
0000000011101001
1111101010011000
0000011110110110
1111111001010001
1111110000001101
0000011101100101
1111000111001110
0000100001110000
0000011011010100
0000111001011111
1101110100000110
0001111100011100
1111111000001100
0000011011100111
0001001100010110
1111011000010001
0001001010111011
0001000000001010
0000111100010011
0000111100101111
0000000100100011
1111001111010001
1111011010010010
0000101101000000
1111101000011010
1111010110011111
1110100100011111
1111011001001110
0001010001010011
0001011011000011
0001100011100110
0000101000010100
1111011000001100
1111111001100101
0001110100110110
0000100011111111
0000000111000101
0011100011101000
1111001001011110
0000100000010110
1111100101010010
1111100101001100
1110100110111101
0001101000011011
1111101001101111
0000100101110010
1111000100110010
1110001101100010
0000100000010000
0000010001000010
1111111001110111
0000010010001001
0000010111111000
1111000101011110
0000000101101100
0001010100000111
0000111000010010
1111111010101001
1111100101110111
1110110100111101
0000011011010100
0000110100111101
0000000000000101
1111111010001001
1110010110000001
0001000100100011
0000001000101111
1111110000001100
1111000111101001
1111100100100100
1110101100010110
0001111100011101
1111001110001010
0001000100100110
1111010101100110
1110100000010110
0000101111010010
1111111010011000
0000000110011110
1110111111011111
1111110101000011
0000100101110001
0000101010101111
1111010110111110
1110111111001100
1111100011111000
0000000100011111
0001100000001111
1111000100111111
0010010001001100
1111110101010010
0000110101100110
0000000110110110
0001000001100010
0000100111000001
0000100011111000
0000000100110100
0000110011000110
0000001001100101
1111111001010000
1110100011010011
0000100000001111
1111101100110110
0000101001101110
0000100110001100
0001011001101111
1111010000001110
1111101011001000
1111101101010010
0000101010101111
1111111000110010
1111100110010011
0000111001101111
1111010010100000
0000011110101101
1111001111101001
1111010100110110
0000101101101100
1111101000011011
0000010000000000
0000110100100111
1111100011011001
1111011001000100
1111100111011110
0010001100111010
0001010111000110
1111111010011001
0000110010001011
0000010011101110
0001000010101010
1111111010010110
1111001100100010
1111110011001001
0000111111100110
1111110010100000
0000010000011110
1111111110000010
1101111110000010
1110011010111000
1111100101000000
1111110010111100
0001101000011001
0000001110011101
1111001110100100
0011010100101001
1110000110111101
1111100111101101
0010000010010011
1110111001110111
1110111001010000
1110110111101001
0001000110011101
1111001101000111
1110111100000111
1110100111010101
0000001011100111
0001010110000100
1111100011011101
1111010110011100
1111011000011100
1111100010101100
0000101110101010
0000101101011101
0001111010100101
0000001010010001
1110101100011010
0001011001101000
1110010101010110
1110110100100100
0001010110110000
0000100101100011
0000010100011000
0000001001110010
1110000011101101
0000110011000001
0000101001010000
0000000000101010
0001011101110001
0000111010111100
1101100110010010
0000011010011001
0000111010011100
1111110001011100
0001011100101111
0000001100101011
0000100010000011
1111000010010100
0001111101101101
1111111011010001
1111110100100110
0000111011110101
0000001111010000
1111001111101010
0000010111110111
1111111000010101
0000110110001110
0000010101100100
0000000101000111
1111010001101101
1111101010100000
0000001100000011
0001000001000010
0000000000110100
0000001111100111
0000111101110001
1111110101000001
0000111101001100
1111011001001011
0000110100101000
1110110010010000
0000101000101000
0000001011101101
1101100101011111
1101110001011111
1111010001011100
0000110101011111
0010100000000101
0010001001101011
0010000101001101
1111111001111011
1111001111110110
1110100101101001
0000000101111001
0000101001110110
0000001100010101
0001010101101100
0000001011100110
0001000001111100
0000110000011010
1111100101101101
1111011010100110
1111101000101011
1110100001010110
0000100011101011
0000011101011011
1111111010100001
0000100101010101
1111111011011110
1111000110010000
1110101011100000
1111001111001101
0000001010000000
0000111011110010
0000110100100110
1101111101111000
1101111110000011
0000100000111001
1111101000101111
1111011000100000
0001100011001011
0000101110011000
0001100100001101
1111100111010011
0000000101110010
1111111011101001
1111001000101010
0000010011100010
1111001011001000
1111001111000001
1111011111000100
1110010101000000
0001000110110111
1110000100011110
0001100010110111
1111010001100111
1111110010001011
1111110100100110
1101101100111010
1111101100111010
0000010001101001
0000000010100011
0000001110100110
0000001110101000
1111101000001100
1110010000010010
0000111100110001
0000010000111110
1111110011011111
1111001110110011
1111111000011010
1111101010101000
0000100001001111
1110010100111001
0000010011010101
0010010111111011
0000110100110100
1110111111001001
1111000011111111
1101110101111011
0010011001001101
0000110001101111
0000101101110010
1111011111001111
1101110011111101
1110110011010001
1110001011001011
1111011100011001
0000110100100111
1111110010111101
0001000110111101
1111100100101010
1110001111001101
1111011001000100
1100111110010010
1111001100110011
0000011110110100
1110101111000101
0000001001110110
1111111110100100
0000000111111010
0000110000011110
0000111111001011
0000101000000000
1111110000010010
0000101101100111
0000010110001101
0000000000011110
1111101010110001
0001001100000100
1101010001000000
0000010011100110
1111101111101011
1111011011110001
0000000100001110
0000010000000011
1111010010011100
1111101100010111
1111001010110001
1110010111100100
1110110111110000
0000001111110100
0000010100000111
0001000011010110
0000111000000000
