0001010010001101
1111011111100010
1110011010100011
0000010100101011
0001001011001010
1111101011111001
1111001000110111
1110101101001110
0000000001011010
0000101101001111
1111101100010010
0000001101010000
1111110111010010
1111110101101011
0000100111001111
1111010010110000
1110100101001001
1110111101010001
1111000100110111
0001001111110111
0001011011100001
0000011000011011
0000111111100011
0000111101110000
0000010011111110
1111111000111001
0010000000001111
0001010010000100
1111010001100001
0000111011011100
