1111101001001101
0000110110100001
0001011111101111
0000111110001111
0000101010100111
0001000110011111
1111111010111100
0000111111011100
1111011100111101
1111000000110010
1110111111011011
0000110111110110
1101100001101101
0000001110110101
0001100000001100
1111111100010101
1111101101010100
1110110110101001
0000100011011101
0001101100000110
1111010010110110
0000110111110110
0001010111100100
1101111110111100
0000001110010100
1110100110011000
0000001101110100
1111100001000011
1110110000100101
0000001000110011
1111011010000101
0001000101011110
0000000010101101
0001000010001100
1111000010000010
0000000001001000
0000100001000001
1110011010011111
0000101101100010
1111111111010111
1110000010001110
0000010001101001
1111101101100111
0000001110101111
1111111001000000
1111000111001110
1111101000110000
0000101110000101
0001011101001001
1111001010101001
1110001100011011
0001000010101110
1111000110111011
1110000110100011
1111011010100011
0000011000000101
1111001011101000
0000010000011000
0001011111011101
0000001001111001
0000000111001101
1111111111001001
0000000001010100
1111111101110100
1110100011000100
1111011111001110
0010000111110101
0000001000101000
1111110100111101
0001001001111100
1111100111011111
0000101010001110
1101111000011111
1111101110011010
1110101001110000
0000011001001010
1110111101100100
1110101111110100
0000011011101100
0000111010111001
0001011100110111
0000100001101000
1111111001100110
1110000001110001
1110100100001110
1111010111010100
0000100100000101
1111011110001110
0000110001100001
1111101101111110
1111000011110000
1111111011110100
0000000110110011
1111111101001010
1111001011010011
1111111010110100
1101010101110111
1111110110001010
0010010001110101
1111000001111100
0000100101011100
1110010001000001
1111101101110001
0000110010010111
1110100101110110
0000001001011101
0000000111110000
1111100010110110
0001110000011111
0000011110001010
0000000010100010
0000000000100100
1111000000101011
0001100000110001
0000010101010000
0001100001011100
0001011110100101
0000100111011100
0001001000110111
1111100001110110
0000010001100101
1111001100000110
0001001110010001
0001010101111101
1110001100010111
1111011000010000
1111101010011000
1111101101110010
0000010011110110
0010000010101100
1110011010001001
0000010001000100
0001101111001001
0000000000000111
1111110111100010
0000010111100111
1110011001010010
1111111111010101
0000101000001000
1110111011010100
0000001011101011
0000010010000111
0000101110111011
0001011001000110
1111101101111110
0000000110101111
0000011011101011
0000111001011000
0001011011010101
1110100110110101
0000000100101101
1110111011000111
1110110111111110
1111011000010111
0000011101100011
1111101101000111
0001011101001100
1111110110010001
0000111101111000
1111110000011111
1111000110101011
1111000101001011
1111111101010001
1111101000010011
0000001001010011
0000100100110001
1111101100011111
0000001110110001
0001100100011110
1111111010000010
1111110111101110
0001000101111100
1110110100010101
0000000010001110
0000100000111100
0000101001011100
1110111000001111
1111011010000101
0001010010011110
0010000001101011
1111100000010001
0001010011101000
0000011001011110
0001000011000011
1101111101010101
1111100010001110
1111010100000011
1110110100110100
0000100001010101
0000010110100111
1110110100100100
1111001101000111
0000111011111010
0001001100110011
0000111000101001
1111100110000000
1101111101100101
1111101111000001
1111101110110011
0001101101101100
1111100001100011
1111100000110111
0001001000100101
0000001100111010
1111000010010100
1110110110011010
0001001100100110
0000001010001000
1111100010101101
1111100000010010
1111110010000101
0001100000010011
0001001010111100
0001111001001101
0001001001100111
1111011101110000
1111110000101101
0000011001111011
0001100000001101
0001010010101100
0000010001101000
0001011001011111
1111100111111001
0001100110001101
1111111110001010
1111001111000010
0001101100010001
0000110000011000
1111110100100100
0001000111111000
0000111000101110
1111101111001110
1110111001011001
0001100001001010
0000100101100101
1111110000000000
0001010110011101
1111011110101101
1101111000010111
1101100001010000
0000000010101010
0000001100011101
1110111001100111
1110100111101001
0000000010110010
1111010011111001
0000011000100111
0000101000000001
1111101001101010
1111110101000000
1101101111100111
0001100010111001
0001001011111000
1111010000001110
0001100010101011
1110001010000000
0001001000000101
0001010010001000
0001110011001110
1111011110111111
1110101001001011
1111011000001111
1111110101010010
0000100110001001
0001010100011000
0000110110101000
1110110111000011
1110100001100010
0000100011011001
0000010000101000
1111101100001100
1111011001110001
0000001010001011
1111111001110011
0000010010100000
0000010001011111
1111001011101011
1110011101010011
1110011101100001
0000110100011101
1111011010111110
1111110110001100
1110111000011111
0001010111111111
0001100001110100
0000000110110101
1111100011001001
0000111100000101
0000000000111011
0000100000111000
0001101011111100
1110100001001100
0000000011000111
0001000100011000
1111011000000100
1110000001011000
1111101100111000
0000110010110111
0001000100001010
1110010001000101
0000011100101110
0001000011101011
1111110100100011
1111000110100010
0000011100111001
1111011110011101
1111010010101010
1110010110010111
1110101110010101
0001101101110111
0001000100110011
1111011100000101
1111110011110001
0000001110100110
1111111001110010
0000000100001100
1110111111011110
1111111101101100
1110010101110100
0000001001110100
1110011101011001
0000000110011010
0000011000001001
0000011000010001
1111101001100110
1111111010100000
0001011101011010
0000010001011011
1110010011001110
0001111101111101
1111011110100101
1111001000101100
0000001101011111
0001001010111011
0010010011100100
0001100111000000
1111110101000011
1101101010100010
0000000011010110
1111111101010000
1110001100101110
1111010110011010
0001001101101100
0001101110111110
1110011101010110
1111001101011001
1111100000110010
1111110001110011
0000110100100001
0000101100101111
1110111000101000
0011000100111110
1111101111110100
0001010011010011
0000110001001010
1111101001010100
1111110010000101
1111001010000001
0001011001010101
1111010001011001
1110010010001010
1110110100100110
0000010101110011
1110100000111101
0001000010100001
1111010110011011
1110100110111111
1111110101110011
0000101001010111
0010110010100000
1110101101011000
1111001110110110
0000101100011111
0000000000101110
0010000111100110
1111100011111110
0000011000001010
1110001010111010
0000100000011110
1111101001111101
0000000001100010
0001100111111010
1111100010100001
1110110001010111
0000111001010111
1111010101110101
0000001001101010
0000011000100000
0000100101000101
1110010111011111
0000000111010100
1110100110100011
1111101101100100
0000001110011010
0001001100111111
0000101010100000
1111111001110010
0000010110011110
0000011110001101
1111011110100000
1110000001010000
1110001010001100
0001000111011000
0000010010111000
0000110111100101
1111111001110010
0000101011011010
0000010101000001
0001001011101010
0000001010011010
0000010100000010
1111001101110100
1110001000101011
1111000111100100
0000010010001001
1110111110101100
1101101101010011
1111001001101111
0000000010000101
1111100001110001
0001101111110110
0000011110000011
1111111111111110
0000011100000101
1110100011100101
0001000010111011
1101111110011101
0010000001011111
1110111011011010
0001000000011110
1111100010100101
0001010010101011
0000011001111111
1111010001101111
0001010111001000
1110111010001010
1111110110110100
0000110100111110
1110111111100101
0001100010000011
1110000001011010
1111011001110100
1111001111001101
0001000010010011
1111011000101111
1111011100001010
0000000100110100
1110111101110110
1111001101111100
1111001110010011
1111011110110100
0000011111111111
0010011010101011
0000101100100110
1111111110110000
1111011110001011
1111010111100101
1111001111111111
1111011011000110
1111001001001011
0000000000101100
0001100111010000
1111100101000011
1110111100110011
1101111100100111
0000100000110010
0000010001010100
0000101111101010
1111111110011100
0000111101100111
1111110001000011
1111011110110000
0000111001001100
1111000001101010
0000000111100110
1111011011101100
0000110110000100
0000110100111100
1111001000100011
0000010111111011
1111101011001010
0000010000001000
1110101011101010
0000000011010000
1111110000111111
1111101011010110
0001000011011010
1111101110100101
1111001001000000
1111101100110010
1110100001101100
0001001010111010
0001011110010011
1111111110010111
0000001101101001
0001000110001011
1111111110010011
0011000010110110
1111111000000000
1111000011111011
1111010010111101
0001100001011001
1111011100011001
0000101011011101
0001001010111011
0001000111011101
1111110111110101
0000010101110000
1111110110101101
1111001010011101
1110111011101101
0000010100111101
0000110010010001
1111111000010001
0000010101000000
1111101100001011
1111111000000111
1111010111010000
0000010101001000
1111101001101001
0000100010011010
0000000000000100
0000100101100001
1111101111010010
1111101100011111
1111111001111011
0000111011100100
1110101110001110
1110111001110111
0000010101111011
1111110111011001
0010101000011010
1111101111100010
0000111101001001
1111010100001000
0000000111011000
1110001010100110
1111100111111110
0001110111001111
1111111011001010
1110101110011110
0000000010011110
0000011011101010
1110010010111111
1110010000000110
1111101010011100
0000101010101100
1111001111110101
0001010100111000
0001000001100011
1111011000010101
0000111011000011
1111111001111011
0001010000010101
1111000010111000
1111001101011011
1110001010011000
1110110110011000
1110010001010001
0010110010011011
0000001001100010
1110110110101000
1111001010100101
1111011000100010
0000101000111100
1111010001101100
1111101101101001
1111011001011000
1110110001010001
0000001110010110
0000101000010100
0001010011001000
1111011010011001
1111110110101011
1111111000011010
0000001010010000
1110111100100111
0000001010100011
1111001010001000
0000111111001101
0000100000001111
0001100110110001
1111000100111111
0010010010110000
1111010100000010
0000011001011000
1111111100001100
1111111101111101
0001001001101000
1110111110010001
1111100100010111
1110110011111001
0001110001100100
0001110111100111
1111010100001011
1110010001100111
1111101010011100
1111011101000010
1111000000101101
1111001011010000
0000010101110111
0001000010001111
0000010000100100
1111111100001110
1111101111000110
1111010101001101
0000101001110110
0000110010111100
1111001100100111
0000100111100001
0000111000001000
1111011110010001
0000000111110110
0000011111000111
0000110111111000
0001000011001101
0001010101110000
1110111010100100
1110101101001011
0000111001100000
0001101001111001
1111011010001100
1111110100000001
1111111011011010
0000000000010101
1110110001001101
0000011110110010
0000100110001111
0000100000011110
1111010110000010
1110011010101100
1110000010000110
0001001000000010
1110100011000100
1111010001101000
1111101001111101
0001101000011100
1111000001111100
0000010010001101
0000010101101110
1110011111001000
1110000110101101
0000111011110001
1111001100011110
0001001110000000
1111001010110101
0000010100001000
1110100110010101
1111011100100111
0000110001101011
0001011001100111
0000100011100010
1111100000111010
1111010011000110
1111011010010100
1111001011001101
0000101101000101
1111111100011110
0000010010110110
1110011010011011
1111010110010000
0001010000000010
0001011000101011
1110111011000100
1111101111111001
1111110111110101
0000110000110101
0010000011000110
1110110111101111
0001001100100001
0000101110000101
1111101100111010
1111100001111000
0001000100011000
0010100101100111
1110100101101110
0000101000010101
0000000101100111
0000101101000000
0000011101001011
0001000010111101
0000000101110001
1111010001111010
0000100100001001
0001010011010000
0010011010010110
0000101111010001
0000001001100101
0000100011110010
0000110101110101
1111010101110111
0000101100010100
0000001010110001
1110111000110111
0000000011111010
0000011000001110
0010011111101101
0001011101100000
0000000000101110
1110110101100110
0001000110111011
1111001110001011
1111011110000111
0000010001001000
0000010011110110
1110111001010010
1111000110100000
0000111011010011
0000110111110001
1110111011101001
0000111011011011
0000111010111110
1111100001010101
0001010001001011
1111011111000000
1110010010010010
1111111011101001
0001101101000000
1111100110001100
1111100100110100
0001111010010000
1111111001111000
1101101100101011
0000000111100010
1111111100101011
0001001010000001
1111100010110101
0000010011100100
0000110110001000
0000110011100010
1111010100001110
0001010001001100
0000100110011100
1111101101111000
0000110000010011
1110011100000101
0001100111010011
0000100001011101
0000100101011111
1110011100110110
0000001010101100
0000000101100110
0000001001001010
1101111101001000
1111100110011010
1111110001101111
0000010010100000
0000001000000110
1111100001010100
1111000000100110
0001010100111110
0001001101001000
1111001111011111
0000001110000001
0000101111010101
1110101001011100
0000011111101000
1111010101110011
1111111010010100
1111010110101111
0000001111110011
1111010100010001
0000000101100101
0001011001001001
1111011110111001
1110101111001010
1111101101000011
0000111101000100
0001011100010011
1111110010000001
1111010010111001
1111111101101011
1110101101000001
0000011010010111
1111000001010010
1110011000001000
0001001010000000
1111011111010001
1111101010110000
1111100001111110
0000011101000110
0000001110000110
0000101101111101
0000110101011001
