0001000101110000
1110111110100000
0000000001100010
1111100000111011
1110001011011111
0010011110110111
0000011011001011
1110111001011110
0000011010100111
1111101100010111
0000000111001001
1111001110000001
1111100000011001
1110001011111010
0000010000110110
1110010110110111
0001111000011100
0000111101101000
1110011100101000
0000011100100000
0000100001100000
1111000001110110
1111101000111000
1111101011010100
1111010111000011
1110110110110110
0001000100001010
0000100110000010
0000101110010101
0000010000001000
1110110100100011
0000010011100010
1110110000100010
1111010001111010
1111000011111111
0000011011100100
0000111000001101
0000111110000011
1111110101101100
1111110111101011
1111100111111111
0001010100010100
0000100000100111
0000100010011101
0000100011011010
1111111011000101
0001100100000110
0000011111010010
1111011001100010
0001000001001011
1111100001000011
1110110110001100
0001001111011001
1110001011101100
0000000111111110
1110101111111001
1111011001011101
1111011101110011
0001010110110001
1110111000110100
0010011011111111
0000000010010011
0000010010000110
0000111100111100
1111101001111010
1111001001011000
0000111110011001
0001010100000111
1110100001001110
1110110111111000
0000100110001111
1111100000100011
1110110111100111
0000100101011111
1111010110110100
0001001111110000
0000010110010110
0000000101000111
1111111001000110
0000000000111011
0000011101100011
0000100110010100
1111110001011110
1111011011110000
0000100101101011
0000001011001101
1111011111001101
0001001000111000
0000111000101010
0000101111111111
0000101100100111
0000010011011111
1111101101101101
1110110110011011
1110110100001110
0000111100100011
0001101000101111
0000000101110000
0001100001000001
1111100001100110
0000111001001111
1111101011101101
0001011101111101
0000110101001010
1111100110100000
1110100110100100
1110110001101110
1111010101000000
0000111101010110
0000001010111010
0000010111110101
0001011100100111
1111011100110011
0001010111000010
0000111010111011
1110101100101010
0000000100010011
0000100110101101
1111001011101101
0001011101101110
1111000010010001
0000001010101111
0000001110001001
0000000100100111
1111100101011100
0000111101001000
1111111000111011
0000100100100010
0001000010111101
0000010111001000
0000100011001110
0000001000110100
1110100111101011
1111111110011101
1110111110101011
1101111101111101
1110011111001110
0000001101111000
0000110101001000
1111000011010011
0001011101001000
0000010010111111
1110110001001010
1111101100110001
1111111111011011
1111110100111000
0001100101011110
1110100001111100
1111101111111011
0000111010101011
1110001010100100
1111000100010011
1111101000110001
0001001010001000
0001111001010110
1111110000101100
1110101101000001
0001000111011110
0000010111011001
0000011101011001
1111110101110100
1111110010001011
0001011001110101
1111011111101010
1110110110101100
1111101111110010
1111111001101001
1110011110111110
1111100010110001
1111001110110010
0000010100010000
0001100011000010
0000101100100110
0000000011101101
0001001111110111
0000011011100100
0000001010110011
1111010010001000
0001000001110010
1111110000000110
0000101010011010
1111101010101110
0000000011100010
0000101011000011
1111001110011000
1111010100010010
0000101011001110
0000101000011010
1110110111001001
1111001110001111
1111111000011100
0000110011011110
0000001111100111
1111101111111111
0010001011110111
1111011111111111
0000100000101000
1111101001010110
0000011110011101
1110110010011101
1111000101100101
0001011110010101
1111001011110111
1110100000000101
0000010011011100
0000111101010001
1110001110001110
1111011100000110
1110010101110111
1111110111111111
1111111111101010
0000101111011111
1111010001000001
1110110001000011
0000011101010101
0001000001100011
1111001001010101
0000100011000110
0000010111101000
0010101011001001
0010010100100011
0000111011100010
1111100010000101
1111101101010111
0000110111111011
0000010000110110
1110011100010101
1110101101011110
1111101101010110
0000101001011000
0000001100001011
0000001000111001
1111100110001001
0000010101001011
0001001000110010
1111100001110100
1111010101110111
0000100111000111
1111011111000100
1111111000100001
0001001011101101
1111110001010001
1110110110001101
1111010110000111
0000000111101011
1111100011110000
1111101111001111
0000000101001010
1111111100101111
1111100011101000
1101111110010010
1111101000101110
0000001101100111
0001110100101010
0000010111001110
1111011101100010
1110101011101010
1111101011000100
0000010010000100
1111011010100110
1111111100111001
1111110110011001
0001000111011011
0000000101100101
0000011011001110
0001101110101100
1111010101000100
1111100000010111
0000110101110101
1111010001101101
1110110111100100
0000001110010110
0001100011100000
1110011010100001
1110010100010000
1111101100101111
0001111111001011
0001010100000111
0001000000111110
0000000101111111
1110010110011010
1111000111111001
1111111010100011
1111011110100000
1111101000011000
1111011111101100
0001000111110100
0000110100111110
1110011100001010
1111110110111000
1111010100011101
0000001011000100
1110010011000101
1111101001011011
0000101101010100
1111101000010011
1111101111001110
0000011011111100
1110101110110101
1111000000100000
1111011001100101
1111001011111001
0000100000110010
1110110010111101
0000011111110000
0000010111010110
0010000000110011
1110101010110101
1111001011001101
1111110010100110
0010001111000011
0001010111111010
0000101000010100
0010000110011111
0010011001100110
1110111100001100
0001010010110101
1111001111001100
1101101011011011
1111010001000010
0000100100000010
0001100101111100
1101111101000011
0000001100010000
1110111111101100
0001101100001000
1111101001101010
0001001100100000
0001011010110111
1110101001100100
1111110110001010
0000000100000000
1111101110100111
0001001100001100
1111101011111010
0000000110101000
1111111111101101
1111101011111111
0000110001001001
0000100101101110
1111010000101100
0000111100000110
1111001101101100
1110000010110111
0001001101010010
1111110010001001
0000111001101000
0000000101111111
1111100101111001
1111010100100011
1111111000010001
0000011101010010
1110100100100100
1111110000001010
1111111101111111
0001010000110101
0000010011001101
0001101100101010
0001100010011110
1111110100110011
1110100110000111
1101010011001001
0000100100110100
1111011100111010
0000100000000111
1111011101011111
1110010101111101
0000010011000011
1111101000011010
0001001010111100
0000110101010001
1111110100010110
0001011010001010
1110100001000000
0000110111110110
0001110011001011
1101111100110110
1111010111101010
1111101010000110
1110111010010011
1111010010010111
1111001101011110
1110111100100011
0001011011111011
0010000111001100
1111010100100100
1110110001011111
0000011111110101
0001100110110001
1111010100010011
1111101000101100
1110100111100100
1101100100110101
0000010000010111
1101110001000110
1111110000010000
1101011111010101
1111100010000000
0001001000110101
1111110000010110
0000100010100001
0001000110100001
1111010110110000
1111111111101100
1111100111100000
1111000000111010
0000010011000010
0001011111001100
0000110011101001
0000010011110010
0000101110010011
1111011011110001
0000000110101111
0000111101110110
1111110001001011
0000111110111110
0001000001011110
0001000001111111
0001011000110010
1111101011010101
0000010110010110
1111101100000010
0000011000001011
0000011111010011
0001011111100101
0000101110111011
0000000111101111
1111010000010011
0000011111011110
0000001011010000
0000001011000101
1110010111111100
1110101100001100
0001011100111000
1111011011111110
1111110101010110
1101010000001100
1111001001111010
0001000000110010
1111011100000000
0000101101111101
0000011111110010
1110000111101001
0001110110001110
1110111011110000
0000010000110101
0000101111001101
0000001100000001
1111101101100101
1110111111110011
0000100111000010
1110000111111101
1111101111001101
1110011011111101
1110101100111110
0000101010111111
0001000101000000
1111100110000100
0010101010000101
0000110100011110
0000001101010011
0000010000010100
0000110000111000
0001000100010101
1111101011110110
0000000011001010
0000011100110111
1111101101100111
0000100101111110
0001000000111011
1110111010001111
0001000010101001
0000001001110011
0001111101000101
0000101001111000
0000101101010100
1110001011000100
0001011110100000
1111100111001100
0000000100001001
0000110011110010
1111001101100101
1111110010100000
1111101101101110
0001101011110101
0001001100010001
0000000111101010
0000101110100100
1111010001100110
0000010101110101
1111010110011011
0000110010011010
1110101010000110
1111100110110100
0001001100111101
0001000010011000
1111011011110011
1110001000000111
0001010001000001
0000000100100101
0000000001011101
1110101011101010
1111100000100010
1101111101101010
0000010100011010
0000011110000001
0000100101101010
0000010010001010
0000001000001011
1110111001111001
0000100100011100
0000001111011001
1110111111111011
1110100001010111
1111111110111110
1111001110010000
0000101100011101
0001110111010010
1111101101100010
0001000011110010
0000101101101010
1111111100100111
0001000111010100
0001000111101110
1110000011111001
0000000001011001
1111101110000110
1111111100011010
1101101110100010
0000001110000101
1111011001011101
1111110000000010
0000100000000001
0000000011100011
1111001100110010
0000001011101000
1110010011110001
0001111100111010
1111001110011110
1111111011111010
0001011101001100
0000101010111110
1111111000010000
0011001000100100
1110011110110101
1111010111110010
1111000010111010
1101110100010111
0000001011100111
1111000110011100
1111111100011001
0001011110011100
0001011010000010
1110111100100111
0000001111001101
0001101010000010
0001011110100100
0000110110000100
1110010101011000
0001000111111111
0001000100111111
1111000100110100
1111111110011011
0010101100000000
1111010011110000
0001011111100101
0000110101010001
0000100010101110
0000011110011111
0010000100011011
1111111010010000
1111000110010101
0000001111101101
1110100001000101
1111001010111111
0010000101010101
0000000111010011
0000000000100000
1110110101010110
0000111010110010
1111010010110110
1111111101101011
1110001110101110
0000101111001000
1111101000111101
1111001001110110
0000101111001010
0001110000001110
0000000100011100
1111111000001001
1111101101011111
1110111110000101
1111111100000000
0000110110111110
1111101000110100
1111110001101001
0000001111100101
1111101011110001
0001011110100010
0001100011010001
0000100100100011
1110001001100001
0010001001110111
1110100001010110
0000110100101110
0000001000001101
0001001111000010
1111010001011010
0001110001010110
1111111011101001
1111010111100100
0001000100110100
0000101001101000
1110101110010001
0000100110110100
0000111000100110
0000011111010100
0001000100100110
0000110011100010
0000100010011011
0000001110010000
1111101101011101
0000010000011110
1111010110011001
1110101110110111
1111010101100001
1110111101001101
0000100100010011
1111111011101000
1110111011111100
1111001001010001
1111000011010101
1111000111100001
0000000000001100
0001001111100101
1111101000101010
1110010101011011
1111100001110011
0000000000001101
1101100101010001
0001000011111011
0001110000001011
0000100101000100
1110010111100111
1111110010010011
1111110100011100
1111111000110101
0000010001000010
0001001010000010
0000001000011011
0000001111110011
1110110001110111
1111001011111100
0000001111101001
0000001011001100
1110011001001000
0000001001000100
1111111110100101
0001000111110011
1111101110110111
0000111011100111
0001101100000000
1110111000101000
1101011111100000
0000101100110000
0000000011111000
0000000001001110
0000011101011011
1110111010100010
0001111000010001
1111000100101000
0000010010010111
0000000101001111
0000111101010110
1111101101110001
1111011100000101
1111110011001001
1111101100011010
0000001110000110
0000100001111100
0000110111000111
0001110100110000
1110111011111001
0000010110000101
1101101010011111
0000000101110001
1111000011100111
0000111110100001
1111111110100110
1101111000111000
0000101100111011
0000010111100111
1111011010101011
0001001010101110
1111000011100000
1111101001111101
1110101011011000
0000001101110110
0000000010010011
1111011101111010
1111011010111101
1101111111111100
0000001010111110
0000010000100100
0001001110110101
0000001001000001
0001000100000010
1111010001100101
0001110001100001
0000100110101011
1110101111011111
1111111001111000
0000000111111110
1111011001001000
0000111001100101
0000001000100100
1111010101101000
1111111100000111
1111010101111011
0000010111111011
0000010101111110
0000011101100010
0000001110011000
1111101111100101
0000110001101011
0000110000000010
1111101001010001
1110101010111000
1110111101111101
1110100011111100
1111101100000001
0000010111011101
0010100111011101
0000011111010111
0010100001011001
0001011111011001
0001000111000011
0001000100010110
1110011001011010
0000000001100110
1111101010101110
0001101010000100
1101110001001101
0000000101000110
1111001011010110
0000101001000001
0000001101111100
1101101000001001
1111011111010101
1100110110100011
0001100001111010
0000100001101011
0000010001110011
0000111101010101
1111001001011001
1111100000100100
0000011111110100
0010000011110011
0001100101011011
0000111011111110
0000001001111101
1111000111000100
1111111000101100
1111010010101010
1111010100001011
0000011100111111
1110111110111000
0001000011111101
1110111100111100
1111100001101111
1110001010000011
1111111011001000
0000000011100001
1101111110101100
0000001101010010
1111011110011100
1111010110110011
1111001010011010
1111100100100101
0000001100110010
0001110001011100
0000101011100010
1111010000100110
0000110100101100
