1111000001000101
0000011011111001
1111101111001111
0001001111110101
1110111001011101
1111101111110011
1100111110000010
1110100001010110
1110111111100111
0000001100110100
0000101011000101
1111000101001101
0001011000000000
0001010011101001
1110100010101011
1110110001101111
0000100100110010
1111100000010010
1111001100001010
1101100111111111
0001001010000101
1111110011101101
1111100100010100
1110101111110010
1101111111000111
0001011010010110
0000110011001101
1111101111010100
1111111110100011
1111110111110000
