0000011011011101
0000110010101000
0000101100000010
1111000000111001
1111101110000000
0000001010001100
1110101100000111
1111110100000010
1110010011111110
1111111100011011
0000001000111000
0000001101111010
0000000001010110
1111111000100010
0001000010000000
1111011001100111
0000100010000110
0001001000101110
1111110110110011
0010011110011100
0001100011000100
0000111101110010
1111110110100001
1111001110010001
1111001010110001
0000011110101101
1110110110101100
0000100100110100
0001000001000011
1111110001010110
1111111000101101
0000000001110101
0001001110011100
0000101010010001
1110010111111101
0000111010010110
0000000001001010
1111110011110000
1111010000100001
0000000001001001
1110111100110011
0001001001111101
1110110111011001
1111000100110110
1110001111011111
0000000010100101
1111010101001010
0000101001010010
0001110110110000
0001101110001001
0000011010100101
0001111111111111
0001100101111001
0000010011110110
1111111100100110
1111001000000001
0000111000101100
1111010100100101
0000111011101100
0001011011110101
1111101111100110
0001001001100001
1111001111110011
0001101100101110
1111110010000011
1111111000000110
0000100001101110
1111111110101100
1111101101011011
0001000110101101
1111100100010111
1111111100101101
0000100100001101
1111000101101001
1110101010001011
1111101010100101
1111110010000100
0000100011011010
1110111000110100
1110100111001010
1111010110000011
1110011010001100
1111101011110010
0001110001001010
0000011010110011
0001100100111100
1111000110000110
1110011001000111
0000100001110100
1110100011110001
0000010000110110
0010010001110000
0000101100001001
0001000011000100
0000000010100001
0000110011101011
0000011110001001
1111100111101111
1111110100110100
1111011111111011
1110100000111101
1111101111101100
0000011100110101
0000010101000100
1111011111000111
0001111001011000
0001101000010101
1111111010101011
0001110110010100
1111110101111101
0000101001100001
0000101011001110
0000001101001001
1110110101010111
1111101010110011
0000111000100111
0000001111101110
1110110011100011
1111011010001000
0001010011001010
1110110010010001
1111010100010000
0000011011010001
1111100000011111
1111001100110111
0000010111010001
1111111110001001
0000101000111001
1111001101011000
0000000111100011
0000110011110111
1111101101110011
1111100011101101
0001100000011101
0000000000110011
1111111101101010
1111111100011110
1111100010111110
1111011010010001
0000001100010001
1111000001110111
0010100110110100
0001001010110000
0000101011001001
0000000100000100
1111011110100010
0001010000000011
0000110101011111
1110110101011110
1110000101000010
0000010001101100
1111100100010011
1110110001100001
1111010110000100
1111101001100010
1111101001010110
1110101100011111
0010000111001100
1111010011110001
1110110100101011
0000101111100011
0010111001010111
1111001001001101
0000000010000110
0001000010101100
0000111000010100
0001010010101100
0000001101011110
1111110111100111
1111111110110110
0000010100110111
0000101101011111
1110011010000011
1101011101010001
0000101011001110
0000010001101100
0010001000000101
0000101110101101
1111000000000001
1111011101001100
1110110000011011
1110111000100011
0000100000010010
0000001110001001
1111000101011000
0001011101000101
0000001001110110
0000010100000000
0001100000000010
1111101111011010
1111111101000100
0000110110101011
1111101101011101
0000101000100000
1111001110101010
1111001101011010
1110111101001110
0000111101010001
0001010100011011
1111011100011001
0000111000110011
0000011010011000
1111110010000010
0001101010010000
1111001110010000
1111111010100000
0000101100000100
1111001000001110
0000010001000101
0000000011111001
0000011010101011
0000100111111000
1111110100110110
1111100011010111
1110000110100011
0000111001101010
0001011011110111
0000001010001111
1111010100100111
0010001011110010
1111111010100011
0001100101001010
0000110111010011
0001001011100111
1111001011010000
1111001110100010
0000100101110001
1111111011011110
1111010001000110
1111110010010001
0001111011111111
0000010101101010
1110011001110011
0000010011111011
0001001011011010
0001000101010100
0001101000001100
0000111111010111
0001000011101011
1111101011011001
0001111101010101
0000110111010001
0000101000101111
1110000000111011
1110101001100101
1110110000000010
0000111100101011
0000001001110011
1110000001001111
0000011010101101
0000100010011001
0000010010001101
1110111110001101
1111011010010000
1111100110000101
1110101111001010
1110100110100001
1111100011100010
1111100100010111
0000100110100100
0001000011101000
0001010110010000
0000111101110010
0000000111010100
1111101010111001
1111000001001001
0000010011111101
1111101000010111
0001100011101100
0000111011110111
1110111010011001
0000001011100110
1111001000100010
1111010011010001
1111100100001011
0000001110011111
0000101101001000
1111011001010001
1111111011000100
0000000101110100
1111001010111101
0000011001101000
1101111001010000
0000110001000100
0000000011001101
0010000111110100
0010101001011011
1101110010111001
0000001111001101
1110110110011110
1110101111101100
1111101010111000
0001001111000111
0000100001010101
0001111010010001
1110111010100111
1111001010100001
0000011001110000
0000100000100100
1110010001010111
0000010001000000
0000011100101001
1111100111000001
1111011101000100
0001110001100111
0000000111110000
1111011001100110
0000111110110110
0000111110101111
0000000011010101
1111000000101001
1110001101001111
0000001000000001
0001111001001100
0000010110010001
0000000111000111
1111000100010000
0000011100110101
0001000011101011
0000100100100100
0010011001001011
0001001101000111
0000101101100100
0010010010001000
0000010010110110
0000001000000110
0000011110110110
0000111111110010
1110000110011110
0000110110011000
1111100101011101
0000011011111001
0000000101110101
0001010000010010
1111010111011111
1111100110001000
1111110011000000
1111100001100000
0000001101101111
1111111001001101
1111111111001010
1111101111101011
1111101111011101
0000100110011010
0000010011000000
1101111100000011
1111110110101100
1111100001011010
0000010000010110
1111010110111100
1110100010011111
1110111111100001
1111101000000010
1111101000110011
0000010111111110
1111100001010100
0000111010100001
1111110101001100
0000100110001000
0010011010001001
0000111111111110
1111010000011111
1111110011101001
0000101111111100
0000111111100100
1111101001001111
0000100000101011
1110000101100100
0000111101010111
0001100100101010
1111110111111100
1111001010101110
1110110100001010
1101001010001000
1111111000101110
1110110011011011
0000011010011100
0000100111011111
1111000000111101
0000001111111011
1111110111000011
0001001011001000
1111100101100001
0001000101110111
1101101000100110
0001100001100110
0000100001011001
0000001100110101
1110101001111011
1111001100110010
1110110010101010
1111111101101001
0000101010101011
0001100001100100
0001111111111010
1110100010011011
1111010011101100
0000111011011101
1111011100100100
0001101101111101
0000100110111110
0001000001111011
0000010000111101
1111111000111000
1111110010010001
0000111000100110
0000100000101010
1110110011011110
1111101101000110
1111100011100110
1111010111100010
1111100100000100
0000100110010011
0000011001100100
0000110111010000
1110011011111110
1111000110111000
0001110001001100
1111101100111011
1111011111111101
0000101110010011
1111000101100001
0000110011111111
1111011110111000
1111101101111110
1111001101010101
0000100000101011
0000110100100011
0001111100101011
1101011110000110
1111101000101101
1111000100110101
1111001111011100
1111011011111001
0001000111110110
1111100010110011
0000111101101011
0000001111010010
1111011110011100
0000101101110001
0000010101000011
1110111010100011
1111011001111010
0000100111011011
1111100101111001
0000000001100101
1111001000100101
1110100100011110
1111011011101101
0001100011001111
1111000111001111
1110010010100110
0001111111000001
1111000100101010
0001000111001111
0000100101100000
0001100110001011
1111100110110000
1111101010001001
0000010000000001
0000100101010001
0001001110101000
1100111100000000
1111011100110011
0000100111110000
1111111001100010
0000100100101101
1110111111111110
1111011110000001
1111100100110011
0000011001111100
0000110001110101
1111111100110000
0001011110111001
1111101001011110
0000100111010011
0000011011111001
1111000011010000
0001000110001001
1111110110101100
0010101101000110
0001101001100010
0000000010110111
1111111011000100
0010101110001011
0000100001111100
0001000001100101
0000000011000100
0000011111111000
0000010010011011
1111110001000100
1111001110001000
1110100111110001
1110001101000001
0000001101010111
0000101010101001
0000101110011011
1110000100101100
0001101000101111
1110001101110100
1111011111101000
0001011111001101
0001000000110011
0001011111011001
0000000101010100
1111000001011110
1110001111100100
0000010011011011
0001101001110000
1111100111011010
1111010000001011
0000100101100001
1111110010100111
1111001010100100
1111110011111101
0001000100000111
0001011001000100
0000100001001110
0000111100010010
0000111111101101
0000110010001001
1110001010100001
1111100001000000
0000000000101011
1111011101011000
1110111111001101
1111001101011000
1111011011000001
1111001010101011
0001010110100100
1110110000010010
0001011011011110
1110101111101110
0000111010001111
1111110100110100
1110101111001000
1111001000000000
0000000100101111
1101100001111101
1111000000011000
0000101001100111
1111000101110100
0000000110010000
1111001001111000
0000001001010011
0001001101010011
1111010110011010
0001011011111110
1110111110101101
0000010110000010
1110111111101111
0000010000100011
0000110011100111
1111010100111101
0000101010001000
0001000001101110
0001011000100000
1111110001011011
0000000101000011
0000110101100100
0000000001110001
1111000100101001
1110110011110101
0001100101110101
1101011110100000
0000000100000101
0000001000101010
0010010010100110
0000110110111111
0000110101001111
0000011000110101
1110111111001110
0000010110110111
0010000001110110
1111011111100101
1111110001011111
0000101110000000
1111011010100010
0000001111011000
1111011110101000
1111101000100001
0000111010110011
0000001001110010
0000110110110001
1111101010010111
1101101111111000
0001011000111011
1101111011111111
0000001111011111
0001000100110100
0000110100001000
0001010000110110
0001111110100100
1111101001001000
0001110000110001
0000100110000010
1101110011101100
0000111000011001
1110001110001110
0001100000111000
1111110010011000
1111100110100111
0000101011011110
0000010011110111
0000110011000101
0000110111110000
0000011011010010
0001010100100001
0010001110011111
1111100011000010
1111111011111101
1110111010011110
0001101011111100
1111011011101100
1101110110011001
1101101111001011
1110011010101011
0000101010110111
0000000110101111
0000100110001011
1111010101100111
1111011110100000
0001100010101001
0001010000011000
1111010110100000
0000000101111110
0000011100111011
1101110111000111
1111110111010100
1110101100010111
1111101110001111
0001000011111110
1111011110110100
1110111110001111
1110110000000111
1110110110000011
0000010110001101
1111011000001110
0010001001100011
1111010000100101
1101100000011010
1111011111001101
0000111110001101
0000100110111011
0000011010000010
0010000110010100
1111010010000101
0001001010011100
1111101110010100
1111100011011010
1111011111111100
0001100110000101
0000011010001011
0010000100010110
0000001001001100
1111101011110000
1111001100110101
1111011000110011
0000100000001100
1111110101011000
0000111111001001
0000001000011100
1111111011110000
0001000010101100
0001100000001001
0000100101101001
0000011010101010
0000000111100001
1110100000101000
1111011011000010
0000001011111001
0000010100011000
1111111100011000
1110010100111001
1110000101000010
0000011000111111
0000000000010000
1110100010100100
0000100101010001
0010111111000011
0000111101011101
1110010010100101
1111100111101111
0000010011000101
1111011111000110
1111001111011101
1110111010011001
1111010010011101
1110100011111111
1111000111011001
0000100100100011
0001000100101000
1110010111110001
0001011000110110
1111000110010000
1101110010001100
1110100101001110
1111101101100110
1111100001011101
0000101011101110
0000010101100100
0000000110100010
0000101001011110
0001110000011011
1111001001111001
1110110100011010
0000001100111101
0010010011110001
0010100001111110
1111100100111010
1101011000110011
1111010001111001
1110101010001010
0000011100011000
1111111011110100
1111000101011110
0000000000111110
1110101101110010
1111101111000000
1111000010011110
0001001010000110
0000011000111111
0000111000011000
1111001111100011
1101110000000011
0000011110111000
0000000001110001
1111010111010011
1111111111110011
1110111011011000
0000110110111111
0000000010001101
1111100111110001
0000110010001110
0001010001100111
0010001000000111
0000001111001000
1111000101111111
0001001101011000
1110110000101110
1110001100010001
1101100100101001
1111010011011101
1111001010111010
1111001100111100
0000001010111111
1110100110110010
0000010010100111
1110111010101101
1111101110100110
0010101000001001
0000000110101011
0000011101010000
1110011011100010
1110110011000100
0001111001011110
1110110101111000
1111110001101110
0000110000110100
1111100100111001
0000010010100100
1110100100111010
0001000010001001
1111100111010110
1111001101001111
0000010111001101
0000000101000001
1110111000110101
1111000110101001
1110110100101110
0000001011000010
0000111011001100
0000011011000001
0000100011011111
0000101001110011
0000011001110101
0000001100001001
0000100111110011
1110111101110001
0010010001110101
1111000000100000
0000010010000000
0000111001111001
1110111011101011
