1111110111110001
1111010110101111
0000101100000100
0001011111101110
1111110001010011
1110010000010101
0000100101100001
0001001100111100
1111000110111001
1110011101110100
0000100111001000
1111000010100000
0000010110111111
1110010110111100
0001001101100001
0000100101101011
0000001011100101
0001111101111100
0000001011101101
1111010000100110
0001000010010111
0000001010111101
1111111000000110
0000001110111101
1111111100000110
1111110010110010
1110001000000111
0001011111101010
1110000000111010
0000001000000111
0000010111010000
1110110010010001
0000001111100100
1111010001111001
0000000011011100
1111110101010100
1111010000100010
0000011011101101
0000001010111010
1110111111111111
1101111111110110
1111001101101001
0001011100000101
0010000000000000
1111001100100010
1110110010111101
1111101010111101
0001100010011011
0000111100011100
1111101011111010
0000011101111101
1110110111100110
0000101011110111
0000110000001011
0000010011011110
1111100101010110
0000101110010000
0000110000001000
1111011000100101
1111111110101011
1111100111110000
1111011101010101
1111011101011111
0001000000101000
1110110010111000
0000000110100001
1111100001110010
0000000100101011
1111100100101111
1101101100111001
1110111011101000
1111010000010101
1111011100001000
1111010110101001
0000111010101110
1111100100001111
0000001001101010
0000100000100001
1110010111001101
0000011100101100
1111001011010010
1111101000110100
0000100111101001
0001001001101111
1111011110101011
0000110110011110
0000001011000001
0000111001111000
0000100110100000
0001010100010000
1111000000110011
1111000000010010
0000000101001000
0001010001001000
1111001000110011
1111000110000101
1111001010000110
0001011011011001
1111000101010100
0000110011001111
0000011100011001
0000011101100110
0000110100010111
0000001010000100
0001101000010110
1111110010001000
1110110000011111
0000101110000011
1110100110001001
0000111010011110
1111000011110001
0010000011011101
0001100011011100
0001100110000001
1111011001010000
0000111000100010
1111111011100001
1111010000000101
1111101100101000
0001000111011101
1111110111001011
1111110010000001
1111100000111000
1111100010001100
1110100100000010
1111110110001100
0011000011111001
0001111101101101
1110011101100101
1111100011011100
1111010110101001
1111010010110101
0001111111110000
0000010100111000
1111111010111000
0001110000000010
1110110110111110
0001000110111110
1111011001100011
0000111110000101
1111101101001111
1110110100100011
1111011101110001
1110110001010110
0000111011111001
1101111110110111
1111110100000011
1101011110100111
1110101110001010
0001000011001110
1111000100011111
1111111000111111
0000010111101000
0000100111101101
1110000010111111
0000010110111000
1111101000110001
0000101001001101
1110111100110100
1111110001011011
0000101100100110
0000111001101011
0000000101001110
0000100111111101
0000111111100001
0000010111000010
0000100101100111
1100111110011100
0000101011010101
0001101000110010
1111011001000010
0000100100110100
0000110011111110
0001011110000000
0001010100011101
1111111000111100
0001100011001010
0001100011011101
0000100011110001
1101110000101001
1110100001101011
0000000011110000
1111100110000011
1111111000111100
1110011101101011
1111001011011100
0000001010000001
0000101010010111
1111011010100110
0001000111111001
0001010001000010
0000000100011010
0001110111111111
1111010001101111
0001000101100101
0000000011111110
1110000010111010
1111110111100110
0000001100100101
0000110100101111
1111001001101001
1111110001000100
1110011101000011
1111111110001011
0001101000011000
1111001101011100
1111000101011110
1111000000001000
0000001111011111
0000010111011001
0000000101100100
1111111111100010
0001001010100111
1111010001101000
0011000001100011
0000101001111111
1110100001010001
1111010110100000
0000010010110100
0000001110110111
1111111000111000
1111011011000010
0001010011101101
1101110011011111
0000110000100001
1111010000000101
0000010011011001
0001010011010011
1111011001100011
0000011110011011
1111011110011000
0000011010100111
0000100111100101
0000100010100000
1110001011000101
0000010010101011
1110111001111000
1111010100011100
1101110001110101
0000101100000111
0000001010010000
1111101100000000
0000001111101000
1111011010000011
0000100011101010
0000000101100100
1111001001101100
1111101000001000
1111001101000111
1101100010100101
0001000000100101
1111000001011010
0000110011001010
0000010010010011
1111111000011100
1111100010100110
1110011011010110
1111100011001101
0000100001000100
1111000100101000
0000001101011000
0000011110111110
1111100010010010
0001000011101110
1111000100111011
0000100111001001
1111010101001001
0000111000101111
0001111101111010
0000100100110001
0000011010010000
0001000101000111
1110111111010010
1111100101100000
1111101010101111
0010101111101000
1111100001011000
0001001100001000
1111111000011111
1111101011000010
0001001000110110
1111110000000100
0001111111011100
0000011010100011
1111011111111010
0001101001001110
1110000011011100
0000111111001000
0000000100000001
0001100011010111
1110010110010101
1111001100101000
0000100001110011
1111101001100101
0001011111100100
1110000010000011
1101110110011111
0000100000011111
0000011100000000
0000110111111011
0000111111001011
1111011100101001
1111111111110000
0000010100001010
0001011010111000
0000000110010011
1111110110110110
0000000000101111
0000111111101010
1111001110100000
1111100110101001
0001001011111110
1111101011100110
0000101111111000
0001100001111010
0000000010110011
0000111100100010
0001000000111011
0001001010111111
0000110111001011
1110101100000011
1110110011110110
0001000001011010
0001011010110011
1110101001010100
0000000100001100
1110001000011100
0001110100100011
0000101110001001
0010011100101000
1110111101010111
0000011110110111
1111101111011101
0001001110111111
0000001110111110
0000011100001000
1111101111100101
1111010100111000
1111100111001011
1111111100100011
1111101001101000
0000001110011000
1111101011110110
1110000001101111
1111111101111101
1111001001001011
0000111000000110
0000001011100111
1111111100100000
1111000101110100
0001000001001010
0000011110111011
1111111010001101
0010010101001100
1111110111011000
1110101111110011
0000101110000101
0000001100110001
0001101010010000
0001000010111011
0001010111110100
1111110101001111
0000000001101111
0000000000111010
1111111100100001
1111000000010100
1111011001000101
1111000000001010
1111100100100011
0010001111011100
1111111010111001
1111011010001010
1111111110100110
0000110100100111
1111010011110110
0000101000101101
0001000011001100
0000100001101010
0000101111100000
0001101010001111
1111101100010011
1111110010110001
1111001111010011
0001111100000010
0000011110000100
1110111101010111
0001101010011001
1111110000100001
1111110010011000
0000010110101001
0000011100001110
1111011101010000
1110010110101001
1110101111110010
0001010000010000
0000000100100110
0000000011000101
0000110000011010
1101111001011101
0000111011001011
1111100000100111
1111000011011110
0001011011110011
1111001000100110
1110011110111000
0000110010100011
0000010011111111
1111100001001001
1111010010100101
0000110111110001
0001011101101110
0000001001110001
1110110100100001
1111000000101000
1111001001000110
0001010101010110
0000111000100111
1111011000000011
0000000111001111
0001001011100011
0000110100010111
0000011001111011
0000011001001110
1110111001000110
0000100010000011
1110100101101111
0000101110111111
1111100000111110
0000001000001001
1111011111011101
0010000001000000
1111100110001010
1110101100010010
1111000111100010
0000100000010111
1111101011001110
0001011010000010
1111011100011111
0000100110100101
0001010100011101
1111101011111100
0010000000100110
1111010110101010
0000100010010000
1111010000110011
0000111111000101
1111100111111111
1111101100111001
1111011110011101
1101000011111000
0000111111110010
1111110000011011
0000110010010111
1111111000101110
1110011011100001
1101111001101101
0000110111111010
0000000011101110
0000010000001101
0001101110100001
0000100000000001
0001010101001101
1110111000011111
0000001011010000
0001000011010001
0001010010100100
1111010010000110
1111111110110011
1110111000001111
1111001011101101
0010001011000011
0000100100100001
1101111000101100
0000001101110100
1111100000111000
1110101110010111
0000100010011001
0001010101000001
1111111111011100
0000001000011100
0001100011110001
1111100001011111
1111010100010100
1111111100000101
1110011001100100
0000010100000101
0000000100101010
1111001001111001
0001010110111100
0001110001011011
0000101101100000
0000101110110111
0000010100110100
0000000100110100
1111111010101010
1111000111010111
0001011011111010
0000011110010100
1111100101011110
1101110100000000
1111110100100000
1101110110011100
1101111001000110
0001101010010111
1111110000001100
1111001100010110
0000001110001010
0000100001000011
0001000101001100
0010010010010010
0001100110001101
1111111111101100
1111111100111010
0010010110111101
0001001101000111
1111011111101010
1111101100001100
1111101101111111
1111100001110000
1110111011001011
0000011000001111
1111010100101011
1111011111011010
1111000010010101
0001101010011010
1110110000110011
1111001100001111
0001110000101000
0001000011011110
0001001110111000
1110111000101111
0000110100000101
0000100110101110
0001010010110010
1111111010101111
0000110000001110
0010001110100010
0010000111000010
0001000000001101
1111001110011010
0001001110111111
0000110000010000
0000001001101111
0000101011011000
1111111000110001
0000111011101101
0000101010111000
1111101011001101
0000010001100110
1111101100011110
0000111101111001
1101110011010100
1111000100100100
1111110001010001
1111011110010011
1111110001010001
1111111000111010
1111011010100000
1111101110001110
0000110101010000
0000110110101111
1111100011111010
0000101000010100
1111111010001011
0000101110010101
1101100101110100
0000001110101011
0000010000000000
1111010010001010
0001011111111111
1111101110100111
1110010110100101
0000101111110101
1111111110010100
0000110111010000
1100110100011101
1111011001010010
0000010101001001
0001011011100010
0000010000011010
1111010000000011
0000111000100101
1101001010011111
0000000000000010
1111110110001010
1111101100111001
1111110011110011
0001101111001001
0000111100101110
1110001100101101
0000100000111001
1111000011011110
0001110000011011
0000011101101111
1111001100001111
0001011101101011
0000100111011110
1111011000110100
0001011001100010
1110101001010101
0000100101001011
0000100010101101
1111110111111101
1110001101111110
0000011010110011
0001000000100001
1111100000000101
0000000111111010
0010000101110100
0001110011100100
0000001000101000
0010000101110000
1111101111000010
0001100110100001
0000111111111000
1110110010000110
1111111100001101
0000111011110110
0000111110110001
1110000001110110
0000101000111101
0000110111001010
0000010110110110
0000101001001000
1111111110011010
0000010101011001
1111100110110000
1110101100001001
0000001101000110
1111010001010100
0001001000000000
1110001100101001
0001010010100111
0000000101101110
1111100101011100
1110001101010000
1111010111100111
0001010110101001
1111110000100000
0000010100001101
0000110100001001
0001000011010001
1111001000000100
1111010111010110
0000100001111110
1111001110010000
0000000111101001
0000010011000110
1110010111111100
1110111011101011
0000111001111000
0001111111111011
0000000100001001
1110110010000000
1111101101101111
1110010000010001
1111111101110110
0000001001100111
1111001001000100
0000010011101101
0001001111100111
1111000000100011
1110001111001111
1111101100111011
1111010011010000
1111011100011111
1110101101101111
1110100011100111
1110010110100001
0000010101000010
1111111001000010
0001011001100101
0000011111000010
1111100011110110
1111111001011101
1111101111100111
0001000100100111
1111111010111001
1110011000100011
0000101010001110
0010010110100100
1111010101110110
0000001101010001
1110110000011111
1111010000111000
0001110011100111
1111100001010001
1111011011000000
1111000101001010
0000001001011101
0000011011111100
0000100010011111
0001010001110100
0000101011111011
1111111011100100
1110000110111101
0000101011010001
1111011110010101
1110010110000000
1101010000110101
0000111100100010
0000000110110011
0001010101000111
1111011010001110
1110100100000111
1111111011011110
1111100110001101
1111010110010100
1111111111110000
0000001111101000
1111111010010000
0000011001111000
0000100100111001
0000010100110110
0000110110010100
1111101100000101
0000101110000000
0000000111110101
0000001111101011
0000111000111010
1111101001111011
1111000010101001
1111111101010001
0000001000011100
0000010000110000
1111011101001000
0001010111001101
1111100000011111
0000011011010110
1101100010101001
0010011010110010
0001010011010000
0000011110101011
0000010111101100
0001010011111100
0001010000111111
1111010010010111
0000011000110101
0000001000010111
0000000100001110
0000101100100111
0010100101111111
1111101001101110
1110110010100010
0000110110111101
0000111001101100
0010000000000010
1111110100000110
1111101101110001
0000010001110101
1111000010010101
0000100111110100
0000101001000110
1111010111110110
1110101000001001
0000100000111001
1110111001011110
0000001111110010
0001101111000100
1111000001010010
0000010010011100
1111011010011110
1111000000010001
1110001101100000
1111110001110001
1110001100001111
0001000011011001
1111101111001000
0000101000011010
1111011110110001
1111110100011000
1111001011101010
1111001001000111
1111010000110101
0000010010010001
0000000110010110
0000001110001100
0001010101010110
1111000010011101
0000000001000101
1111010111011100
0000000001001011
1110110011101001
1110110101110111
