1110011101100100
1110110101110110
1110111000011110
1111011011101101
1111111100010010
1111011011101110
1111110000000000
1111010011101001
1111001001110010
1111011001000101
1111100111111101
0001000000111000
1101111110011101
0000010011110001
0001111000000100
1111101001001110
0001000111110010
0001101010000011
0000101000010111
1111001110111011
1111001111110010
1110100000111110
0000101011100010
0001100000101101
1111000100110111
0000001000101010
0000101010010010
1111100111001100
1110010100000110
0010000111100101
