1110111010110100
1111111111101111
1111010010010010
0000001001101010
0000000010001011
0000100001000110
1111010010001010
0000001010011100
1111111011111011
1111100100010011
0000001010100101
1111111001110100
0000000010011000
0000001010100101
1111100101100010
0000000010110010
0000001011111010
0000111000100111
1111101101011001
0000011101011111
1111111101100011
0000010010100111
0000001100001001
0000100011010010
0001001111001010
1111100010010011
1111110001110101
0000011010111010
1111000001100110
1111111111011000
1111110010000101
1111110110001001
0000000011001011
0000011110111101
1111111101000001
1111010111001110
1111111000010010
1111100001101111
1111111110100010
1111100100011100
0000101000111111
1111011011000110
1111111010000010
1111011000100001
1111011101001011
1111010101100111
0000010010010001
0000011000101111
0001100100111011
1111011110100111
1111101101101010
1111111101010111
1111111011101000
0000000000101000
1111001111100000
1111101001011101
1110010111101000
0000001011010111
0000110010101111
1111111010101110
1111110111001010
1111101011001001
1111100111001111
1111100000000111
1111110001101111
1111010101111001
1111110001000011
0000000110101100
0000001111111010
0000101100110100
0000000110011101
0000000111110111
0000001101100001
0000100000110010
0000010010011101
1111111110001100
1111110110011000
1111010110000010
0000111011001010
1111110000000001
0000000110100101
0000011110011110
0000011010111101
1111110101100010
1111101100011010
1111101110110110
0000010000001110
0000001001011001
1110101100101101
1111110101100110
1111010001001100
0000101010100000
1111001001100101
0000110001111010
1111110001100100
0000010010001000
0000101000001010
1111110001010111
0000011010110011
0000001000111100
0000000110000110
1110111101101011
0000010010000111
1111110110000111
1111001010001010
1111100010111011
0000101011101110
1111110000011100
1111101111111000
1111010111001001
0001010110101100
0000010011000100
0000111110010011
0000011011101010
1111111100100000
1111001100111101
0000001000111100
0000011010001001
0000010100000010
1111101111010111
1111110100000101
1111101100011101
0000000110000111
1111111000011001
0000010100010001
0000011011100001
1111100010100100
0000011111110110
1111110100100011
0000010001100110
1111110000100111
1111001001010001
0000000111100101
1111101111111100
0000000101010010
1111011101100001
1111100110010100
0000011000000101
0000100000011110
1111110010111001
0000001000101001
0000100011100011
0000001101111110
0000000011101000
1111110011111111
0000000101111001
1111100001010110
0000001001100110
0000011011101111
1111010010010001
1111110001101100
0000001100001000
0000010011011010
0000000110000100
1111111001110000
0000011000101001
0001000100011111
0000101010110000
1111110011010000
0000110000011101
1111010111000010
0000101111011001
0000010010010010
1111011010111011
0000010100101001
0000010110001011
0000010001010111
1111000001111100
0000011001000101
1111111110110101
0001001101011001
1111110110101001
1111100011011010
0000100010000010
0000100100001110
1111100111010001
0000000110101110
1111100111100111
1111010101100001
0000001011010010
0000000111001110
0000011110101101
0000100000000111
1111101100100011
1110111010110101
1111110111111011
0000001001100000
0000000011100001
1111101111011101
0000100001011111
0000001111111000
1111111001001110
0000101101001011
0000000000111001
1111011001111011
0000100100001001
0000010110001101
1111110101010110
1111011110010000
1111011000000010
1111010100001001
1110110101101100
0000001001001111
0000110011101110
1111110100100011
0000000010000111
0000001010100011
1111011001001011
0000000010100001
0000110011101011
1111100000101101
0000000011010101
0000100110001011
1111110110101110
0000001111101001
0000100010111101
0000011010101010
1111011010110111
1111101010111001
0000000001111001
1111110000101100
0000110100011000
0000001101110110
0000011011011001
1111101111110110
1111101101010100
1111100010000110
1111111110011100
1111101110100001
1111100100110110
0000000111111111
1111010111110001
0000000011101111
1111111000111001
0000011011111010
1111101000100100
0000011100010001
1111000001001101
0000000100010010
0000110011000000
0000010010000100
0000101100010010
0000001101110001
1111100110000111
1111010111101000
1111000010010111
0000010100000001
1111101101001101
1111100100101010
1110110111011111
1111000101101100
1111110111010011
0000001011111101
0000101011011101
1111001000001100
0000101111010001
0000001010010111
1111101001101000
1111101000101000
1111010001000101
1111001110000001
1111101011111000
1111010101111111
1111110110101011
1111110100111011
0000111000101101
0000101001000011
0000010011111010
0000000001101000
1111011010000001
0000100000001100
0000011110000001
0000100000110011
0000101100000110
1111011101111010
1111110000010000
1111011101001011
0000001111010011
1111100111100101
0000011010011010
0000101010100101
1111001111000101
0000001100111111
0000110001011001
1111110110100001
1110111000000000
0000100000011100
0000001100100001
1111100101111000
0000010100000000
0000010101110111
1111110010011001
0000010000110101
1110101011000111
1111100100001101
1110111110011110
0000100000100101
0000001101000011
0000011101000001
1111110101010011
0000000011010110
1111010000110000
0000000000111011
1111101010001101
1111010110011101
1111101101010010
0000001001100000
0000101010010010
1111100001100110
0000101001100110
0000010110001010
0000000001011110
0000001000110010
1111101000101001
1111010110110110
1111010000110000
1111001111001011
1111010101011111
1111010010001000
1111101110010010
0000011011011001
1111011010110111
1110101010111011
1111000100110000
1111000101101010
1110011110011010
0000000001111110
0000001011100110
1111110101010110
0000001001110100
0000011000001111
1111011011000101
1111010001110100
1111110111011100
0000100001010100
1111111010000000
1111111110101001
0000000010011110
0000001111101100
1111111001010010
1111011100101110
1111101001111110
1111110011000000
1111110100100000
0000110110111101
0000000001111001
0000001011101010
1111110001100011
1110110111011100
1111010011110101
1110101011100111
1111001010010110
1111010110110001
1111001001010111
1111000110000111
0000001010011010
1111110010011000
1111111101110001
0000101101010101
1111111101010010
0001010101101110
1111011101000111
1111110011100110
0000100100010101
1111100111001111
1111110000101001
0000000011011011
1111101111100001
0000001001001011
0000010000110101
0000001101001101
1111011111101001
1111110100000101
0000000001001100
0000011100110011
1111111100100101
0001000011001110
1111110100011001
1111110110001110
1111100000100100
1111001101110111
1111011001111100
1111001110000000
1111110001001110
1111001100011001
1111010010001001
0000001001100110
0000010110000000
0000100111010101
0000000011100011
0000100110000110
0000001000011100
0000001001100101
0000001100000010
1111110111000010
0000100110111101
0000011011010101
0000011101100111
0000001110011011
0000110100000100
0000110110000011
1111111111010110
1111111101100010
0000001001111001
1111110101110010
1111010000111100
1111100010010000
1111011010001000
1111001010001000
1110101001000100
1111111111000101
1111110011110000
0000001100000101
0000100100001000
1111101100011011
0000001011011001
0000010110111100
1111011110111011
0000010000000100
1111011111011011
0000101111100001
0000011010110001
0001000100010110
0000011101100110
1111101001110111
0000010011100011
0000101111111100
1111111011001111
0000110110110101
0000101110110111
1111111111111100
0000010000100011
0000010101100111
1111110111010011
0000010000000001
1110111011011101
1111111010010100
1111110011010100
0000110101000110
1111101010001000
0000010110110100
0000011001101110
1111111111100001
0000100011100001
0000000010000101
0000100000110011
1111101010111001
0000001010000011
1111100000001001
1111101100010000
1111111101111100
1111010110010101
1111100100001100
1111100101111010
0000010010011001
0000100010000100
0001000000111001
0000111010001000
0000101001001011
0000100110011100
0000100100111111
1111000011111011
1110110101101001
1111110111111000
1111111000111101
0001001001010001
0000010011101100
1111010101110100
0000010111011111
0000010010111011
0000100001101101
0000011100100001
1111110000110010
1111111000111101
1111101101010010
1111101010000110
1111010101100001
0000001110000011
0000001011011110
1111111010011111
0000010101111100
1111110011110101
0000100100100000
1111111100001101
1111101000001110
0000110000101100
0001110101111111
0000111001110110
0000110111001110
1111001000000001
0000000000110001
0000110101100111
0000000110100011
1111011001101111
1111111100011111
1111101110111001
0000010111010010
0000100010111101
1111110001010100
1111101111010110
0000011111011010
1111101001111100
0000100101111100
1111110011101100
1111110001101010
1111011111100111
0000001001100011
1111100010011101
1111100011010101
0000011000000001
1111101110111100
0000110111000111
0000000101111001
0000011000001100
0000110101001010
0000101000001111
1111111011101001
0000000110110110
1111011011111010
1111011000110000
0000100010110010
0000011000010001
0000010101101001
1111100001010101
0000010100010011
0000110010110000
0000101010110000
0000000001001101
0000110010011100
0000111101110100
1110110100110101
0000000110000100
0000011101010001
1111100100101101
1111100101011110
0000010000010111
1111111100100111
0000100011110110
0000011000110001
0000100001110001
1111111101111110
0000110100001011
0000110101000111
0000001101011100
1111110010000110
1111100001010000
1111101000011000
0000110000101100
1111110000011001
0000011111001011
1111101001011010
1111010110010000
1111111010000110
1111111001111001
0000011111100001
0000011100001011
0000011011011011
0000100100001101
1111111010110100
0000001111000000
1111110111010010
1111110101110011
1111111010111110
1111011000111110
1111111110001011
1111101001000111
1111011100001001
0000001111111000
0000101010110101
1111111000111100
0001000100110110
0000010100001110
1111110111011100
1111101100100011
1111010001111010
1111110001010000
1111101010100110
1111111001010111
1111101001110100
1111100111001010
0000000011110110
0000001101001111
1111111001111001
0000110001001011
0001000010011110
0000001001100111
0000101001110010
1111110111000100
1111110100111011
0000000110011000
1111111111011111
1111100111110010
0000000111100101
0000111110001011
0000000110000010
0000001111110010
0000011011100011
0000010110011111
0000000110011111
0000011011010001
1111110110011001
1111010010001101
0000010100110000
0000000111011101
1111110101000111
0000010000111011
1111111100101110
0000011010111100
0000000101101001
1111101111110110
0000110101101101
0000101011111100
0000000110111110
1111111110101111
0000001101011110
0000010111100110
1111101111100001
1111110001101101
0000100100111010
1111110011011011
1111111101111100
0000101000110000
1111011010001111
0001001001101011
0000111000011111
0000110001001101
0000000001110010
0000001011111010
1111111001101010
0000000111110001
1110111111000110
0000000101000001
1110110011100001
1111100101010010
1111011010101010
1111111010000111
0000110110000011
0000100111100011
0000110110110010
0000101110000010
1111110000111101
1111101101000011
0000010011101001
0000001001101010
0000001011101100
1111111011000001
0000001000100111
0000001010110101
0000100101001101
1111111100010100
0000100011011011
1111101101111100
0000001111100111
0000001000010110
1111011000101001
0000011001100000
1111101110010000
1111111000111000
1111111000111101
1111100101101110
0000101011111000
1110101001010101
1111111000111110
0000100011100000
1110101100100100
1111011110101100
0000000100010100
1111101010010011
0000111011110010
1111000100000111
0001001000111101
1111110011101101
0000100100011000
0000110010001000
1111101011101101
0000001010100011
1111110110101010
1111101101100000
0000000100001011
0000010100111000
1111101111001011
1111110110000111
1111101010000001
1111110010001011
1111110100000100
1111101000001101
1111111010101110
1110111110010100
1111110111101111
1111011001011010
1111101110011111
1111001011001110
1111001100101001
0000000101101011
1111101111110010
0000011001110110
0000000001000111
0000001100011100
0000101011100100
0000001001010111
0000100101001110
1111111010110100
0000101011000111
0001000100110000
1111101000110010
1111010101100110
0000011001000010
1111110111010010
1111100100000000
1110110101011100
1111000001000100
1111011001010010
1111000011001000
0000001100110011
1111111101111101
1110111110011011
0000110010011100
1111000001011000
0000001100100011
0000001000110011
1111101101100011
0000101010111111
1111110101011110
1111011011000010
0000110111110101
1111111010001011
1111101101000010
0000001111001000
0000111100010011
0000111010111110
1110111010110001
0000001001111111
0000001111000101
1111111100011001
0000001110100010
0000011000001011
1111100010100110
1111001100101010
0000001110100001
1111111010100000
1111010000000100
0000001110000000
1111111100000110
0001001010010101
1111100101000100
1111101010000000
0000100111011001
0000000111000100
1111100110100101
1111110111110000
0000011010000111
1110110101110100
1111011111110110
1111110011111111
1110110101000101
1111110101111011
1111111100100100
0000010110100010
0000001000101111
1111101111111001
0000100011011100
1111111111000101
0000110101001101
0000100100100011
0000101111000100
1111101011110000
1111011000011110
0000000010001111
1111010111100111
1111110010100010
1111111000111011
0000011110010011
0000100010100000
1111111000011101
0000100010100100
0001000101101001
1111101101110100
1111101001111100
1111100111111110
1111101000101101
1111011011101101
1111110010110010
1111101111000011
1111010010010110
