0001000010111001
0000101010110111
1111000111110101
0000000100101001
1111100100011000
0000111101100010
1110100100001011
0000110011000111
1111001100001000
0000001101110101
0000011000110111
1111000011000001
1101100010011101
0000110011001000
0000010100011011
1111011000011011
1111111010011100
1111000101000010
0000001000010000
1101100111111011
0001010100100100
0000001001011000
1101101101110101
0000010100011111
1111100001011110
1111100100001001
1111000101000111
1111001110111001
0000101110001100
1110100100011001
0000111111101110
1111101111101000
1111101000010000
0000011011000001
0001011011110001
0001011011010110
1111010001011111
0000110010000010
0000001111110101
1111011111110101
1111010100111101
1111111110000100
1111001111101100
1111010101001111
0001110011001101
1110111100000111
1111100101011100
0000001110110000
0000010110010111
0000010010101110
0001110101101100
1111110100101000
0001100101110011
0000101101001001
0001010100011010
0000101110001110
1111000011000111
1101011100100101
1110101110010011
0000101101011011
0001000011100011
1111101010101111
1111011101100010
0000110001001110
0001100010000000
1110110000000101
0000110000111011
1111010000100001
0000011101011001
1111100100101000
0000000011101000
1111010111111000
0000001001001111
0000101100010001
0001100001101101
0010011010010110
1111010011111001
1110101100001100
1111111100110111
0000111010110110
1111011110111000
1111100011010111
1110111011000010
1111111010011100
1111100101010110
0001001010010100
0000011111011010
1111101110010000
0001100111000111
0000010111111110
1111001011001100
0000001100110000
1111100100010010
1111010101001000
1110111001101110
1111000011011011
1111010111111000
0000000011001100
0000100111110111
1111001111100000
0000110011101111
0000111011100001
1111011000010101
0001001000001100
0000000101001011
0001001101001001
0000011011111101
1111110110100101
1110010000110010
1110000110110110
0001001000111011
1110010101001001
0000100001011001
1111101111110101
1111010000000010
1101110110111111
1110111101010000
1110001111011000
1111011100101100
1111010111011111
1111101011100111
1111100101010100
1111011110011010
1110100111001111
0010000101110010
0000111110111111
0001101100110010
1111010101100110
0000110010010000
1111011101111000
1111000100010110
1110000000010010
1111100110001100
0000101010001011
0000001111101011
1111110011100010
1110101011000001
1110100001010011
1111110101101110
1111001001000010
1111010111011110
0000001100111001
1110101110000111
1111010111111101
1111110001100101
1111111101000001
1111101101110001
0000011001001011
0000011000011001
1111110001101100
1111000000001100
0000010110010011
0000001100011011
0000010000000101
0001011001101000
1111100111011111
1111000001011001
0000101010011010
1110110100110001
1110111010010000
1111100100010000
1111100010111101
0001000111000001
0001101110110010
1111100101101111
1110001000100110
0000010010000101
1110110111010001
1110101101001000
1111110111000111
0000001101101001
0000111001011000
0000101100100111
0000010100110111
0001100001110111
1111001011001010
1110010000001001
0001101010000000
1111100011011010
0000000110010110
0001011001011101
1111001011100001
0001110111100010
1110110010010111
1111001001100100
0000000111001100
1111110111110101
1110110101011100
0001011100010100
1111010001101100
0000001111101011
0000110100101110
1111110000111111
1111011111011011
1111110011100110
0000001101001000
0000110011001010
1111000011100100
0001001111011001
1110101110100000
0000000110111100
0000010101011101
0000001100111011
0001011010001010
0000000100011001
1110101110000000
0000100110010100
1111111111011111
0000111100101010
1110111011001111
0000100111100001
0001100000110100
1111111001010101
0001000000101000
0001101010010000
1111101110010110
0001000110100011
1110011010011100
1111110010101000
1101011011010111
0000110010011011
0000000101011000
0000101100100000
1110001110111001
0000011100101000
0000110100000000
1111100110110110
0000001111011001
0000010011010001
1110111110110100
1111111011101000
0000011001100100
1101100111100100
0010010000010001
0001110010011100
1110100010101111
1111101000110001
1110111001010100
0001001100001011
1111110011101011
0000011111111010
0000000000000010
0000011011111110
1111100011111010
0000011000000010
1110110001011001
1111000100111011
1101110100001101
0001000111010010
0001001011101101
0000011111100110
1111100011001011
1111101101101111
1111010010110111
1111000000111000
0001001010101010
0001101000100011
1111110001001000
0000101001000101
0000101100010001
0000010111110010
0000001010000110
0001100111111101
0000001111010101
1111000100011011
1111110010010111
1110110010011111
1111101001100001
0000100110100110
0000000011101101
1111010110110100
0000110011100010
0001010110101001
1111101000010011
0000010001001110
0000101011101101
1111111100101010
1111000011011110
1111100010011111
1111111000010000
0001001000100101
1110111011111001
0000011100011100
1111000101000111
0000110100111100
0000100101001001
0000110101001001
1111000110001001
0000000100110110
0000011111011011
0000001010001000
1110101001101100
1110111110100000
0001001001101011
0000011100001110
1110000111010101
0001001010001000
0000011101000001
0000000010101010
1110110111101000
0001010111011011
1111111010111001
1110100101010011
1111000100000100
0000000010111000
0000100100000111
1110110110000101
1101011101011101
0001011111011001
1111011001100010
0010100010000100
0000100011100111
1111001110110010
1110000001110101
1110111110000011
1110111100100000
0000100010010001
1111000100010100
1111010111000001
0000010100001100
1110000011111100
1110010110100100
0001101110101100
0000100100010100
1111110000000000
1111100101110011
1101111110111010
1111101111011010
1111001011101110
0010101000001101
1111001100100000
0000000000111101
1111010010000100
0001010010011001
1111110111000000
1111111101001010
0000110000101011
0000101100001000
1111000100010101
1110000010111100
0000111010100100
1111011100010101
0000000001010111
0000100110111110
1110010110110111
0000100011111100
0000101101000001
1111000101010100
1111010111110100
0000100100101001
0000010000001011
1110110001000110
1111110100100000
0001111000111110
1111000111000001
0000100011110001
0000110010011100
1111101110111110
0000100010110011
1110101000101111
1111001000010111
0001010011110000
1111101010001000
1111011100101101
1111011010101010
0000110010110110
1111111101001110
0011001000011011
0010001000010101
1111010110011010
1111101000110010
0001010011101110
0000100000101101
1111101010010100
0001010101111100
1111001000110000
0000100011100001
1111110011101110
1111110000110100
0000010101011111
0001000011011000
1111001000110110
1110111011011011
1111110101110110
0000000101011110
1110010010001010
0000100110010101
0001001011111100
1111101111011100
0000110101011100
1110000000110010
0001011001010110
0000000110111000
0000010101001100
1111001101011110
1110110001000000
0000010001100001
1110101000000011
1110111110101101
1111010000100100
0000010100010100
0000100100011001
1111011011101000
1110100111101100
1111100111011111
1111100110111001
1111000110010101
1111101010010111
0010100011010100
1111001011001000
0001100101101101
1111110110011011
1110000100110100
1111010100000101
1110110101000000
0000111001001101
0001110001111001
0000011111000111
0000111100110001
1111010011100011
0000011101011110
0000100100110011
1111110110101011
0000001001101010
0001010100110010
1110011000001110
0000011100011011
0000000100001100
0000000000101011
1111110000010000
1101101001010111
0000000011001100
0000111100001011
0000101111011101
1110010010101000
1111111111111110
1110101100010010
0000101111001001
0000001101001001
1111111010000001
1111011010111110
0001010100110000
0000100110110000
0000110111111010
0010100101110000
0010110000011010
0000101010100001
1111011001111110
1111000000011001
0000001111110011
0000111100001011
0000010001110101
1111100101111100
0000001111111110
1110110010101010
0000110001100101
0010000011011010
1111010101000110
1111001100011000
1111001100100000
0001100101010100
1111101101101101
1111100011100011
0000101011011111
0001110110101100
1111100111110001
0000000011111000
1111100110000101
0001000100000111
1110010011011011
0000001100001100
0001001110101000
1111101101001110
1111100011000101
0000011001010000
1111000101010000
1110110001110101
1110110001100111
0000101011011110
1111110100100001
1111110100101001
0000000111000110
0001001000011001
0000111001000100
1111110100100001
1110001011110010
1111110000011101
0000100011111000
1111001111011101
1111010001101101
1111001111100110
1111111110011100
0000100000010011
1111101111111111
0000000011100110
1110111010101111
1110010101001100
0000110101111001
1111111100010000
1111100101100110
0010000101000111
0000000000100011
1111110100000011
1110010110111110
1111000001100011
1111101111101110
0001000110010001
0001110101010100
0000111001101000
1111000001100000
0010011001001101
1110100111101101
1111100111001000
1111100101000111
0010111100011000
0000010100110000
1110100110100110
0000101111100110
1111001010010101
0010000010101110
0010000010110001
0000100010101111
1110111011111000
0000000000110100
1111100101010001
1110110001001001
1111011110001001
1111100101110001
1110010110101111
0000010111111001
0001111001111101
0000001010100011
0000110001111110
1111100010001100
1111011010001111
1110010011110000
0010001010010101
1110000000111100
0001110100101000
0000111000010010
0000001011011011
1110100000100101
1110110001011000
0001100111101100
1111100111110001
1111101000011101
0000100001000101
1110111011101010
1110000100010111
1111100000011101
0000100110101010
1111111111010110
0000010010011111
1111111101111000
1111010001010111
0000100101101111
1111000011111110
0000100111111011
0000111010010001
1110100111010111
0000001100000001
0000001111110000
0000011010100001
1111101110101011
1111011001111000
0001101101011110
0010000010001101
0000100000011100
1111111011100000
0000100010101010
1110001000000111
0000010111000001
1110111001100000
1111001011100001
0000001111010111
0000000100110101
0000001000001111
0000011000011101
0010100111000011
0001000101001100
0000101010000111
1101010000100000
1110100111000010
1111011010101101
1110110001010010
0000001000001100
1111111000110100
0000000011000110
0000001010110111
1111110010001111
0000110110001101
0000111001001100
0001100000101100
0000001000000101
0000101000011010
1110110011000111
0010111111010110
1110101101000111
0000110000010010
1111100111001111
1110011010001101
0000011100000011
0000001100100001
1111100001110011
0001100111000101
0000110010001010
1110011001101011
1110110011010011
1101111110011000
1111100111000001
1111111110001010
1110110010000000
1110110111100010
0001011001101011
0000001010111110
1111111101000111
0000101001110001
1110111101101010
1110011101101010
0001011001101110
1111001111011001
1110011111010100
1111101101111001
1111111110001010
1110100000110010
1110111011101100
1111110011001100
0001000110110000
1101111000000000
0000110001110111
0001011011100101
1111100010000010
0000111101000100
1111000101001000
1111110101100000
1111001011000101
0000010001011111
1111010001110000
1111111100110001
0000011010011111
1111010101101001
0000101111101111
1111101011011100
0000101001100111
1111011111001010
1111100011000111
0000010111010100
1110110100000001
1111111001010101
1111100000100001
0001000001101011
1111101001011011
1111010111001101
0000111011011010
1101101110111111
0000110111001011
1110101010110000
1111110000010100
0000001100001111
1110110011110101
1111010111101110
0001111001100101
1111000101101010
0000111110111001
1111111011100011
1110111101011110
0000010100001011
1110001110111011
1111111110110010
1111110100110101
0001001111110010
0000011110000110
1101111011100010
0000110100100010
0001010101001010
0001000110110011
0000000011010001
1111110110101010
1110100001100110
1111100010000101
0000010000001111
1101110100101100
0000100010101110
1111001110101111
0000100111011100
1111000101000010
0010010010100110
0000000000010011
1110001100010010
0001010001011111
1111110011100011
0000110110101100
0000100100110111
1110101101110011
1111110011110101
1101110111110010
0000011111100001
0000000110110011
0000101101000011
1110100110011111
1111111100100001
0000101100110111
0001010100100100
1111001000100110
1111100100101000
1111001001110110
1111011001101000
0000001001010101
1110011010101010
1110100111010111
0001001101110111
0000000001011011
1110100001111010
1111111010111110
1110010111000000
0000000000110110
1111100101101011
1110111010000100
1110111000001010
0000110100110101
1111101000010000
0000000010111001
0001000100101010
0000101010000011
1110100110000010
0000001000011011
1111110001000100
0000000010101101
0000100010000000
1111110001011110
1111000001111010
0000000101011001
0000111011110101
0001011011100001
1110110001101001
1111010010011011
0001001000001010
1111001010000000
1110010111011100
1111100110100011
0000001000110011
1111100010011101
1110111111100011
1111111111011101
0000011101110000
0000001001011101
1111000111001111
0010011010110101
0000101111011000
0000001101000000
1111111101111001
0000000100001111
1110101001010011
1101001110100011
1111010110000101
1111100110011110
1111010111101001
0001001111111011
1111010111111011
0000100100000011
1111111000000001
1110010100000100
0000001110100100
1110101101011000
1111110100111011
0000110101000111
1111101011001110
0000011100101100
1111110001111111
0000001110001010
1110111011011000
1110010010111111
0001111001011100
1111100111111100
0010000100000100
0000111001101010
0000110110010000
1111100101110001
1111000101001101
0001111100110011
0000111011111011
1111101111110101
0000100100111101
0000000010010000
