1111101011111101
0010010001001001
0001010110010101
0000001110110000
1111000011001101
1111100101011111
0000111011010111
1110111100001011
0000011111010000
1111001000111110
1111100101111010
1111011101110110
0000000010010000
1111110001011010
0001010110100000
1111010010001111
0000011011110100
0000101100011111
1111000110000001
0000111001100110
1111111110110010
0000100000011110
0000110100111001
0001101101011011
0000101000011010
0000001011010000
1111101100100110
0000011110010101
1111011011001111
1111100011111001
0000000000001010
1101101101000001
0001101010000111
1111110000001010
0000110111101101
1111101001011110
1111101001011001
1110010001100111
0000011110000110
0001001001000010
0001110110110110
1111100101111000
1111001111011011
0000010111110111
1111110110010000
0000101000001001
1110100110100100
1111100110011100
1111110101100000
0000101110010100
0000001011001100
1111110101100011
1110101011100011
1111110011011011
0000000000010001
1111101001001010
0001011100001110
0000000001000010
1111010010111000
0000001010101000
1111011010110111
1111011000011100
1111101000011000
0000100111111011
1111000000101101
0000110001010110
0000010001011100
1111010100010111
1110100001101101
1111010111000111
1111011100110111
1111010111000111
1111000100111000
1110010111010000
0001001111001001
1111101101010111
1111011111000111
0001010100101100
0000010110110111
1110010110011101
0000100001001101
0001111010011000
1111111000100011
1111101011100011
1111111111000010
1111110100000110
0000011011000011
0000010111110101
0001001010010110
0000001011001111
1111100100100111
1111001111001101
0000010001010001
1110111101101101
0000000011010110
1111111100110100
1111000100001000
0001000011111100
1111100111100101
0001000010100011
0001011010110011
0000101000010101
1110001011000110
0000010110100010
1111011010011110
1110011010010101
0000110100101100
0000001001010110
0000110100100000
1111010010111001
1111111110011111
1111111001001111
1111110110111011
1111111000100100
1111111010001111
1111010101110101
0000100111110010
0000001011000100
1111110111110111
0000101011000111
0000100010011101
1110110111011011
1101100000011111
0000110000001000
1101111000110110
1110000110000101
1111010001111011
1110111011111100
0000101100111111
0001010001110001
1111000010011001
1111111101110100
0001000111101000
0000010010011010
1110001010011111
0000101000101001
0000011111100111
0000100111000010
0000111100100110
1111011100100110
0000100110100011
0000100101110001
0000110101101111
1111101111000101
0000100010111110
0011000101011011
1111111000101100
0000110010100001
1111000011111111
1111010000000001
0000100111010011
1111101000111010
0001000000011000
0001001101100110
0001001011101100
1110010001010010
0000111010000011
0001110010101110
0001001111110001
0001000111111111
1111001001000010
0000010100110000
1110011001111001
1111001000110111
0000000110101000
1111001000110010
1111101101001111
1110110001010111
0000000010111100
1111010111001110
1111011010111101
1111110011101000
1111010100000111
1111100110111000
0010011000110000
1110011010011000
0000110101010001
0000001001001000
0000010000110110
1111001111111111
0001011111011000
0000000100001110
1110010110000101
1111000001110011
1110001000010110
0000110101100011
1111110001101010
1111100101011100
0000011100111111
0000001111110111
1111110101011000
0001101000001111
1111011000111000
1111101100001111
1111011110000000
1110100000011001
0000111011111111
1111100111000100
1110011101010001
0000001100000101
1110000001100101
1111011011010010
1101010111100011
1110010111110111
0000010001001011
0000101000001000
1111101010111001
0000110100111100
0000000100100000
1111110010110001
0001010001110101
1111001010101101
0000010001101001
1110011011000111
1111010100100110
1101111100111101
0000000011110011
0000001111000011
1111110001110001
0000100010010010
0000101101111001
1111011101110100
1111110111100111
0000001011011010
1111001110111001
0000000101001000
0000111101101101
0001101011100010
1110010110111011
1111110010011001
1111100000110111
1110111011001000
1111000111011010
1111111100001010
1111001010011011
1111000010110111
0001011000000100
0000000011101101
1110111011111101
0000101011011000
1110110100100001
1111111110010110
0000001001110101
0000101000000010
0001011110011100
1111111111010001
1111100101110101
1111110100100011
0001000101001101
0000101110111101
1110110110101001
1110001011101111
0001000100100000
0000100111111101
0001001010110000
0000001111111000
1110011101001100
1111100011011110
1101011101010111
0000111010111000
0001010000010111
1110100110111100
0000100111001001
0000111111010101
1111001000000000
0000101110010100
0000100010010100
0001001101101110
0000010000100011
0000110111011111
1110010001111011
0000011000110110
0000011101010111
0010001111010010
0000101101011110
1111000111111110
0000111010001111
1111001011111000
0001001100111111
0000011111101101
0000100101111100
1111110111100110
0000111011101111
1111100110000000
0001111001011000
1111000001000101
1111011111000011
0001010000111110
0000100001011110
1111011100110000
0000000011001101
1110100111000100
0000000001101111
1110110111110010
0000011000011001
1110100011001100
1110111111001110
1111000111100100
1111010111100011
1111110001100000
0001011000111110
0000000000110000
1111110011011111
1111000100001001
1110111111010010
1111111110000100
0000100101110001
0001010111010000
1111100101101001
0000100111001111
0000000101011110
1111011010010011
0001010101011100
1111110010011111
0000010111110000
0000001111011110
0001111100100100
0000001110111100
0001000000010000
1101101011111111
0001010000000011
1111111110111100
1110110001010100
1111001011100000
0001100011001000
0001001101010010
1110001100000000
0000101111100110
1111111001010100
0001101010010011
1111110100010011
1111100100011110
1110101100010010
1110111011011101
0001011011100001
1111110011001010
0000101001010011
0000000110100000
0000000010010101
1110011111000000
1111001000000101
1110110110101100
0001001011001100
0001000110011001
0000110000101100
1111110001110101
1111110100001010
1110011101110001
1110111110111001
0000101001101010
0000111011111100
0000111011000001
0010001001011111
0000101100110010
1111110100111100
1111010100110110
0010010010000001
1111101000011011
1110101011110101
0000100000011000
0001111101110000
1110111101000001
1111011011101001
1111001101101000
1110011010100001
1111100011010100
0001001101000101
1111000000110111
0001101111001011
1111110011001111
0001100000100000
1111001001110000
0000100001011100
1110100010000011
1110101010011101
1110100100000001
1111011111111101
0000010011101111
0000010010010011
0000010011001101
0001100000001000
1111110001110000
1111010110101011
0000001101110000
0000001011001000
0000110000001100
1111101001001101
0000011000011000
1101100010011111
0001010111111010
1111111111111110
1111011001110101
1111000001111001
0000100110111100
0000110111101101
0001001010111000
1111011000111111
0000010011110011
1111011011100100
0000100000110101
1110000011000000
0000001101101111
1110011000000000
1111111101010111
1110010111100101
0000110101101100
0000010011101100
1111100000011100
0000000101101110
1110110100110101
0000010001111111
1110111111100101
0001010000101010
0000101001011100
0000111000010111
1110001010111101
0000101110000010
1110011110100010
1111001011011101
0001110000100111
1111110000111101
1110111011110000
1110101111000111
0000110010101000
1110100011000100
0000110000011100
0000110000001001
1110110011001110
0000101111101101
0001111110111001
0000111101001100
1110100010001011
1110111001001101
1110101010000101
0010010010100110
0001010000010111
1111011100000001
1111011100011000
0001010100110000
0000001000000000
0001110111110000
1111111011110000
0000010010001011
1111111111101011
1111001000100001
0001001111010100
0000101100001110
1111101101101011
0001011010101111
1111110011101111
1111001111000101
1111000001101000
1110110000100100
1111001110010111
1110001110000101
1110101100011110
1111101101101101
1111100010111110
1110110111011000
0000101000000101
1111110000101010
0000001001011001
0000111100110011
1110110000101001
1111011111101010
1111011101011111
1110110011110011
1111100111110101
1110100011100011
1111010111111111
1110111011101111
0000001011111010
1101100010101000
0000011011101011
0000000101001001
0000111000101101
0000110011011111
1111111000111110
0001011010011100
0000010001010111
1111001110111011
1110101001010101
0000101000110111
1111001100101111
1111001111111101
0000000001110000
0000000111001110
0000111001101001
1110010110001001
0001000001111011
1111100110111001
1111110000101010
0000011110001110
1111001000100011
0000000110100010
0001000001001010
1110111000101001
0000001101111100
0000101101110100
0001000101100010
1111011111110101
0000000101010011
1110000011011011
1110111110001100
1111010111101011
1111101000100101
1111010100011101
0000101010110001
0000111110110000
0000011110000111
0001011010111110
1110100111111111
0010000010000110
0001101100111101
1110100111010110
1110111111110010
1111101000011110
0001110011011000
0000001110001111
1111100010101000
1110101111011010
0000011010011000
1111100110101110
1110100011110001
1110011101100110
0001000011100101
1111010001111101
1111100011101011
0001010010111111
1110001100001111
1111101011000000
1110011110011101
1111000001011101
0001000000101001
0000001010100000
1111111100000110
1110100111000111
1101111001101000
0000101110001100
1111110111000101
1111100011010100
1111011001001111
1111100110110010
1110111101001000
0000110011110000
0000010111111111
0000010101010011
0000011111001111
1111110110100010
0000011010110101
0000111011000100
1111000111100000
1111101101011011
0001000101010100
1101101111001000
1110101111000100
1111100111111010
1111110000010110
1110010010000001
1111110001000101
0001001100110110
1111010101110000
1111111001100011
0000000100010011
1111111001011111
0001100010011110
0000000001111101
0001100010100110
0000100111101010
0000000011010110
0001100010000110
0000110110011000
0010000010101011
0000100010010010
0000011011100110
1110001110101101
1111010100010010
0000100011011101
1110111000001000
1111000111010100
0000101010010101
0000011011010001
1110000000100110
1111100110101000
1111010010000010
1111000110100000
0001011011010101
1111000000011010
0000000000110011
0000111010010011
1111111101111010
1111001010110001
0000011001110000
1111111000111010
1111111101000100
0000100100011111
0001001110000100
0000000101110111
1111110010011011
1111101110000001
0001100101000001
0000111011100110
0001000100111001
0001001010000010
0011000100100011
0000010010110000
0000011010000110
0000100110100011
1111010100001101
1110111110001010
0000100010000111
1110101100011001
0000001100111100
0000010101001001
1110011010001000
0000001110011010
1111100001011001
0000001010000000
0010010101111100
1111000001101010
1111111111000000
1111010000111001
0000010000000011
1111101010110111
1110100001100100
1110001111110101
1111011110000111
1111111111010010
0000010101110101
0000000000011000
0000011001010110
1111100100101100
1101101111101000
1110110010101101
0000110001001111
0000011101100011
1110111101001011
0000000100101110
1101111000011110
1110100100011100
0001000000111100
1111110111100001
0000100011101000
1111000110011001
1111110000111000
1111001011000001
0000010000001110
1111010100001000
1110110100011011
0001001101001110
0010001010000000
1111101000011000
0001110101010110
0000001000001001
1111101001000010
0010000111110010
0001111101000010
1110100101000000
1111110001000111
0001001100100110
0000001111100101
1110100101000100
0001111100001111
1111000000110011
1111101111011010
1110100100011100
0001101010011011
1111110111001011
1110111011001111
1111011101111100
1111110001110010
1111111110100110
1111110111000110
0001010010010001
1111101011000011
1111010011101110
1111011011001010
0000010011111010
1111100010100111
1111110111001010
1111010101001110
0000011011101101
1111100011111011
0000001101110101
0000001100110100
0000000011101101
0000110010110111
1111100001011101
1111111001000000
1111000110000001
0000110011111000
0000111010100110
1111111000111000
0000110010101010
0000111101000101
1111110101001111
1111101010010011
0000110000100001
1100011100100000
1111011011110101
0001011001100000
0001010100101110
0000001001001110
1111010010010111
0000101001111001
0000101110011010
1110101101010011
1111001011110111
0001001001100010
0010000001000011
0000000100100001
1110111100110011
0000111101101011
0000101000111010
1110101100001010
0001001011101100
1110110011100101
0000101010010011
0000011100000100
0000111101110110
1110100110010011
1111000010010000
1110010011000000
1111111101011011
0001100010001001
0001011010111010
0000000000100110
1111101000101000
1110111011111010
1111011100001001
0000101111001000
1101111001000110
1110101100010000
0000000111100101
0000101110100010
0001001011001110
1110100110101110
1111000010010010
1111100101110011
0000001010011010
0001010111111000
0000010010000100
1110111010111110
1111111001010010
0000110001110100
1111110100001001
1111001111000000
1111110100011101
1110101110011101
1111010101101111
1111111001100111
0000011011001100
0011011100110101
1111001010111011
0000000010000101
0001101001110100
0000010101101011
1111010010111100
0001110010100010
1110110010111100
1101000101011000
1111101110001110
0001011010111001
0001010001011000
1111110100111101
0001010101010100
0000101111100001
0000011111000011
0010110000000010
0000010100001100
0001011010011111
1111011000111011
0001011110000101
1110110100011001
1111010100110111
1111001010001110
1111001100101000
0000000001101101
1111111010100110
1111100100101001
0001000010000010
0000110011001110
1110001000010011
0010100010101100
