1111110010111011
1111010100101100
0000000110111011
0000000110010001
1111100100101110
0000010000101110
0000001101011001
1111111000011001
0000001011011000
1111101101011111
1111110100101100
0000010010001010
0000100010101010
0000011101111001
1111110001011001
0000000111010110
0000000111111001
1111110001001010
1111011010011110
0000001100010101
1110111100101000
1111111000010011
0000000111010001
1111110000110000
1111110000001100
0000100111110000
0000011101101011
1111110110101011
1111010101111110
0000000110110010
1111100001101101
1111001111011010
1110111111100000
1111100000001110
1111100000101110
0000001101110101
1111001100111010
1111100010111100
1111101111110000
1111101000000111
1111000100001100
0000001110011101
0000100001001110
0000101000001011
1111101011110001
1111110101100101
1111101111000011
0000011011110100
1111110101101110
1111001000101001
0000011111100111
1111101011010001
0000001010000110
1111101010111000
1111100110111011
0001000000100101
1111101100011010
0000011000000110
0000011101010100
0000100100101010
1111011110100110
1111010101111110
0000101011111001
0000101001101100
0000000001111000
0000000011111101
1111011111111010
0000100011001011
1111101010000101
0000111001000000
1111011110111001
1111011010110100
0000101101110100
1111001101010110
0000011100011000
1111111111111101
1111011101000110
1111101111001000
1111101110001001
0000010101110011
0000000010011001
0000101110111000
1111111000001011
1111100101101110
1111110100110111
1111100101100011
0000011101011010
1111101101010000
1111100101011110
0000010011001100
0000000100011111
0000011001111000
1111100101110000
0000001000011011
1111111010100111
0000110111110000
1111011000010001
1111010100010011
0000000000110001
0001001000111011
1111011100011000
0000011101100001
0000011001101011
0000111101000111
1111111011001011
0000010010100101
1111111110000001
0000001111001010
0000010001011101
0000001001111100
1110111101000100
0000000111000101
0000001000010110
1111111011100100
0000000110010111
1111110010011011
0000011000011111
1111000111111111
1111001011001111
1111011010000010
0000010110011111
1111110000001100
1111011011000101
0001000110101011
1111010111011000
1111010101110110
1111100011000111
0000011111110100
0000011110110010
0000101110010001
0000110001001001
0000010110000100
0001001000011111
0000101010110110
0000000101011001
0000001010111110
0000000111101110
1111010000010111
1111100011010110
1111101111010101
0000011000101011
0000100011111110
0000001110011001
1110111101101000
1111110000110001
1111111101010110
1110111100110011
1111000111001010
1111111100111010
1111111000101111
1111110101110001
1111111010100000
1111011110011011
1111011000110000
1111101100010111
1111110101000110
1111100100000110
0001000011110100
0000011101101111
0000100110000101
0000100111110001
0000001110000101
0000010100000100
0000001101110111
1110110001101011
1111001011011110
0000111100100011
1111101000101101
1111011101010100
0000110101110011
0000001011000101
1110101010110110
0000101010101111
1110111011010011
1111111111000110
1110110001000010
1111110110001011
0000001010010110
0000001101000110
1111111001100101
0000001001110001
1111101100000001
1111111100001000
0000000001101101
0000100000000111
0000011011000100
0001000111000000
0000101000001001
0000101000011010
0000111010110110
0000000100110111
0000101000010110
0000101011010010
1111010000110011
0000001010011111
1111011100011010
0000101101001110
0000001101010110
1111101010100010
1111011000011011
1111010100011000
1111011000000000
1111111101010011
0000010100000011
0000010100011101
1111101010010011
0000101010001101
0000011110010011
0000001111010101
0000001101101001
1111010111001110
0000001011001010
0000001101110111
0000100011100110
1111111011100011
0000010011010001
0001110100000000
0000110110010100
0000000001100010
1111111000111010
0000000100001001
1111011111111100
1111011001110111
0001000111110100
0000111011011011
1111100110110111
0000010110101001
0000110101001111
1111101100111010
1111011000011001
0000010111110100
1111110001010111
1111011011100001
0000100001011100
1111001000111101
0000001010100111
10000000000000000
1111110111110111
1111001010110111
1111001010111000
1111100111111110
0000011000111010
0001011100101111
0000101100001111
0001000011110100
0000110010000010
0000001010111000
1111110001000100
0001000100001000
1111111010110111
1111110011001011
0000100010100110
1111101101010000
0000010101011101
1111011111011111
1111111100100010
0000011100011010
0000001100000101
0000101111101111
0000010111001110
1111100110100110
0000110010111110
0000000001111101
0000000000100000
1111101110001101
1110110111101101
1110100110101111
1110111010000001
1111000110001111
0001000001100101
0000101011111111
0000011010110011
0000111011011000
0000100101100101
1111110101011101
0000011111100110
0000000001100001
0000001111100111
0000001001101101
1111111111110110
1111101011101110
1111100100000010
1111101111100001
0000101001100101
1111100100001100
1111110010101011
1111100001011111
0000000111111100
0000100001101111
0000010000101111
0000011011001010
0000000111000011
1111000010111101
1110100000100001
1111000100000000
1111101010110001
1111101110011011
0000101011100001
0000110101011001
0000101111011010
0000100101000100
0000001100000010
0000010010100111
0000010101010111
1111100111111010
0000101100111011
0000001011010001
1111010101110011
0000001010101000
0000000111101010
1111000000000010
1111101011101011
1111110001100010
0000010000110011
0000100111111101
0000001101100110
0000101110101011
1111111001101000
0000100011000101
1111011001100001
1111011101011010
1111010100100000
1111010010100110
0000001000010001
0001000010111001
0001101000110001
0000101101101001
0000011010010000
0000001101110010
0000000100010000
0000011000110110
0000001111000001
0000011011011010
0000010111100110
0000000111111111
0000001110111010
0001001110010011
0000100110001101
0000011111001100
0000001010110011
1111011001001101
0000000100101011
0001011111011110
0000111110011110
1111100100010011
1111110001000001
1111010110111000
0000001011011110
1111110011001011
1111000010010011
1111110010100000
0001011010011010
0000000110010111
0000001110011011
0000111010100111
0000010000000101
0000111001110110
1111111100101110
0000000000011010
1111101001010001
0000001110000010
1111110110010011
0000001000111001
1111110110000001
0000001010111001
1111001000110010
1111101100101001
0000001001011000
1111110000000100
0000001101111110
0000000100010010
1111110110011010
0000100101000001
1111100101010101
0000001111111111
1111101011001000
1111101101101011
0000011101001110
0000000001001011
0000000011100100
0000010100101011
0000101100101010
0000001111001001
1111001011100011
0000001010101010
1111110110110101
0000001010100011
1111010101001000
0000000001110001
0000000001101100
0000000110101010
1111100000010101
1111101001000100
0000101101100100
1111010100010000
1111011110010111
0000110011100001
0000100010000111
0000010001001000
1111010101111100
1111110000001001
1111101101101010
0000100110010100
0000001110100101
0000100101011011
0000000101010001
1111101100110100
1111011111011100
0000101010110101
1111111001110100
0000000100001101
1111011000101010
1111100101100100
0000000101110111
0000011011001100
0000100111111111
1111110011110101
1111100100100011
1111011010001100
0000001011010011
0000011001100010
0000011000101110
0000010011111010
0000000101111111
0000010010101011
1111100001101100
1111110000110101
1111101011110110
0000000010001110
0000001001011001
1111110110100011
0000010010111100
0000010101000000
0000010111100000
0000101000000011
0000000011000001
0000010000101001
0000011111000000
1111110010111011
0000000111111000
0000011000101110
1111010011011011
0000000001101101
1111101100011000
0000100100111001
1111101101111000
1111110000101101
0000001000000110
1111111111101100
0000010111100011
0000011011001100
1111110101001000
1111111011000101
1111111110010101
0000101110101001
1111011000010010
1111101110110100
0000001010111101
0000000000011000
0000011010110001
0000001110001000
0000100110111011
1111101010110000
0001001101010010
1111100101001100
0000000000001000
1111010011111001
1111101001100100
1111111011001111
1111011100111010
0000001010011001
1111100011010011
0000001001110111
0000011111011111
1111110010100001
1111010111000000
1111000111110101
0001000011110100
0000100000111000
1111111001000100
0000101100010110
0000001101100010
1111100010000101
0000111001101110
0000100110010000
1111111010000000
0000001001100010
0000000101000000
0000110001111000
1111010010010010
1111100011000000
1110110010111100
0000110011101001
1111100000011010
0000001101011100
1111110001100011
1111001100010011
0000100100010010
1111101100001010
1111001111000001
0000111011010101
1111100110100001
1111110100000011
1111000010001000
1111100101110011
1111100110111110
0000000101000011
1111011001001110
1111111000011101
0000000011011000
0000010101111110
0000001010010000
0000010101010011
1111100101010010
0000101001010010
0000001110111001
0001001100100100
0000010101101110
0000101000101111
0001010100100011
0000001101111001
0000001000101101
0000011011110011
0000010011000010
0001000011110100
1111001010111101
1111011100011111
1111101000011101
0000100100111110
1111011011011001
1111101110010100
0000110110000001
0000010010010001
1111110101000011
0000101100100001
1111100010011000
1111111101010110
0000001010001110
0000000010100110
1111000101111001
0000001110100001
0001000011010110
1111110110101101
0001010001110001
0000110010111010
0000000000110001
1111011000001111
1111100101010101
1111111001010011
1111111110000101
1111110001111011
1111110000000000
1111100001111101
0000000011111100
0000010110101100
0000011011011011
1111000111110111
0000101001001000
1110111001111101
1111111110000010
0000001010000110
1111110011100110
1111111011011100
1111100011010111
0000011101000010
0000011001001010
0000010010010001
0000000110001110
1111110100110110
0000110001110100
0000010001111011
0000111111100111
1111110011100000
0000011110100000
1111011010101011
0000001001101001
0000011001110000
1111010000000111
1111001100110100
0000010010011010
0000100011010101
0000001110000101
1111111101010011
1111111001110001
0000001101010111
0000101111011011
1111000010111100
0000110101100101
1110101010000111
0000111010001101
1111001011111000
1111010000101100
1111011101111111
0000011011100111
1111110011001100
0000010111010000
1111011011010010
0000101000101110
1111100011001101
0001001100110101
1111110001101011
1111111101000010
0000100100011001
1111100101000000
0000011101001101
0000001101010010
0000000001111100
1111110010001100
0000101000100111
0000001100000111
1111101000110001
1111111000101111
1111111000101010
0000111010110101
0000100100000000
1111111111100000
1111011010010000
1111011111111010
1111110101000011
1111001010111100
1111111001011100
1111111110110011
1111110100010111
0000011100010011
0000010001011101
0000011011000100
0000010100001001
0000011001001111
0001000011001100
0000100000100100
1111101010100111
0000110001011001
0000001110000100
0000010110100111
1111011111110000
1110111001111100
1111111101000000
0000000010001110
0000110111010000
0000110001000110
0001101111010111
0000000000110000
0001000000111000
1111111011111000
1111011100011001
0000111000001111
0000010010100110
1111011111001000
1111100011100111
0000110001100010
0001011100010101
0001000011001100
0000101001000000
1111101111011101
0000100000101001
1111011001000110
10000000000000000
0000011001011111
0000001010000001
0000101000110101
1111110011000110
0000000000110110
0000000010101000
0000001101110111
0000000111001101
0000010000011101
0000010011110000
1111110101000011
1111110001100000
0000010111110011
1111000010010011
1111100000011010
0001000001001100
1111100010111110
1111110110100001
1111110100001101
0000011010111110
0000100000011011
0000000011010010
1111111110010101
0000001011001000
1111100011100001
0000000101111101
0000101000000101
0000011110110000
1111101111100001
0000000110110000
1111110100011010
0000101100010110
1111100001011100
0001010111111111
0000000011010111
0000100001011011
0000010101100000
0000000001100101
0000000000111101
1111010001011100
1111100101010101
0001011101100110
1111100010100110
1111101011001110
0000000000000111
1111110111111100
0000001001010110
0000010001101010
0000001110111101
1111111001101100
0000011000110000
0000011001100100
0000011000100100
0000000000111111
1111111011100011
0000100001101010
1111010111111100
0000011111000111
1111111010010000
0000001011100110
1111110110110000
1110111000011011
1111100101010010
1111010011100000
0000011001010011
1111110111010010
1111111110001011
1111110111101000
1111011001110111
0000010011110001
0000010110101100
0000001000110010
1111011010010000
0000110001101001
1111110010111110
1111101100011111
0000100000000010
1111100011101001
1111111010000100
1111111000000111
1111110110000001
1111000000010010
1111100110000100
0000100011001010
0000011100110000
0000001100001110
0001001101011001
0000000001101100
0000000001110100
0000101011011001
0001011100000010
0000001100101000
0000000010001101
0000000101111101
1111101010011101
0000100000011010
1111111101101000
1111101110100010
0000001011101011
0000000100000111
0000100110010010
0000011001110101
1111010000011001
1111000001101001
0000000100110000
1111110011001100
0000011110001001
1111111000101001
1111110010000011
0000010111101010
1111101101110110
0001010100000110
1111111101000100
0000001101100010
1111110110001000
1111001100010010
1111110011010010
0000110001111000
1111111100101110
1111101000101010
0000011000111110
1111110101110011
1111110101110100
0000000000001110
1111101000011100
1111111101101011
0000110111010000
