0010100111010100
1111000111010001
0000001110100010
1111111001101100
1101101001000100
0000111110000100
0001000111010110
1110111111000001
1111110000111000
0000100000111010
0000110111000110
1111111100110110
0000001000010100
0000010111000000
1111000000010110
0000010001111011
0000011011111001
0001000100110100
1111000101011011
1111110001010110
1111111000000110
0001100100100100
0001000110111110
1111101001101110
0000000100110110
1111000000010011
0000101011000010
0010000101010001
1110010100010010
1111110101110100
0000010001100100
0000010111100010
0000011001111011
0000110111011101
1111101101000010
0000101010101011
1111010100110011
0000001110011111
1111010100000000
0001001001000101
1111010111000010
0000010011001100
0001000010110111
1111101101001011
1111011000101100
1110110100110111
1110100100111011
1101110110110100
0001010111001101
0000010110010101
1111011010110101
0000001111010001
0000111101000101
1111111100000111
0000010001101111
0000011100110110
1111000011000011
1101111000111011
0000100111111001
0000001010001100
0001011101000011
0000110010110001
1111101111011011
1111110111110000
0001001111101001
1111110101111011
0000111011111011
0000011101110110
1111000011101001
0010011000111000
0000010010100110
1110110111001010
1111001001100100
1111010111110010
0000011101000001
1111010111011011
0000110010000111
1111101010100101
0000001110001111
0000010111110111
0000000111110010
0000101111000010
0010011101111110
1111101010110001
0000001101111110
1111101010110100
1101110011111000
0000000011110011
1111111000011111
1111110100010101
0000010010101011
0000111110011010
1110111010110010
1101010011110001
0000010111011001
1111110000111001
1111000011101101
1111101101011111
1111011010001101
1111001110000001
1110111101111011
0000001110101101
1110101110010111
1111000111000111
1111001100101100
0000010011010001
1111001100110000
0000110000000110
0000001110000001
1111001010000111
1111000111011110
0000000001011110
0001000101010111
0001100011110000
0001000010011000
0000000011011010
1111001110100101
1111010110000111
1111111001101000
1111000101101100
1111001001001000
1111100000100001
1111001001001100
1110001011000110
0000101101011001
1110111010001011
0000110011100001
0000100001010101
1111010100101001
0000111010100010
0000000011000010
1111001110101101
0000000000100010
1111111101010111
0000000011010001
0000100010001101
1111100111011101
0001010001111011
1110010001001111
1111100000101011
1111000111010110
1111011101111001
1101101100010011
0000000011001001
1111111001011110
0001100101100111
0000111010110011
0000111000110111
1111001010111000
0000010000101000
0000011111011110
0000110110110011
1111101000010100
1111110101101011
0000001011001100
1111110110110010
1111111011100001
1111111101111100
1110100000110100
0000100000100011
0001011101101110
1111110100100110
1110010100000110
0000011011011010
0000111101000011
0001000101101001
1110111011110100
0010100100000101
0010000000111110
1111100101110001
1110101010100100
0000000111110111
1110101111010101
1110000110001011
0010101011101001
0000001100111011
1111000000110011
1111100011000011
0000010111110000
1111011010011101
0000111110010010
0001000101101110
0001111111001010
0001101011000001
1110110010101010
1111101110110010
0000001100111010
1111101001110100
1110100111001111
1111111011100010
0001000111101011
1111110111101011
1111011010101110
1110000100000111
1111000000111110
1111100110110111
1110011101101000
0001001101111110
0000101111101000
1110110101101100
0001000111010011
0000100001000001
1110110010111101
1111011011010001
0000000111110001
0001000010101110
0000110000110011
1111001000101000
0000101011110100
0000111010001011
0000010010100001
0001011110111011
1111001001000001
1111000100100011
0000100101001011
0000111001100001
0001010011001111
0000011111100001
1110100111111110
0001100001010100
1111110111011110
1111000111010000
0001100000001110
0001110000001111
1101010010110010
0000011010001001
1111111101000001
0000111011111110
1111111101111110
0000000001011001
0001011000010111
0000001010000000
1111110010100100
1110100101111110
1111000011100101
1110111011011011
0001010000010100
0000100111000010
1110100101110010
0000110111000000
0000010000111011
1111100011110100
1111100010001001
1111000001010000
0000011101001001
1111101010010100
1111101111011101
1101111010000110
1110000011000000
1111110010101110
0000011011110111
1111011110111011
1111101111000111
0000001011100001
1110011010000100
0000110111011001
1111001111000001
1111000110111111
0000011001001001
0000100101101101
0000010000001000
0000100110101111
0000110110101001
1110000111110110
0000011000000010
1110110101110110
0000011110010010
0001100000011111
1111011001111001
0000101100011001
0001100100100101
0000100111011101
0000000100100110
1111100011111110
1111101101111010
0000111011100111
0000100000011101
0000101011010000
0000011111000001
1111001110011010
1111011000011111
1110000111100101
1111110110011110
0000001110100111
1111010001001000
1111110101001000
0001000011101001
1111100100011101
0000101001000101
1110010100001101
0000000001010001
0000011110000010
0000011010111001
0000111101011000
0000100111101100
0000111011011101
1110001011000010
1110111111011100
0000000111000100
1111011111111001
0000000011011010
0001101100011110
1111011010110000
0000101001101110
1111011111110111
1110100001101001
1110101101100001
0000001101011100
0000001011001101
0001001101001111
0000001110110011
0001000000100001
0000101001000101
0001001101111101
1111111100111100
1111101111001010
0000011010011111
0000101011010100
1111101011100101
0000100000000100
0000100101110011
1111110100001010
0001001000001101
0000001010011100
0000100000010011
1111100101110111
1110110010001000
1111001000011001
0000011111001111
0000000101010000
0000001111100001
1111101000111001
0000001011001100
0000011110110111
1101110000101111
1110011000011000
1111100001011000
1111110001001100
0000001011011011
1111111000010011
1111011001111010
1111111101010101
1110011101110110
1111001101110010
0000001110101010
1110011110110100
0000101011001001
0000000111001011
0000100101100000
0001100100000010
1111001001101111
0001000100000000
0000110100100100
0000111000111000
0000110001001100
0010011110010000
1111101111101001
0000111110001000
1111100001100000
0000100001111010
0001000001010111
0000100000001001
0000100001011010
1111000110111000
1110111111010101
1111000100111011
0000011111010100
0000101001111010
1111100110001010
0001011011100011
0001001110011000
0001011101000010
1111000001111110
1110011110011110
0000110011011110
0000011101101100
0000110110001100
0000010111000110
0001000111100010
1111110011101000
0000000000011000
1110110001100001
0010100011111111
1111100011011000
0000000100001011
1111111010011111
1111011001110011
0000000000110100
0000100100100001
0001011010110011
0000111001100011
1110000110101100
0000111001010101
1110111010100011
0000000010100111
1111000000011000
1111000001100111
0000101101000011
0000010100000000
1111000111111001
1110111100011000
1111101010010000
1110110101110110
0000000100100010
1111100000011100
0000010100001110
1111110011100010
0001101111000000
1111000100111010
0000000010011101
0000111010110011
1111010011001010
0000001011001100
0000111010001010
0000010001100110
0000100010110111
1110001100000100
1101011001101110
0000101000001010
1110001010101100
0000000010110001
0000101111111111
0001100011101011
0000011010001101
1111000010101110
1111011000001010
0000101011000011
0000110001010100
1111110010010000
1111010110100101
1110111100101010
0000100110101001
1111010111110000
0001010011111111
0001001000110011
1110101100011011
1111100000011110
0000001011000010
0000110101111011
0001100111111101
1111100000100100
0001000110001001
0001010101010001
0000111011110110
1111010110000001
0000110010001111
0000001101010010
1110100110100100
0001001101111111
1110111000011110
1111010000100110
0000001101011101
0000001111001101
1111000011001111
0000001011111010
0000000011110001
0000101111011001
1111100101001010
1100011100000101
0000001011100011
1111001000100111
1111100011011011
0001000111000010
0001000001110001
1110100011100001
1111101101011010
1110110110111010
1111000000100100
0001010101100111
1111010100101101
1111100110010010
1111011000010111
1111001011111111
0000101001111111
1111011100101101
1111000011110101
0000000111001101
0000101100111100
0001011111100111
1110100101010000
0001000001101110
0000100110000111
0000100010010000
1111100010111100
0001101110001001
0000000010110000
1111100000100001
1111100000101010
1111101111111101
0000010100010011
0000010011110111
1110000101100000
0010011111010011
0000101110110011
1111011001001110
0000000101100010
1111010110100100
1111011110001010
0000100111010110
1111000000011110
1110001100111001
1111000010111000
0000100000111100
1110101011011101
1111111010110011
1111101101100111
0000000010100001
1111100010101010
1111010000000111
0000110010000100
0001010010110010
1110100001000111
0001010010111111
0010001100001000
1111001110001100
1111010011110001
0001011111010110
0000001000100111
0000001111010010
0001100110101000
0000110100100101
1111111100100110
0001100110010110
0010011101010010
0000111001100111
1111100011000000
1110110111101000
1111001110111111
1111111110001110
1111111011010010
0000000111011010
1101010010000111
1111110001000010
0001111100100100
1110100010001010
0000101010010111
1100110101100011
1110101011011010
0000010100101000
0000011110100010
0010010010000011
0000000110010001
0000001101001001
1111001101000100
0000111010100100
0000101110001010
0000000000011111
0000000110000010
0000100000101100
1111000011011100
1111111010110110
1111001101011011
1101111110100110
1110110101101110
1110110011101001
1111110001111000
1111101001011101
1111100100100001
1110101111001110
1110101111010100
0000010110000010
0000001010100110
1111001101110010
0001000001110100
0000101001001100
0010000111000000
0000010011111010
0000100010110001
1110111110011110
1110101011100111
0001011100010011
1110011110000001
1111101111001111
0000111100000101
0000100001001110
1111000101000000
1111100100010111
1111011001011111
0000011101001001
0001111111001010
1111010100111100
0001110100001010
1111010111000010
0001000100000000
1111000011001101
1111101100101000
1111010101001001
1111101001111100
0000000111010111
0010011110101100
0000111110010011
1111110001000010
0000100101100100
0000100101011111
1111101110001111
1111110111101100
1111000111000011
0001001101010000
0000000000010001
1111000101110111
0000101001000110
0001011101001101
1110111011100100
0001101000111000
1111011110111000
1111011000000000
0000001101001011
1111100010011101
1111110011010111
0000001010110100
1111000100011011
1111010010111101
1111011000100100
0001100001111101
1111100010011110
1111110101101010
0000101001000100
0000100010100001
1111110000111101
1111111000110111
1110010000110011
1110100010001100
0000001111000111
1111110000101001
1111111111001000
1111010001110100
0001010110101011
0000010110110101
0000101010000111
0001010000001010
1110010111100100
0001011001001010
1110001001001101
0001101100000101
1111001011110101
0001010010011000
1111011010001001
0000001110110000
0000111110111000
0010001111111000
1110100001001010
1111011010000001
1110111000000101
0010010011101011
1111101001111000
0001000100011011
1111101010100110
0000000001101000
1110101000101011
0000110100001100
1111101101011010
1111111011100011
0001100110011100
0000000000010111
1110001110100111
1110001010100110
1111110010001001
0000011011111110
0001110100100100
1111011011000001
0000111001011101
0000101111100011
1111011111110110
1111011101111101
0001100100000100
0010001111001010
0000010110010000
1110111101000001
0001110101010011
1111100111011011
0001000100001110
0000001101101100
0000001110111100
0001010001110010
1110111111010010
1111100101110001
1111010111101011
0000001100101111
0000111111010010
1111111011111110
1111011010111001
0000011001100101
0000011001111111
1111100001011110
0000010010000111
0000100001100010
1111110100111010
1111111100010101
1100110110001100
0000111010101001
1110111100010010
0000000111100100
1111010000001100
1110011101100011
1111000101101000
1111010101111010
1111010110000000
1110110110011010
1110101010000000
0000010000010110
0001000010111100
1110110110000010
0000011001011101
0001010011011110
1111001110101011
1110000011000011
1111000000011100
1111110100000010
0000010101110001
1111010011010110
1111010111111100
0000011000101001
0001100111010011
0000101011110101
1111111011000010
0001100011101001
0000111111000001
0001011100010100
0000100100011100
1111101010011000
0001011100001100
1111111000011001
1111011110001110
1110111111001100
0000100000111000
1111011100001100
1111011100110100
1110110011111110
0000110101111111
0001010110111010
0001011110101011
0000100101010001
0000111010110010
0000000000100011
1111110011100111
1111110000110100
0000110001001001
1111010110110111
1101111001110110
0000000111001101
0000100100011100
1111110111110001
0000010000101011
0000100100101000
1110001111010010
0000001011000011
0000111010111111
1110101100110100
0000101010000110
1110111011110111
0000100110010011
0010010111010001
1111001011111000
1111000001101101
1110111001000001
0001001100110110
0000001110001001
0000101111001001
0001100110011111
1111010111011110
1110010010000100
0000111001111000
1111100000110011
1110110001101111
0000000001101011
1111000100000011
0000000111011101
1111010110101011
1110100110101111
0000000000000011
1111011111000000
0000111111111010
0000101010000010
0000001101101010
0000011000000110
0000011000100000
0000100011011110
0000010010111001
0000011011001001
1111110001100010
0010000000001110
1110110010110010
1110101111010011
0000010000011101
