1111001010001101
1111110001010011
1111111110011101
0001010101111001
1111110010010000
1111100001100010
0000001000100100
0000010110111110
1111011010101110
0001000010100101
0000001111100000
1111101000101111
1111110011110101
0000010001000010
1111010011111011
1111100110001011
1111101100010011
1111111000010000
1111010010011010
1111111010111101
0000001100101001
0000111101010011
1111110010111101
1111101101110100
0000000010111111
1111111110010101
1111111101000110
0000111000010100
1111100000011101
0000110001100100
0000010011111110
1111101000001111
0001000111101010
1111011110010010
0000010110001001
1111100000111011
1111111011101101
0000000001011011
0000000110111010
1111110110010000
1111100001101010
1111001111100010
0000001110110101
1111010011010111
0000001110111000
1111101010110010
1111111000110000
0000000001110000
1111011010000000
1110011110000010
0000010111000001
1111100111110010
1111110111110111
0000111110100101
0001000101110000
0000110010100100
1111011010000110
0000001000111100
0000001011001000
1110110001110110
0000101001010001
0001000110010100
0000101010001111
1111101001101110
1111111100110011
1111100100000000
0000000100000001
0000100111101000
1111011000010101
1111000100001110
0000011100011100
1111100010001100
1110110111101111
1111111010111100
0000000111011010
0000101100100101
0000000010010100
1111001001000111
1111101001111110
0000001010000000
1111111101101010
0000100110111100
0000010001010000
1111111001001110
0000111001001110
1111111111010101
1111110000111001
1111001111010011
0000011001011110
0000011110110000
0000010010010011
1111010011010000
1111110000110011
1111101111001010
0000000110001011
0000010101000100
1110111100000000
1111000110111001
1111110101100010
1111110101100101
0000000010001001
0000101100011010
1110111100100000
0000011010001000
1111011011000110
1111101101011111
1111000101100011
1111110001101110
0000010111111001
0000000100001101
1111010110101110
1111010100011100
0000000101000011
1111110011101111
1111111110110000
0000101011001000
0000001100101000
0000010010110000
1111001111001000
0000011101101100
0000000010110101
0000100110001010
1111110100110111
1111100001000001
0000110011000101
1111111110001010
0000010011111000
0000110110011101
0000001010100100
1111100101110001
1111110010110010
0000100010011110
1111101010111110
1111100100001001
0000100101000000
1111101000111111
1111111000101010
1111011111001010
1111111001101001
1111101000101010
1111110000101011
1111111100101011
0000010001100000
0000000100110111
1111011011000100
0000011110101010
0000101000100111
1111111100000011
0000000110010001
1111111100001011
1111100110100110
0000110001011011
1111100110001110
0000000101100001
1111001100001000
1111010110101010
1111101011110111
0000011011111010
0000000001001111
1111011101010011
1111010110000110
0000001111111100
0000010000000111
1111110000011110
1111101000000010
0000010000010001
1111011000101001
1111101011111110
0000101111101100
0000010011011011
1111110110110111
0000100111000010
0000001110111101
1111100110001100
0000100100011010
1111100000111100
0001000100000011
0000011010001111
0000000111101111
0000000011110011
0000000110100100
0000100000011100
0000001011110101
0000001101100100
0000011001100011
0000000000100001
1111101110101100
0001000010010100
1111011010010000
1111110011000101
0001100010010110
0000001110111101
0001010001011100
0000101011110110
0000001000011011
0001000101010110
1111110001011100
1111100011011001
1111001101011100
0000000101110000
1111110100000100
0000010100000000
1111101100011100
0000001010100001
1111111011100101
0000010011011001
0000100101011001
0000010100011010
0000001011011001
1111110110001010
0000000101110000
0000010011000110
0000011001101111
0000011101111101
1111100100111101
0000010110100101
0000111110101010
0000011111100111
1111110111110010
0001110000111100
0000011100010010
1111100110100111
0000110100011000
1111100010101111
0000101001110101
1111000110111010
1111001011111101
1111110111110001
0000011000011011
0000011000000110
0000011100110001
0000111010010101
0000011111100110
0000100011011000
0000011001111000
0000100111100100
1111110001111110
0000010100011101
1111010100110100
0000011001011001
1111111010101100
0000001011000010
0000011010110110
0000100111111100
1111101100100001
0000000101111110
0000110110001111
0001000010011101
1111100000001111
0001001100101100
0000010001011011
0000000101101000
1111011011110000
0000000111001011
0000100001011100
0000011100011001
1111111000101101
0000111000101001
0000100000101001
1111111111011111
0000001000010111
0000000101011001
1111111110010010
1111010011110101
0000100000001000
0001001011001110
0000011111110101
1111010011001101
0000001001000111
0000111001110000
0000110101010110
0000010111000001
0001011101101100
0000101100111000
0000010100110000
0000110100110111
0000110100100010
0000010011001111
0000101001000111
0000110000100101
1111010111100010
0000110000110101
1111100111010010
1111111010001010
1111110111000111
1111000001101101
0000100111100100
1111101000110010
0000000100111011
1111010111001001
0000011000111010
0000100001000001
1111110100111011
1111100101011111
0000100010000111
0000011001001101
0000001001100001
1111111110100000
1111011001010111
0000011011011010
0000000101000010
1111100110101001
0000110011011110
0000110000001101
0000110000111100
0000011100101101
0000010001110111
0000011100000001
0000110101011010
0000000001011001
1111111010101100
0000010111100001
0000100001000111
0000110010100111
1111010110110011
0000100111100101
0000100001001111
0000100111100101
0000100011011000
0001011001001000
0000101111010101
0001001101001101
0000001010001100
0000011100101110
0000100100010100
0000011101011101
0000101101001001
1111111110000111
0000001001111111
1111111011101110
0000001000011011
0000100111011111
0001000000001111
1111101111000010
0000010101010111
0000101000001000
0000011010001000
0000011111110110
1111111110010111
0000000100110110
1111011010110110
0000001001000011
0000011011010100
0000011100101010
0000000110100000
0000101010001011
0000000000100110
0000110111011111
0001001000011101
0000111110001100
0000100110110011
0000100101001001
0000000100001101
0000001000111111
0000000101010101
1111101010111100
1111110001001101
1111001011011111
0000011011010111
0000100001001001
0000010100010001
1111110001000001
1111100100001101
1111100110110110
1111100111010101
0000011011111011
0000001100100101
1111111010111000
1111111111001001
0000000011110011
1111011110111110
1111101110100001
0000001000101001
0000000110000111
0000101011001101
0000001100100011
1111100110101010
0000111010100100
0000100011110010
0000001110111110
0000101000100101
0000000100101100
0000001011111101
1111101011010101
1111110001000101
0000001011100001
0000001011110111
1111101011101111
1111101111010000
0000011000010011
1111111011000001
1111100001100011
0000000101100111
0000001110110001
1111101110000101
1111100011100000
0000001001010001
1111111100110010
1111111100110000
0000011001001100
1111110101010010
1111110000100001
0000000111000100
1111111111111110
0000110100000110
1111110001011001
0000110000100000
0000001110100001
0000011101111010
1111011011010111
0000100010001100
0000100010010000
1111011101000000
1111011010000111
0000010110111000
0000101010011111
1111100011001101
0000010011000101
0000000110000110
1111110001101001
0000100011000011
1111111011111010
0000000111000000
0000000111100100
0000000110100111
1111100110110001
1101111111010110
1111110111111011
1110101011100101
1111111001110111
1111101101111111
1111111110111000
0001001100101010
1111011111101011
0000100001111110
0000100010110111
0000011110101010
0000101000100000
1111101010111010
1111011000000111
0000011101010111
0000010100111100
0000010011000010
0000110100110100
1111101011100011
1111001010010111
0000100110110010
1111110110111011
0000010100111101
1111100010010001
0000010111000101
0000010010010111
1111101101111001
1111110000100101
0000001000010111
1110110110100011
0000000000110011
1111000101100011
1110101101101111
1111000011000001
1111101100101011
0000001100001100
1111010111111101
0000010011000001
0000001010011010
1111011111000100
0000000010000100
1111100110110100
1111010100011101
0000010011100100
1111011100101111
1111011011101110
1111101100100110
1111000111111110
1111100101000100
1111010111101001
0000010101001001
1111001100000001
0000011111100110
1111110110001111
0000001000100010
0000000011010000
0000000011011111
1111000000111100
1111101110110100
1111000001011101
1111011011001000
1111100100110011
1111011110010111
0000000001011100
0000010010101101
1111110010111010
0000001100011100
0000010110111000
1111001110101000
0000001001001011
1111011111010111
0000011010010000
1110111100010011
0000101101001011
1110110101100110
1111110100110101
1111111111010110
1111101110001001
1111000010110011
1111111001100011
0001010000000100
1111101100111011
1111101110011001
1111101111101010
0000000001111100
1111110111010001
1111100111101110
1111010101000000
1111000000001101
1110110100111100
1111000001111100
1111000101111000
1111110111100101
1111110110100001
1111011011011000
1111110000101001
1110110110011110
1111110111010100
1111110100011110
1110110110101100
0000001111010011
1111010110110110
0000001001110110
1111100010100001
1111111110110010
0000000000011000
1111010011010111
1111011100111100
1111101110010100
1111100000000101
0000001101111111
0000100001110101
1111100011011000
0000100111101000
1111111010100000
1111011110110101
1111011000001110
1110110000001001
1110011010101100
0000001110111011
1111001000110111
1111011011111000
1111011100000011
1111110010011010
1111001111101111
1111111011001101
1111101110101101
0000001001100001
1111000101110100
1111101010110100
1111101110111010
1111000100011010
1111110111100000
0000101111010111
1111101101010110
1111110001110100
1111101011111110
0000100011101001
1111100010111011
0000000011101101
0001000100000001
1111011000001100
0000001010100001
0000010100110101
0000100011101010
1111010111110010
0000001101111000
1111111110000001
1110110101110111
1111111011010011
1110101011011010
1111111100100010
1110111010101110
1111000101001111
1111111000010010
1110111110001011
1111011111000001
1111100101000010
1111011000100010
0000000001000001
0000001111111101
1111110001111110
1111111000110101
1111101111001010
1111011101011011
0000011101010011
1111011100001011
0000101010001111
1111110100000110
0000000001101110
0000011000110110
1111101101101011
1111001111001110
1111111000001001
1111101001000111
1111111001110010
0000000001011011
1111111110101000
1110100010111000
1110111010111010
1111101011101101
1111001000010000
1111001010001001
1111001111011010
0000010101111111
1110111100101001
1111101101100100
1110110011010111
0000000000011011
1111100110010101
1111001101100001
1111101100111101
1111010010110111
1111011010001011
0000010111001010
1111001001110110
1111100001000001
0000010110101101
1111100110100101
1111101010000001
0000010001001011
1111101111001011
1111101111111000
0000100101101011
1111110000010101
0001001011011111
1111100001001101
0000000111100011
1111001010010110
1111111011101111
1111101011011000
1111011001010010
1111110101000010
1111100011000110
1111010011000000
1111111010101000
1111001010110010
1111001001011010
0000111010100101
1111110110001000
0000010010111110
1111111101000000
0000010101000001
1111101001110000
0000001010000000
0000110011011011
0000001110011001
0000110011110010
0000000001110100
1111101001101000
0000100000001101
0000111001001101
0000100100111101
0010000000101101
0000110001100011
0001000001011100
0001000010000011
0000001111110100
1111000011010010
0000110110001010
1111100010101011
1111110110111010
0000001100111100
1111100111010100
1111011011111101
1111010100001011
1111110100111000
0000010001111100
0000011010101010
0000011110011001
0000001001000001
1111110111010100
0000101111001110
1111011110000001
1111110110001110
1111101101001011
0000110100011111
0000111001001000
0000011111010001
0001001100110101
0000101001110100
0000100011011100
0001001000000101
0000100011000110
0000001111011111
1111001011001111
1111110010100101
1111101000111011
1111101101111001
0000010101000011
0000001101100000
1111101010101010
1111011000011110
1111110110101110
0000010001001011
1111011111011010
1111110000010110
1111110111110110
0001001001001011
0000100011001001
0000100011111001
0000010001011001
0000101010000110
0000100001110110
0000110000001001
0000000101001100
1111110001011000
1111101001101000
0000000011001000
1111110111101001
0000001110110100
0000000101111010
1111110110000110
1111110001010111
0000010101101100
0000101010011110
1111110110011001
1111011110111000
1111101010010001
1111111010110110
0000000111011010
0000000001100100
0000000011011110
1111101110001100
1111011111110001
1111110100100010
1111111010111010
1111111001101100
0000001001101001
0000110001110111
1111111100011001
0000001010110011
1111111011100001
1111111000010110
0000001010000010
0000000010011000
1111101101011000
0000010000001010
0000010000010100
0000110110001111
1111010000001011
0000011000011101
1111011011100100
0001000000110100
1111000101110111
0001000011110011
0000000011011010
1110100011010000
0000011011000111
1111110010100100
0000010010100001
0000000101100100
0000111011010101
1111110111001110
1111010110101101
1111110010010111
0000100101101111
1111011000000000
1111011011000001
1111110011101001
1110111011011010
1111100101000100
1111101110011011
0000010100000001
0000001000010101
0000000001101111
1111001000000110
1111110011011000
0000000001101011
1111111110110011
0000000100110001
1111110110111000
0000010001011001
1111100110011100
1111100000000100
0000010000011011
0000001111111000
1111100101010110
