1110111000101001
0001100101001001
1110010101000101
0000101111100011
1111101011011010
1111110000010110
0000001101100000
1110000100000110
1110010111101010
1110100100111111
1110111101101000
1111111101100011
1110110110100100
1111000101100111
0000100001110001
0000011101010100
0000011111010111
1110011100100001
1111011101100111
0000100101101001
0000010110110100
1111011001101110
0001000111100011
1111000000100010
1111010100011111
0001110011010101
0000010111101000
0000001001101110
0000011111111111
0000010001010110
0001110100011001
0010000100011100
0000111101101100
1110101001010110
1111110111001011
0001100100111010
1111110111000011
1110010100101100
1110100110000101
0001000011111111
0001111100010101
1110101011011111
1111100101110001
1111010100000100
1111001010001111
1110111000011010
1111101110001110
1111111000111001
1110110100110101
0001010100100011
0000100111101000
1111001001110010
0000111001001010
0000011000011000
0000011101110101
0010001101100110
0000111110001010
0001011101010110
1111111001011011
0001101000010110
1111110001010100
1111010101010110
1111000110101000
0000101110101110
1111110000010011
0000011100010011
1111111010001011
1110100010111101
0000111010110011
1111011010011100
1111111100100101
0000001100100100
1110100001110010
0000011111000110
0000111000110001
1111011000100000
1111010111001101
1111110000101111
1110111011001111
0001000000111001
1110111001011000
0000000110001111
1111011101111100
0001101000001100
0000100001011010
1111010111011000
0011101011110001
0001111100000010
1111111011010010
1111010000111111
0001000111100101
1111101100110000
0001010011101010
1111001100111100
1111111010000111
0000101100110001
1111000010010010
1111111110011111
1111111011110100
1111110101011000
1111111101101010
1111101000010110
0001101000000011
0001000111111000
1110111110011101
0000101101000100
0000110110100100
0000011100001011
0001110011100101
1110001101001100
0000101100110011
1111101011011011
1101101001001110
0000100010101011
1111010000011011
0000000001000001
0000000000010011
1111111100001101
0000101000111100
0001100001110111
1110001101010001
0000110110011111
1110111011001001
1111111001100000
1111101001101010
0000010101000001
0000011110111000
0000001101010011
1111100110111111
0000110000100000
0000101001001110
0000101000011010
1110011101100000
0000010011001000
1111101110110100
1110011010011001
0000011001000100
1111100001011010
1111000111001111
1111110011110100
1111010110000010
0001000101001100
0000101011100001
1111100100101011
1110110010000010
1111111000011010
0001001001001001
1111011000100111
0001110111001111
1110111001011111
0000100100101111
1111101100111111
1111011011111101
1101101010000110
0001100110001100
1111011101111011
1101110001001111
1111011001100100
0000011100100111
1111101000010011
1111111110110100
1101111110011010
1111100100100101
1111010110010000
0000101101100011
0000110100010100
1110001111111001
1110100110111000
1110011011111000
0000010110010110
1111111100111000
1110000100100000
1111101011000010
1101110000001001
1111111010010010
0000011100111110
1111001010011000
1111001000111011
1110101101111110
0001100100001101
0000011110011000
1110101100111110
1110001000001111
0000010011001100
0000101001000001
0000100100000000
1110110110011101
1110100011010000
1111111110001011
1101111000100010
0000101001011100
0001001111011000
1111111111001100
0000000111010011
1111011011011010
1111110101101111
0001001100101100
0001110011011010
0000111101001110
1110101011001100
1111101011011000
1110101111010011
0000011100000011
0001011011011101
1101110100110101
0000011100100010
0000010001110110
1110111101011110
0000110010011111
1111100011000101
1110001111000000
1110010011111010
1111010011100110
0000101100110111
1111000010000000
0001000111101101
1111010100101000
0000001111111111
0001001011000110
1111000011100100
1111110010000001
1110010110110001
1111000011100011
0000010110100010
0000110001110110
1101001100100100
1111001001000100
0001000111100000
1111011011010000
0000101111011011
0000001010111011
0001100011010011
1111101110001101
0000100010000000
0000000100010101
1110100101001100
1110111100100011
1111010100010110
0000001110111001
1111110000100101
0000001001111010
0000111001011100
1111010110000110
0000000101101111
0000011010000001
1111010101001100
1111001011001110
1111101101110111
0000111110101111
0001000000001111
0001111100111010
1111001111111110
1111010100100100
0010000111001010
0010001101001010
0001001001110011
0000101010111001
0000110000010100
0000011001001010
0000001011100110
0010000001000011
0000101101000001
1111110100001101
1111111000100010
0001101110000010
1111110011010001
0000000000101111
0001001100101010
0001100110010111
1111010011011001
0001011100100011
0001010010011110
0000011110000011
1111100001011101
0000001010001110
1110100010100101
1111111011010100
1111010101001100
1111111000100011
0000101100111001
1111101111011001
1111100101010111
0000010100100001
1111100000010000
1111101011100001
1111101011000011
0000111000100011
0001001100000001
1111100100100111
0000110000011110
0000110111110110
0000011111000001
1111011001100001
1111001011110011
0000111000000001
0000100110101110
0000111010101000
1110010011011110
1110110111010100
1111111011111000
1111000111000110
1111101010001110
0000000000110110
1101111101101001
0001001011011110
0000000001010110
0000001111010100
1111001100101110
0000000110011010
0001010011111010
0001011111110100
0000000110011001
0001001110111110
0001111110011011
0000100010111011
0000100010110111
1110000011111100
0001000101000101
0000011011011100
1111001001110110
0000101000001011
1111101110000011
0000111000100111
1110010010000111
1111101001100111
0001001000100000
1111001100110001
0000001101001100
0000101110111011
1111010000101111
0000001100111010
1111011100010100
1111111001101101
1111100110111000
0000011010000000
1111100110000001
0000101001010110
1111010000101000
0010000110110000
0000101100001101
1111011101101101
0000011000111001
1111110110111000
0000001100100010
0000010111101000
0010111000011010
0000100000111101
0010100100110101
1111010101111011
1101010001001111
0000011101110001
0000010010000010
0000001110101001
0000110100110111
1111011001111110
0000100001001110
0000011011101101
0000100001011110
0000101111000111
1110001110110100
1110100111110000
0000000110011101
0001101010101111
1111110011100010
0001110011101100
0000000100100101
1111000101101010
0001100110111100
0000111001011000
0000010011011001
0000101010100001
1110001110010100
0001000110011001
0000101010011000
1111111000101011
1101011001110000
0000101011110010
1101011011011011
0000010111010011
0001110011001110
0001100111110110
1111010101000100
1111001111100000
1111010101110110
1111101000001011
0000010110111100
0000011000110111
1111011000001001
1111110111100001
1111001111100000
0001001101000011
0000001110101010
1111111001110111
0000110011001000
0000101011110010
0000000100111101
0010100010000011
1111110001011100
0000100111110111
1111010001110110
1111011101100100
1110110110001010
1111101111101001
0001000101010101
0000000100111110
1111011011000000
1101111101000000
0000000000111011
1111100110001010
0000011101000100
1111000001010000
0000111111110000
1110100101101100
1111011111101000
0001101100011001
0000100101001101
0000011011010001
0001000000001101
1111100011110100
1110111101000010
0001011011101000
0000010011000000
1110110110010100
1111001011100001
0000010111011000
1111001101100000
0000011011110011
0000111001101111
1110001111101111
0000110100001100
0000000000111011
1110100110101011
1111011100001011
0000010110011111
1110100110111000
0000110101011010
1110111110111010
0000101011101100
0000010111101101
0001111001110100
1111100001000111
1111101100111011
0001011111000000
1111110011111111
1111001010001011
0000101010010111
0000000110001010
1111110111011010
1110101101000011
1110111100101010
0000010000010000
0001011101110000
1111011010011001
1110100110101011
1110100011011001
0001010100100011
0001011111111010
0000010110000100
0000110010110101
1111100010110100
1111001101000101
1111100111101100
1110001100010000
1110111101000011
0001000000101100
0000001001001110
1111111000001100
1111110000000111
0000001100010111
0000111100001001
1110101111011110
1101100100111011
0000101111011010
1110001111101111
1111011101011101
0000000110001110
0001001110011111
1110001000110110
0001011111100011
1111110111010101
1111100010001101
0000010101100100
0001100011011111
0000000010111001
0000011110101111
0000000000101100
0000010000110101
0001101011001011
0001000001101001
0001001011001110
1111101001100110
1111101100110010
1111100000000010
0000010101100110
1111101000101101
0000011100110101
0001100111100110
0001000101100000
1111010001111111
0010000101011111
1110100001110111
0001110000101111
1111000111100000
1111101010001110
0000000110011101
0000001011111011
0000101010101110
0000010001001100
1111100101101011
0000010010010000
1111011101110101
0000111011000111
1111101001000011
1110101101010011
1111011101110100
1110111010011101
1111110001111000
1110110101000111
0000100000111001
0000001001001010
0000001001111100
1111111010000100
1101101101011010
1111110110101001
0000010101001101
0000100110101110
1111001001110001
1101101001111101
0000111011101101
1110111001101011
1110111011000100
0001011100110010
1111100001000010
1111111111101111
1111110111001011
0000000001111010
1101110010110000
0001110000011011
0001011011110011
1111110011010011
0010000000111011
1111110100010101
0001001110100110
1111110011010101
0000111000001010
0000011001101101
1110010011010000
0001000010101111
1111111110101001
1111111001110101
0001101011101100
1100111010001011
0000101010010000
0001011010001100
1111111000010100
1111001011110111
1101010010101011
0000010100011110
1111010100111110
0001001000011110
1111010010011011
1110111011001000
0000001000001101
1110011110100000
1111001010111111
1111110010000110
1110101000111110
0000010001101010
1110011100110001
1111100010000111
1110110111010011
0000101001110100
1111110111000101
0000111011000001
0001010000010100
0001001110011010
0000011100010001
1111010011111010
1110111111101011
0000100000101000
1111001000100011
1111011010001011
0000010111110110
1111101110011011
0000001110111100
1111011011011010
1111101110010110
0000000101000100
1110000010100010
1110011011100111
0001000101010111
1111100101110011
0000101001001011
1111110011001101
0001000101000100
1111100010100111
1111011110000101
1110100110001101
0000100101101001
1110101110100001
1111100110101010
1110011101011101
0010010001110100
1110111101000000
0000001101010101
0000001100011011
0010011000100100
0000010110011111
1110011101000111
1111010000110111
0000111101101101
1110000101111101
1111001010010001
1110001100111010
1101110101000101
0000001110000001
1111001001011001
1111011011010100
0000110100100111
1111101001110000
1110101010011101
0000010101100101
1111011100000101
1111110010010011
0000010000111111
0000011000000011
1110101101011000
1111000110010001
0010001001100001
1111000110001010
1110110010011101
1101010011001001
1111101001100011
1111001000010010
0001001010000101
1111111110011100
0000100110001000
1111111001010011
0010001110010101
0000011011010111
0001010011111110
1110111110111011
1111011111001001
0000010101111111
1110111101011100
1111100000110010
1111010000001111
0000101111101100
1111001001111010
1111101100010001
0001000101110111
0000011011101111
1111100010010000
0000011000010000
0000100111011011
1101101011101000
1110101011000110
0000000111011110
0000011001001000
0000000100010000
0000101010101101
1111000100101101
1111000000010110
1111001100001111
0001010000100011
0000100010110101
1111111101001111
0000100101101111
1101011110110101
0000000101001010
1110001011100010
0001110111110101
0000111001101100
0000001110011011
1111111000110001
0000010100001111
1110000001000111
1111110101100101
1111110000100111
0001110000111111
0000000001111110
1110111100100010
1111111000100001
1111010001011001
0000100010101000
0001110100110000
0000000100010010
0000000011111111
0000010000010101
0000000011000011
0000011111111010
1111110101111111
1110010101010101
0001001010000111
0001000011010101
0000001100110101
0000110110011111
0000010101101000
0000100010011011
0001110111010001
0000101011011010
0001001000100011
1110001010101001
0000010000000010
1101101110111110
0000111000010110
1111101010010100
1111101110110011
0010010111111011
1111001011010110
0001000110110110
1101101110101110
1110001000110101
0001110000001001
1111011111011010
0001000000110001
1111101001101101
1111001111000000
1111101010110011
0000010111110011
0000110010010011
1111100000100101
0000001101001101
1111000111101100
0001001101100011
0000100111110001
0000000110001100
0000011110101001
1110100111100101
0000100000010100
0000111100010111
1111001101110001
1111110000010000
0000010110001011
1110001001111111
0000001110100000
1111010111010111
0000001111011100
0001101011101001
1110100000001001
0010000100100111
0000110111000101
1111000100001011
1111111100101000
1111010011001010
1111100111011000
1110001010110100
0001101101011011
0001111011010001
0001000110011110
1111111101011011
0000110001110110
0001001110011101
1111011000011110
0000110111111111
1111110011111100
0000011011000010
1110110101110000
1110100000111001
1111010001100100
0000100011001001
1111101011010100
1111011110110111
1110110111100100
1110011010110000
0000000101000001
0001101000000001
0000000110110011
1111100100000100
1111000001111000
0000011000001011
1111001000111010
1111101110001010
1110100001000100
1111100000101111
0001001001101001
1110011111111100
1111001100000111
0001110011001110
1111101010001110
0000111111001010
0000000000111110
0000100001001001
1111001000110011
