0000010010000000
1110111110101111
1111011000101011
1111100001000001
0001100001011101
0000100100011101
0000001011010100
0000011000101111
1111011100111101
0001010101101111
0000100000010101
0001100001001100
1111110101010111
0000110001100010
0001011011001001
0000100010011000
0001001000101001
0000101000000011
1111010100101001
0001000000100100
1110101100110111
0000111111011011
1110100101101010
0001110100100010
0000100011011001
1111100000001000
1111100000010001
0000110001101111
0001101011101111
0001100001110101
1111010010000101
1110111011001111
1111100101101000
0010101111111110
1101110111011001
0001000100110110
0000110000110000
1111011000010101
1111001010011010
1111011000111010
1110100100001000
0000100011111000
1110100111101100
0000000001110000
1110110010001010
0000100011100000
1110100010101000
1110010101001010
1111011011111010
1111000101010001
0000001100001110
0001011010011000
1110010110110001
0001100101101001
1111011011000011
0010011111101000
1110100001100110
1110100010001011
1111110001010110
1111110110100110
1111110001000110
1110111111001101
0000110111000001
1110110011101101
1111100010001101
1111010011101111
0000011010011000
1111011011110000
1111111101001010
0000000000100011
1110011011010001
0000000111011111
0000011110011011
0000000111111000
1101111100111111
0000010001110100
1111011010101100
1111001100000010
0001000110110101
0001101100011111
1110111101100101
0001010010010100
1111010100110111
1111111111001110
0001011101000001
0000001001010101
0001011010011010
1110101110011110
1111011010111111
0000001010110001
1111110111110000
1111101011100101
0001011011011110
1111000011110110
1111011111100110
1111101111000100
0000101101110100
0001000110000000
1111111001100010
0001001111111101
0000110101110101
1111111011101011
1111111000101100
0000011000001110
1110110110010100
0001111000110001
1110011111111011
0010010100011100
1111010011000011
1111010110010101
0000001110000100
1111001101010101
1111011111101110
0000100010111110
0000000111101001
1111101100011000
0000100101100110
0001010110001101
0001011000001101
1110010001100001
0000001011010011
0000011101111100
1111101000111111
0001100000100111
1111111010101101
0000110100101010
1111110110011110
1110111000000011
1110001000100000
1111110100100101
0001001110111101
0000111000111100
1111010101000001
0000100000111010
0000011100010000
1110111110100101
0000001011001101
0000001101101001
0000010110010001
1110101111000010
1111101111101010
1111001010010101
1110101100001101
0001100010100100
1111010011100100
0000100111111000
1111011111110101
0000000110010011
0001010111110000
0000100011011001
1110111010110111
1111101110000100
1111111110011010
1111010100101010
1111110110111010
0000100000001101
1110111010110100
0001101010111101
1111111001001110
1111000000111001
1111010001110001
1111111011100011
0000001001001001
0000010000001110
1111001101010100
1111000100011010
0001101001010000
0001010001001100
1111100101001000
1110011111100010
0000001001101001
1111111101111111
1111111010000001
0001100011010000
1110111111001111
0000001000000001
0000011000001110
0000011011000110
0000011000011111
0001001110110000
1110110110010100
0000001000010111
1111100100010110
1110110000110100
0000000001001101
0001011110000101
1111000000101111
0000010000111011
1111111000000111
0000000110111001
0000011000111101
0001000001010011
1111001100111101
1111111111010111
0001000010001001
0000000010011010
0000101100000110
0001011110011111
1110111100110001
0001101111000110
1110100110111101
1110100001110101
1101111111111001
0001100010111101
0001001010010110
1111111001111101
0000111000011011
0000111110101110
0000010111010110
0001110101100100
0000001001110011
1111011101001111
1111111111100101
1111110000101010
1111110010101110
0000001111001100
0001111000010111
0000000110100100
0001101001000110
0001000110000011
1110111000100111
1101100100000001
0000000101100010
1111101000110110
0000100011110100
0000001001101011
1110000100000001
1111111011101010
1111111000111000
0000101101010100
1111010101101001
0000010110111001
1111101111101011
0000100111010000
0001011111111001
0000110001100101
1110110010010011
0000110010011100
0000011001010001
1110111010011000
0000001010101100
0000100110011111
0001100101001110
0000110011000111
0001100111111011
1111110101111001
1111010010000110
0001000011001110
0001000110101011
0000000110000001
1111111011101000
1111011001110011
1111111000011011
0000111101001111
0000001111010010
0000011101111101
1111011111101101
1111110000000001
0000110111010011
0001001010011101
1110100011001101
1111101010100010
1110101110010111
1110100101011001
1111101100011100
0000000111110001
1111001100010100
1111011001001010
1111001111011111
1110011000111011
1111101010101011
1111000011100111
1111010100100011
1110000100100101
0000101111011011
1110110110001001
0000010111001001
1111110101110001
0000001011000011
0001011111110101
1111011111111111
1111011101101011
1110101100000011
0000001101101000
1101110110101101
1110111010111001
0010000101101011
0001000010011000
0000011100001010
0000010101100111
0000011001101111
1111110000011110
0000010000000100
1111110111100110
0000111111100000
0010001110111001
0001101100101011
0001001001011111
0010001011001111
1111000111101010
0000010100100011
1110111010111100
0000111010100110
1111100010100110
1111100101000001
0000011110111001
1111011010010111
0000010101111101
0000110100101001
1111000000101001
1111010100110110
1111101110000100
1111101100000111
0001110001010110
1111010100100001
0001100011100010
0000010000100111
1111111101011110
0000011010000100
1111110010000110
1111110111010000
0000011110100011
1111010001000001
1110101100001101
1101111101011011
0001110000000001
1111010001101011
0001000100110011
0001000100001010
1111001111011011
0000110100110101
1111111110010000
1111010111110101
1111000111101110
0000001011000110
1110101101101001
1111110000111100
1111001011111010
0000010111001010
1110101000100110
1111010001010011
0000100101101011
1111110000110111
0000110111100010
0001010001011001
0000000001000001
0000000011110000
0000111010010101
1111111011110110
0000111101110100
0000100101100110
0000010110111010
0000000010011110
1110101010110000
1111101010110101
1111100001010011
1110110001010010
0000000110001101
0000101001010100
0001001001101111
0000001000000011
0000011001011111
0000100111001111
1111101111010000
0000101110011011
0000011000101110
1111100101101011
0000001000100100
1110101101110100
1111101110000101
1111011011101001
0000010111010100
1111100000111100
1111000001100110
0001101110110011
1111100100010011
0010000100001110
1111100111000001
0010001101101101
1111110011110111
0001001100010001
1111111111001100
0001100010000010
1101110111000011
0000011001010101
1111011110111111
0000010110100111
1101111011101011
0000001100011001
1110011110000000
1111100101110110
1111000000101001
1111100001010011
1111111001001111
0000011000101100
0000001100000011
1110110011001001
1111000101010000
0000101001111000
0001001110011101
0000000011110111
1111011111010011
0000111011100010
1110110011010011
1110110010100101
1111100010110000
1111101001011101
1111111100110010
1110000001010110
0000011001101110
1111001111110010
1111101011010100
0000010110110011
1110101100000010
0000000100010111
1111011111101101
0000001011011000
0000010100011000
1110111010100011
1111101001000110
1111001101100110
0000000000110101
0000011010000011
0000001101001001
1101111011001100
1111100011010001
1111111000111011
0000111001100000
0000010000110010
1111000011111110
0000011100010111
1111110110100101
1101100010111111
1111000011110100
1111101100000011
1111101101011010
1110010011100111
1111101100110100
1111110100010111
0000010101101010
0010000101100011
1101111100110111
0000111001100010
1110010110001101
0000101000000100
0001001010010111
0000000100011001
1111101010000111
0000001011110100
1111010001010010
1110010111100110
0000101101001000
1111011111001101
1110101111011000
1111110001000110
0000001110001000
0000101001010110
0000111000110101
1111101001110010
0001010010111111
0000100000100110
0001001000000000
0000101010010011
0010001001110110
0000000111100110
1111011101011011
1111101111100110
0000000011101110
1111110101000011
1111100001101111
1101011001001010
1111111010010110
0001011100101100
1110100100101001
1111001100110110
1111000110110101
0001011001110001
1111110110100000
1110111110000100
0000010101000001
0000011000001111
1111001010110011
0000100011000111
0010010111001010
0000110101000000
1111010110101110
1110100000000001
0001101000001001
1110110010111011
0001000101101110
0000001001000110
1110010111011000
1110010100100110
1111101000001101
1111001100111100
1111101110000100
0000001100001011
0001101000100100
1111111100000001
0010001001001100
1111001101110101
0000111101100111
1111101001011000
0000011100111001
0000001101100000
1111111110111100
0000011100010000
0000110111011100
1111110100100100
1111111100100101
1111000101000100
1111111011001101
0000011011100000
0000010100000111
0000111010111000
0000100010010010
0001100101101110
1111111111111110
0000100001111000
0001111111111000
0000000111010000
1110110110011011
0000100101101011
0000001011000000
1111110000010000
1110111000000100
1110110111010011
0000100111110010
0001011011001101
1110111011111111
1111100000101101
0000111111111111
1111110001001001
1111100101000011
0000110110000100
0001111100110100
1110110000110110
0001011101011100
1110100100100101
1111001001000110
0000100010111010
0000010100010101
1111101100111100
1111010110000001
0000010011110110
0001110111011000
0000110100001001
0001000001111010
0001100100110010
1110111000001000
1111100100011010
1111000010111010
1110101111001001
0000101010000001
0000100010000111
0000110110100110
1111001101111100
0000010100101000
0000101101101010
0000101111011100
1111101101001110
1111111101101100
0001001010101100
1101011011000101
1110110010011010
0001001001011001
0000110111100001
1110000000011011
1111110111000111
1111111101001111
1101110101010111
0001101110011111
1111011011100101
0000000111100100
1110101001001110
0001111110110000
1110010001001111
0000111011100101
0001000001100001
0000101000110011
0000101000010001
1111001010000101
1111011010000111
0000100101000111
0000001110100011
0000010001001100
1110111111100001
0000100000001101
1110001100110110
1110101111010011
1111110100110010
0000000111101000
1111101100100010
1111101100010011
0000110110010111
1111110111010011
0001010011001111
0000101101111011
0000010100001011
0001000001010111
0000111011110100
0001000000010011
0001011101010000
0001110101010010
1111010111111101
0001110011111011
1110100100110111
1110101001111110
1111010001011011
1110111011110011
1110111000111110
1111010011000110
0000100000001101
1111101110101100
1111110000011000
1110111001001010
0001001011110111
0000111101001011
0010010000110010
1111001000101010
1111101011100101
0000001001111110
0001010100111010
0001001100110111
1111001000111101
0001001010011011
1111101001001111
1111111001000110
0000001111101111
0000110001100010
1101001110110100
1110101001000010
1110101111101110
1101111010111101
1111110110100001
1111110110110010
0001110010010000
0001000001011001
0001101011101111
0000011110000001
1111111111101110
1111110100111100
1110100010100010
1111100110110011
0001010111100001
1101011001011101
1111101010000100
0000111110101010
1111011000101101
1111111000011101
1110011000100011
1111101010111100
0001000101000100
0000001010100111
1110111111100011
0001010010001010
1111100101101010
1111000110011111
0001011011011110
1110001001001011
0000011111011011
0000110010001110
0001110001101010
0000000100000101
0000110000011010
1110011110010001
0000100011111000
0000111010000110
1111010000010111
1111110110111111
1111101001100111
0001000100101011
1111001001001100
0000001011111110
1110110000100110
0001010101000011
1111110011111001
1111100010111001
1111111011001011
1111000101111000
1110111011111111
1111110001101100
1110001110000101
0000000010110100
1110101000111111
0000011001111100
0001011100000110
1111110001001000
0000001100011001
1111000101111000
0001010111101000
0000010011001110
1110110001010101
0000101101101000
1111100101111011
0000000000011110
0000010000110100
0001100110111000
0000011001000101
1110110001001100
0001100111101110
0000000100101100
0000110110101001
1110100101111001
1111001000001110
0000001001111001
0000010010001101
0000001010011010
0001101101111111
0000000000111110
1111111011100010
0000101101000111
0000100111100000
1110111000101011
0000010110111111
0000111110001111
1111000100100111
1111111001111100
1111100101100110
0000101000110000
1101010011011100
0001000100000111
1111110110010001
1101000011111110
0000000000111010
1110111101000010
1111010101101110
1111001110010001
0000111100110000
1111101001111110
1111111001101110
0011000100100011
1111111101110010
1111111111101010
0000000111100000
0000011100100001
1110111011000111
1111010011010110
0000101111011010
1111010101111110
0010000101111110
1111000011101000
0000100111011011
0000010110000101
1111010011110001
1111010101111001
1111011101101101
1111111010010101
0000101000000100
0001000110010100
0001011101111010
1110110100010000
0001011010110000
1110110000011000
0001000000010111
1111000010010110
1111110010111011
1111011000110001
0001001101100110
1111111100101110
1111100011110110
1110111110010100
0000110100101000
1110011101010001
1111011011111101
0001000001111100
0000111100000011
0000001000010110
1110111111000111
1111101010001110
1110011001110000
1111011010100001
0000100010011000
0000000010101001
0000011011110111
1111000000010100
0000110111000000
1110000100110100
0000101111111110
0000110110000100
0000000001111100
0001000100011110
0000011110000111
0001000000111001
