0001110100110001
1101110000110000
1111111011011101
0000000001111000
1111101110001111
0000100000001010
0001000100111100
0001110110010100
0000101001110100
1111001001001101
1111101110110101
1111011010110000
1111111101011100
0000111000101110
0000011000011000
0000101001101001
0000011101011110
0000100010101100
1111111111111010
1111101100110110
1111010110100010
0001001111101110
0000010101110001
0000010001011011
1111100100000101
0001001001111000
1111000111110001
1111111001111010
1111010100010010
1110010011110110
1111010101110101
0000111000011101
0000001101101101
0000001001101111
0001110000111100
0000111010100011
0000011000000000
1110010101001100
1110110100000011
0000011100110110
0000101110100011
0000001111010010
1111111000010010
1111010100100000
0001101001011110
0000101100111000
1111110011110110
1110111111111001
1110010011001100
0000000101000010
1111001111110110
0001100000001100
0010110111010110
0000001011111011
0000000000101010
0000011110101000
0000101000011001
0000001011000011
1111011111111101
0000011001100111
0000111100000010
1110110100000011
1111101010001110
1111110101001011
0000100100010011
0000110011101111
1111101010010000
1111110110010001
0000101001111110
0000100000111100
1111010001001100
0000110111100101
1111011011111000
0000010000011001
1110111011101111
0000111010111110
0000010011110011
0000000010011111
1101101000101110
0000111111011011
1111101000111110
0000100100001001
1110011101111011
0000011111000011
1111000011011111
0000001111011111
0000110001000111
1111101001010111
0001000000101011
1111100101010111
1111010110000011
0000001000110001
1110101010001010
0001001000011111
0000100000110010
1110111010101110
0001101010110111
0000101001111010
1111100110111001
0000000000111100
1111111110000000
1111001110100001
0000100001101110
1111010100100100
0001101010001101
0001010010010101
1111001110010001
1111010011110111
0001000001001011
1111100100010111
1111111100000000
0000001100101110
0000101110100110
1111001110001011
0000011010010100
1110101011001010
1111011011111110
0000000000010101
1111011110110111
0000101100001101
1110100000100011
0000110001111101
0000101001101011
1111010111010000
1111010110011010
1111101001010110
1110011001000110
1111101011011001
1111010001101101
1111001011111101
0000000000111000
1111100101101011
0000111010110111
1110011110110010
0000100010111111
0000111001010001
1111110101000100
0001111010111000
1111100001101111
1111101000101110
0000110111001011
1101110011110101
1111011110100100
0000011110101010
0000101101111011
0000011101101001
0000110001011110
0001110001001101
1111001110010111
1111011001000100
0000010001011011
1110101110001110
0000101111101101
1111111101101101
1110100111000101
1110010110100100
0000011111001001
1111000111011000
0001110110100010
1111100011100100
1111010011111101
0010010000011010
0000011101101000
1111100001000011
1111110110110101
0000100010111101
0000010010101110
0000110101001100
1111010111101000
1110011011001011
1110110110000011
1111001011111101
1110000000000101
1110111111010101
1101111000010001
1111110010110100
1111100111111011
0000001101100011
1110101011110001
1110001101010111
0000010110101100
0001101100000101
0000000100111101
0000100011010011
0010011000010100
0000000101111001
0001101101010100
0000010111001010
0000010010001111
0000001011111110
0000001100000101
0001001111111101
1110111011001010
0000100001001000
0000000011101011
0000010001101011
1111010111000101
1110010100011101
1111001110101100
0000001101100100
0001010110011111
0000111010000100
0000100110011101
1111110100011010
1111110100001000
1111100111110111
1111001001010101
1111000000100101
0001111001110001
0000000101010001
0000101000100000
1111001011010101
0010001010111110
1110111001110001
1111001100111111
0000100011100010
0000100000111110
0000001011010110
1111111111000110
1111010001100000
1111111100111110
0001010101101111
0000100110001100
0000001101000110
0001001011001111
0000000111001000
1111001011111100
0001101101100110
0000100010011011
1111001100001111
0000010101110011
1111011001101011
0000010100100110
0001110110110101
1111001100110010
0001011111110001
1110110010111010
1111001111000110
0001000011010001
1111001111010111
1111100110100011
0000010010001010
0000010000010011
1111010100101010
1111011011010101
1111111110010101
1111100011111110
1100111100111100
0001011010010000
0000011010001011
0001100100101101
0000001000111110
0000110010110100
1111011001001100
0001010111000010
1111101000100110
0000001001110010
0000100001011011
0001011100111001
1111100011101111
0001011000101000
0001100110110111
1111010111101010
0000111010000110
1111110010010111
0000001010000010
0010011010101000
1111101110011011
1111000011100010
0000010000101100
0000001010011010
1111010111010011
0000100100101110
0001000101011110
1111011100101011
0000110001000010
1110011111010110
0001000100111001
1111101101100000
0001101011010110
1111101001101100
1111010111110110
0001011000111100
0000111010100001
1111111001011110
0000001110110000
1110110001000111
1111001000101111
1111001011010100
1111010010000011
0000101100101101
1110111011010000
1111111010110010
0000010011111111
0000110001110010
1110010010101001
0001010111011101
0000010111110001
1110101000001111
0001100011010111
0000000100101010
1111110111110000
0001001011001001
1110001100110001
0000101010100010
0000000001111000
1111001011010101
0000010100101111
0000110110101001
0000000000011001
1111000101010110
0001101001100010
0000111101101111
0001000100110110
0001101011110000
1111100001100011
1111110011101111
0000001010010100
0000100011010101
1111000110101110
0000001010100011
0001001000101010
0000101000111110
1111101111010111
0000001110100011
0000110101000011
1110011110001011
0001100011101101
0000100010000110
0000101000100010
1111011100110100
0000101100101110
1101100110101111
1111111111101111
1110101011101010
0000011110000111
0000110110011100
0000000111001100
1110000110010110
0000010000100110
1110100010000101
0000100011010000
0011010111101111
1111001001001010
0000111110111001
0000100110000110
0001011110010110
1111001011111011
1110011000101110
1111101100110100
1111011101111111
1111111110101000
1111100100010100
0000011101000001
0001001000001110
1111110000011101
1101111110001000
0001001001010101
0000010101010111
1110011101001010
0001000011010111
1111111001011010
0001111100010000
0000000011010011
1110001001001111
1111010111101101
1111100110100000
0001101010111110
1110011011101010
0000101011100100
0010100010011010
1111011001100101
0000100010100001
1111111010101101
0000101000000001
1111110110100110
0000001110110101
0000100010001101
1111110100100110
0001101011110111
1111111111010001
0000101011110100
0000011011000000
1111001110000101
0001001100111011
0000011000101110
0000111110010001
1110100001010100
0000010111101010
0000100011001110
0000001110011000
0000100000010010
0000011011011001
0000110000100111
1111011010001111
0001001010000100
1111111001001000
0000111011011000
0000110001110000
1111011111101101
1110101000001010
1111010011110110
0000111011001110
0000010111110110
0000100111011101
0010010001011111
0000001011100010
1110111110000111
0000001010000111
1111001110000111
1110110000010111
1111011011100110
0000000111010101
0000011100011001
1110101111011001
1111010110110011
1111001101010000
1111100110110100
0000000111000011
0001010000000010
0000011000101001
1110100101101010
0000101100001110
1111011011111011
0001011100010010
1111100100000001
0001000101011000
0010000000100011
1111101011000111
0000010110111010
1111011101011001
1111111010000111
0000000010111000
0010010111001101
1111110011010111
1111101001110010
1111110101011010
1110001001101101
1111111010001000
0000100110000110
0001011000001010
1111001001110000
1110110100100110
0000111100011010
0001010110010100
1110110111110101
0000100111010000
1111110011001100
1110111000001001
1111100010010111
0001000011101001
0010000110111010
0000100001111010
0001100000001001
0001011101101100
1111001111000011
1110110101001110
1111100000101011
1110111100101001
0001110110001101
1111100101100011
0000111101010000
0001001000101101
0001011110110011
1111111011011110
1111100011001011
0000001000111010
1110011101101100
0001100111011000
0000110011111111
1111111100010011
0000010011111111
0000101110100000
0001011010100100
1110110000011100
0000011101010111
0000001111100011
1110100110000010
0000010011010111
1111110100101100
1111110001001100
1111000110100100
0000001001001001
0000000110000010
1111101111110010
0000011001110001
0001000100100010
0000011111011001
1111011111101001
1111111001101011
1111110010111110
0000111011001110
1111101110110011
0000000011101100
1111001011011010
1111001001001000
0000010001010111
0001101000001101
1110101010101001
1111110100111000
0000011011111101
1111011110000110
0000011101010011
0000010110010011
1110111001011101
1111110110011111
0000011010010101
0000111111000010
0001110111000100
0001000111001010
0000101100001000
1110110010100001
0000111100100001
0001011100101111
1110100001000001
0000010000010000
0000100010000000
0001100101000111
0000101111111001
0000111010000011
0000010100010110
0001010001100101
0000101111000001
0000100100110101
1111001001111010
1111111101111010
1111101000011010
0000001100100110
1110101110010101
0000000110111111
0010001000101111
1111110011110001
0000000001110000
1110011000101100
1111111000001011
1111101000100111
0001000010001011
0000010111111100
0000011100111110
1111000001110100
1111100100101001
0010010011000111
1111011000001100
0001010000011010
0000001111101010
1111101010000101
0000100001000011
0001100111101000
1111010101001110
1111110011100110
0000101001001101
0000111101100011
1101101110101010
1110011011101101
1111110111000110
0000100011010101
0000101000010101
1111111001101101
1111001010100010
0000001011010100
1111100101110000
1111100000110000
0000101011100000
1110111011001110
0000111001010101
1111110101100101
0001100110111010
1110101010100100
1110100111110010
0001100111100011
1111110000000111
0001010110010000
1111111001110010
1111011110011100
1111000011111010
1110111101110001
0000110101010111
1111001100001111
0000011011111011
1110110100111111
0001011100011101
0000011001000101
1111001111011111
0000111110110101
0001100001001101
1110111001001010
0001111110001111
0000100011100100
1111010000010001
0000010000011110
0001011000001100
0000101001010111
1101100101011101
0000101001111000
1111011011101001
0001000111000001
1111101010111011
1110111100110101
1101101001001011
0000010010001100
0000010010001011
1111100101100100
0001000001001111
1111110110110010
0001001001111001
1111010001101110
1110101001111010
1111001011001001
0001011011110101
1111110110100101
1110010111111010
1110011110001001
1110101001100100
1111011011000001
0000000111110101
0000001110110010
0000000011110111
1111101011010010
0000101010001111
1111110111000100
0000101100101101
1110101010101000
1111110000001000
0001001100001011
0000000010001110
1111010101000110
1110100111100000
0010000100101011
0000000110001110
0000100011000100
1111000010111001
0000010111000101
0010101100110101
1111101001010000
1110010001111110
0000111110101001
1111101000010101
1111101111110001
1110001000111010
1111110100110011
0000000111010011
0001011110101001
0000110010011100
1111101111110000
0000101110000011
0001001001100100
1111111000111000
1111101111111100
0001110001100011
0000011111101100
1110111010001100
1111010110001111
1111101110111000
1111010110110011
1111010000011011
0000010111101101
1111011011001100
0000001001111000
1111010111001110
0000110001100110
1110100100101110
0000101010100000
1110111010110110
0001010000000100
0000110101011001
0001010011101011
0000100100011101
0000000000110000
1111001000001101
1111110100101001
1111111100011000
1110010101111101
1111100000000100
0000001000101101
0000010011010100
0000000000100100
0001001111000011
1111000111110010
0001010011100100
0000011101001011
0010100110001111
0001100010101001
0000001001000110
1110001010100001
1110100010000001
1110101110011001
1101010101100110
0010001011110101
1110111001011100
1111011000000101
1111011011100100
0001100000001111
1111001010001101
0000100100110100
1111101110101001
0001011000111111
1110111111101010
0000001011010111
1111000110001100
0000001000011011
1110010101011110
0000101110010111
0000011101011011
0000010100111010
1111101110101011
1110101101110110
1111110001000100
0001011110110001
1111011110001110
1111111100010011
0000010000010011
0000000110010001
1111010000110100
0000100111011101
1110101100011100
0001000111100110
1111100110010110
1101111101010001
1101111111000010
1110111010000000
0000000000100000
0000010111110101
0000000111001011
1111001101100100
1110001100010000
0000010111110010
0000000101001001
0000000100010100
0001110110000001
1110001001111011
1110000100110011
1111011001110111
0000010011001101
1111011000000011
1111100011100110
1101010111100111
1111001111001111
0000010111111000
1111111100011110
1111101110010011
0010011001110000
1111100001101001
0010000011101010
1111111100010000
0000101001101010
1110010011001011
1111111101101111
1111011001110011
1110100100010010
0000010000000011
1111010100110000
0001010110001000
1111010010110110
0000011000001101
1111111111110100
0000111011010110
0000111001011010
0001111110011001
0001000111001101
0000000011111000
0000010010101001
1111000100001011
0001010110111101
0001000000011111
0001000101100100
0000010001010111
1111110101101000
0000001011000001
1111010100001010
0000000000011110
0001110111101101
0000000000111101
1111101111010111
0000111110011000
0000000011011011
0000010100000110
1111001110111110
1111000001101100
0000001010101100
0000110011001001
0001101011101101
1111111001100001
1110000111001110
1110010100101011
