1111100000100111
1110001000010101
1111101000001110
1101101001000110
0001101000000100
0000111010010110
0010001100110110
0000010100001101
1111100011000001
0000010111001011
1111110001001110
0001001100100001
0000011011011011
0000011010011101
0000110000010000
0000000001010011
1111111110000011
1111011000101011
1111111011001100
0000001101101101
0000111011011011
1111110000101010
0000100001010110
1110001010001010
1110110101011010
1110000001110001
1111110101111011
1111001111110011
1111100010011101
1111010110000010
