1111011101001010
1111110110111100
1111010101001111
0000001100110010
0000001101111001
1111011011100000
1110100011110101
0000010101010111
1111010101011101
0000001010000101
0001010101110010
1110111111111111
1111101100110110
0000011000011000
0000000111111001
0000101010101001
1111101101111101
0001011111010011
1111010010010111
0000111101000100
1110011010010001
1111110100100110
1110001100001110
1110111010110010
0000010100010111
0001100011111100
1111101111010000
0011011100001100
1110111010001001
0000010010001100
