0000111101001100
1111110111101000
0001000100000001
0000100010101100
1111101110100101
0000000101011011
1110110100111010
0001010000010000
1101110001111001
1111001100010010
0000110011011001
0000011100010011
1111010010000101
0000111001011010
0000110110010101
1111100010111001
1111000011100000
0001100100101011
1110111101100011
0000010000110100
1111101101001101
0000010101010111
1111000111011101
0000010011000010
0001011101001010
0000111110011111
0001000011111111
0000011000010011
1111101100100100
0000000111111011
