1101111000000011
1110101001111010
1111011010110101
0000111000000011
0000100011001111
0000000111111111
0010000100011000
0001000111100110
1110111111110000
0000000010011101
0000110111101111
1111101001110000
1110101101000100
0000010111011001
1111101100010000
1111001001100001
0000011010100010
0000000100101101
1110111011100101
1110100011011010
1110000101001001
1110111010110000
0000010110111100
0000000100101001
0000100110001100
0000100000111001
0001010100000101
0001011001000101
1111111101100111
0000100101010000
1111110001110111
0000001011100001
1111011011001101
1101101101101000
1110010111110010
0000101001001100
1111001111101001
0001000111111101
0000001010000000
0000100110111000
0000001110101100
0000000001001100
0000111010110100
0000111000001010
0000011110101110
1111111100100110
0000101001011110
1111010111011101
1111100101101110
0000101011011111
1111100010000010
1111100111111110
1111001111001110
1111101110110101
1111101111000110
1111101101111100
1111000001010100
0000100101101100
0000011001010001
1111100110000000
0000111100000111
1110111100110010
0000100101000100
0000000001000110
0000110011101000
0001101010101000
1111111101011101
0000101101010110
1111000110000011
1111010001101001
1111101011001111
0001111001001111
0001010001100101
1101011100111011
1111010100001100
0000110100000111
1111010111111000
1110010010111110
1111100011000000
0000010001111011
0000101010000101
0000010000100011
0000000111001011
0000111011010001
1111110100111001
1111100010101011
1111000110110011
1110011011111011
1111011000010011
1110101000111110
1110110110101000
1111100110001000
1110101110001110
1111100100000101
1111000101100000
0000010100111101
0000100110111000
1101101100011001
0000011111100000
0001011011011110
0000111000100111
0001010000111000
0000111110010010
0010000101101010
0000111011000100
0001110111100101
0000111100001110
0010000000010001
0000010011101100
0000111100100011
1101101110001110
0000010001101010
0000011100010110
0001000010110110
0001011011110000
1111101001000011
1111011000001110
1111101000011010
1111110101000110
0000000111111000
0001000111110010
0001100011111010
0001000101101001
1110101000000011
1111000100001110
0010011101010011
1111111000010011
0000111110111001
0000100010110011
0001000001110011
0000000010101011
0000100111100111
0001001000110110
1110110011011100
0001001001100010
1110111011001111
0000110110001111
0000111011000110
0001001111100101
0001010000000100
1111000011010100
1110101001010111
0001000111010101
1111110000011000
0010000111110111
0000010001110111
0001000010000010
1111101101011111
0001000100111011
0000110101111101
0000111001100010
0000100100110010
1111111000110001
1110111100100010
1110110000111101
1111101111101011
0000100101111010
1111111000111101
0010000001000111
0000010000001000
0000110011001010
1110101110011111
1110111001100100
1111111101001111
1111111010001011
0000011001111100
1110111111001110
1111011000111011
1111011100100100
0000010100110011
1111011110111011
0000101011001110
0001010011101000
0000110001001111
0001111110101011
1111001100011000
0001000110000010
0000110000110001
1110111100011000
0000100000000000
1101111100100110
0000010010110101
0000010101001110
0001101100110011
1111001001110110
0000101110000111
1111100101011010
1110110010011000
0001000101011111
1111101111001111
1110101111000000
1111000011110100
1111110000100000
1111100010110111
1110100010010001
1111000011110010
1111110100110000
1101101010000101
1111000001101100
1111011100011010
0001111001110000
0001100010100110
0001011011101111
1110101011000010
1110100010100101
0000101000100110
0000000111000011
0000001001010101
0001110010100011
0001001011001000
1110101001000000
1111111000100011
1111111101010101
0001110100111111
0000000101001000
0001001101010111
0010000101100001
1110011101001010
1110011100111010
1110100011110101
1101000000011111
0000000110000011
1110100010000101
1111001100001010
1110110101100101
0000111000000101
0000000111101011
0000011000010001
0000010110011100
0000110010101011
1111110111011110
0000000101001000
0000011000010011
1111101010001100
0001000001010001
0000010000001101
1110111011100101
1101110110011110
1110110011001100
0010011000010010
0001011111010101
0000011111010100
1111100100100101
0000011000000111
1111110100000010
1111100100101111
0000001011111010
1101010001111100
1110100010000011
1110010111010010
1111101001010010
0000100001100011
0001010011100010
1111011001101001
1111110000011101
1110100111000111
0010011000001100
0001011010000010
0000100000010011
0000000100111111
1111101011011111
1111000000100000
1111011000111000
1111010101011101
1101101110010011
1101101001101011
0001001000001101
0001100011111000
0000101111010010
0000101101100111
1110111100110101
0000101011100111
0001100010100010
0001001011000000
1110010011010010
1111000000001000
1110111011011011
1110110010010110
1110110000101001
0001101110000100
1111101011011111
1111101100100100
0000100000010100
0001001100001000
0001111100011011
0000111000101010
1111101100010010
1111110111111100
1111100111110111
1110101011100000
1110000010101110
1101000001101010
1011100110100010
1111000000101000
1111011101000000
0001011011111110
0000000101111101
0001100111010010
1111111001111000
0000000010100110
0001100110000100
0000001001011111
1110111001000111
1110000001010101
1110000000011000
1111101011001010
1110111000010000
1111001111111110
1110100110010010
0000110100111010
1111100001111100
0000000101100100
1110111101111011
1110001001101010
1111000101011101
1101110011111101
1101001011110000
1100010101010111
1100110110011100
1110110000001101
1110111110101000
1101011101010001
0001000100111110
0000010100111000
0000101100111010
0001101100101101
0000100101101000
1111010100110100
0001110010110001
1111010110110100
1111011111100011
0000010001011111
0000100111001001
0000100001110000
1111010111001101
1111011111001101
0000010110001111
0000001010001001
0000010010011110
1110101101111010
0001001111010010
1110000010000000
1101001000010100
1101010101101100
1101101110110100
1101110110000001
1111111001001011
1111111001011111
0000001011100101
0000010001111000
0000000111000100
1110101010011010
0000101001110011
0000010101010110
0000101101100010
0000010111110010
1111001110100101
0000001010110101
1111010011011111
0001011111101111
1111100100111011
0000110010100000
1110111010010001
1110110001011111
1111001011101111
0000001000010010
1111110110100010
0001001101010000
0001010000101110
1111010011111010
1110111111011101
1100101101101011
1110101000101001
0001000011001010
1110110000111111
0000010000110000
1111110110000110
1111011000110101
0000010011101100
1111111111100000
0000111110100010
1111010011011010
0000010110100111
1111111000101100
1110001000011011
1110100000001100
1101111111010011
0000011010010111
0000001000111011
0000100000100011
1111011011000011
0000011001000110
0001000001001011
0001001000000101
1110110010100101
1111000010000010
0000001110001000
0000110001011101
1111110111101101
1111001000111010
1111010010001001
0000101111011110
1111010111110101
0000100001101000
0001000000110001
1110111100101011
0000101000110000
0001010011110111
0000000111101010
1111100100101001
1111111100111010
1110111101101001
0000000001001010
1111100000010101
1111111011011100
1111101101100011
0000010000001101
0000010010100001
0000000110111001
0001100011101000
0001101110101100
1111101011111110
1111010111011000
0000001000011001
1110101111110101
0000010100000010
0000111110110011
1110111000001110
0001010010001010
1110000111101101
0000011110100100
0001000010110101
1110110000110100
0000000101110110
0000000111010111
0000000101011001
0000000101001100
1110010111111101
0000111011010111
1111101111101010
1110110010010011
0010001001110101
0000001110100001
1111001100001110
1111110110011010
1111010101001000
0000011010111101
1110100110110000
1101101100010011
0000110011111111
0001110010101101
0001010111110100
0000010011010111
0000001001000100
1101010100110010
1111010010001110
1110001111010110
0000111100011010
1110101001111011
1110111111110101
0000111111010010
1111000010010100
1111110000110010
0000011110010001
1110111101010100
0001100110101111
0001000000100001
0001100110000010
0000101001101111
0010010101101010
1111111001111000
0010111011011010
0000000110111100
0000111011001001
0000100010101011
1111011110101001
1111100011000100
1111101010011100
1111011001100001
0000011100000111
1111110001101011
1111101100010111
0000111011110001
0000010011010011
0000001100000010
1100010101011001
0000101101110100
1111101110000010
0000111001110110
0001000010110111
1110110111100110
1111100011011110
0001001000111010
0000000000010011
0000010001001001
0000001110010110
0000110110111111
0000111000110011
0000100110111010
1111110100011010
0000110100001100
1111000100110100
1111001100000101
1111101001101001
0001101001011001
1110101011101100
1111010010001001
0001000100010000
0000010010000101
0000000001110011
1110000110001110
0000101010001101
1110110101100001
0000100110011111
1111010011110100
1111011111011010
1111001001000010
0000010100100011
0000010001110111
1111110000100010
0000101100011001
0001011000011011
0000101111010011
0000000110110111
0001000010011010
0001001011100000
1111111000100011
0001000101110001
0000110001011000
0001011001100111
1111001111011110
1111110100101010
0010011110101110
0000101111111000
1111001100111000
0001011111101111
0000011000010110
0000110000011001
1110110101110111
1111001011110001
0000000100001110
1111000011110000
1111011001111111
1111111010001111
0000000111101111
1111001001000011
1111110111100000
1111011011101001
1111111001101000
1111001110110100
0000011010011111
1110110000010011
0001001011010010
0000110001111010
0010110000011000
0000100010001101
0000111111100111
0010000100111001
0000100110000100
0000101011100011
1111011001110100
0000000100111110
0000000001010100
1110100001000110
0000111100111101
0000011101101010
1111001010010101
0000011100111010
0000110110100010
0000000100100010
0000100001101000
1111001011010001
0000010100110101
1110111010110110
0000011000011111
0000000110100111
0000101100110001
0010100010101011
0001101101100100
1111001001111000
1110110101101011
1110011010101100
1111101000011100
1111110101001100
1111101010110111
0001001100111010
0001010100110111
1111110001001111
1111000101101100
1111001000000101
0000100001101000
1111100111011001
0010001011110100
0000100011011101
0000001100110010
0000110011100011
1111010110101111
1110111111000111
0000010101001100
1110111100110110
1111010000000001
0001010000101001
1110100010001011
0000011100000101
0000001101001101
1111000100110110
0000011101011111
0000011100111110
0000101100100100
1111111101011011
1110000000101111
1111101100010101
1111011011111101
1111011001111111
0001001101100101
1111011010001011
0000110110011101
1111000010010101
0000011010100001
0001110101010000
0001000101110110
0000110100110111
0000000011000111
0000001101010111
0000010001000000
1111111001010000
0000110101110000
1111010110111101
0000110011101010
1111010000000101
0000000110001110
1110100100011000
1111000001110100
1111101100111100
0000100001110011
0001110000010110
1111110010001100
0001000111000000
1111000010011110
0000010000011010
0001010011010011
0000001111010000
0001101100101010
0000100010100100
1111111111101010
0001000101111110
0000000111011010
1111011010111010
0001000011110100
0000110111001000
0001111111001100
0001000000110010
0000010110101111
0000001010101011
1111110101111110
0000110101101001
0000000110011000
0000010000000100
0000011101001100
1110111111101000
1111111001110111
1110101100001101
0000110001010000
1111101010000111
1111111101111110
1110001011110110
1111001011100010
1110101111111001
1111111001101101
0001010001111011
0001101000110111
0010000001101000
1111000000000011
1110100000101010
0001001111001101
0000111101111110
0000010011011011
1111101011110010
0001010000111110
0001011100001101
0000000001001111
0000010010100110
0000000001010100
0001110111010110
1111110100000110
0000100001001111
0000101110100110
1111011000010010
1111001110110111
1111110010110000
1111001001010011
1111111101001101
1110011111010110
1111000100101011
0000111101100010
1111011010110111
0000001101000000
1110101011101001
0000000010010101
0000011010001011
0001000111111010
0000000011010100
0010011101101111
0001000110010001
1110111000011001
1110111110101010
0010001101011001
0000011101000111
1111110111001000
0010000110101101
0001000100000000
0001001111100101
0000110000010000
1111011100111110
1111110110001100
1111111111010100
1111111000100111
1110101101010101
1111001111111100
1101111111011110
0010001010000010
1111010110011010
1110001001010111
0001000011101101
1110110000110011
1111110101101111
1111001001101100
0001100011000010
0000100001100011
0000001001001000
0000100101110110
0000011100110111
0000010110001001
1111110101111100
1110110101011011
1110110000110011
0010000110010110
1110101101000100
0000110011101001
0000101001010001
1111110101001101
1111111100101100
0001000100110000
0000110101000100
1111010100101001
1111110010110101
1111001111001000
0000001000001011
1110111010011100
0000101000111001
0000101001111101
0000001100100100
1110111011110001
1110010000000111
1111111011110000
0001010111000100
1111110101100011
0000111000111010
1101110001100001
0001000000110010
0000110000111010
1111100010000100
0001011100001101
1111000101101011
0001111111000111
0000101110000000
0000001011010010
0000111100110110
0001011100011110
1110110011011001
0000001010101011
0001110001000001
0000000001001101
1111111010011100
0000001100000011
1111111101101110
0000010010110110
0000100010011011
1111000111010001
0001101001101111
1111101011101100
0000010011110111
0000100011010101
0000000100110001
