1111010111111010
1111100110001011
0000010001100001
0000000011111100
0000111001000100
0000001100101000
0000000110110010
0000110010000100
1111110010111101
0000100100110000
0000011011010111
1111111011111011
0000110111000010
1111100000100100
0000010000100000
1111110100100111
0000000110000111
0000100001010101
0000101111100101
0000111010010100
0000011111111101
1110111101110101
1111011111000111
0000100011001100
1111000100001001
1111011001011110
0000101010001101
0000011000000001
0000000110011010
1111010010101100
0000001110000010
0000011110010001
0000101000110011
1111100001110010
0000111000111011
1111110011111011
1111110110110100
0000010111100111
0000001110110101
1111110110001011
1111111011001000
1111010101001001
0000110100111010
0000010100101011
0001000100000011
1111100001101110
1111101011101100
1111011001010110
0000001100111110
0000010101110100
1111110100101010
0000111100100110
0000011100101000
1111010110101111
1111101011111000
1111100100100011
0000101010111000
0000011000000110
1111011100001111
0000001110001011
0000000111110111
1111111011011001
0000001001101100
1111100111101001
1111100111101010
1111101111101011
1111111100000001
1111100011101001
1111111110010100
1110111011101011
0000011011101110
0000011010001111
0000110100010110
1111100010110111
1111100001000110
1111011000100110
1111100110111100
1111111011111111
1111000010101011
1111101110010001
0000011101011001
1111101010011010
0000001101100100
0000001110010010
0000000100000001
1111101000111111
0000011100010001
1111111010001101
0000111101011101
0000101110010100
1111100101001010
1111000100111011
1111010110111100
1111111101000010
1111101111010110
0000100101110111
1111010110010000
0000011111010011
1111100000100000
1111011010001011
0000000010010111
1111110110000000
0000111110010001
0000001100100100
0000001000111110
0000101110101111
1111110000000001
0000110001011100
0000010010101010
0000100100100100
0000010101000010
0000010011001101
0000000111111111
0000111011011100
1111110101111101
1111111011011100
0000001111010001
0000101000010010
0000010100010001
1111100110101000
0000001001101010
0000100111111001
1111010111101001
1111101101000111
1111111101001110
1111111000110011
0000010111010010
0000101101011000
0000010101000100
1111100000011101
1111101010000111
0000001100100011
0000001100111010
1111111100111101
0000011001100101
1111101011100000
1111110101010010
0000100010001011
1111101001101011
0000000001100110
1111111000010000
0000000100000011
0000011010010111
1111110011011001
0000100010000101
0000111011011111
0000001100010010
1111111000110100
1111111100110000
1110111101001011
0000010101011100
1111110000000100
0000001000011000
1111100100001011
0000100110011010
1111101011011011
1111111011000000
1111111111011100
0000100111101001
0000101111010011
1111000110110001
0000010110011100
0000100101001100
0000001111111010
1111110010111000
1111111110110001
1111111001111110
0000010111100011
1110111110010111
0000011111000110
0000010001111010
0000100110101110
0000000110101000
1111011010111001
1111110111011100
1111101000101011
1111111000100001
1111101011011111
1111110011000000
0001000110000001
1111001001110010
0000100110111110
0000011110000001
1111111110110011
1111111111001111
0000010010111001
0000110110000100
0000010000010011
1111111000100000
1111111110010111
1111101111001000
0000001110010000
0000011010111111
0000111000101100
1111101000001000
1111100111011011
0000100011111111
0000110100011010
0000011100001010
1111100101100000
0000001010001010
1111000001010010
1111110011101000
1111001100000111
0000100101010010
0000010011000010
0000001011001110
0000101110110001
0000111111110101
1111111100001010
0000111101010011
1111001111100000
1111111101100100
0000100001111000
0000010110111011
0000010000011100
0000010101010000
0000101110000111
0000110111000101
1111010101110110
1111110010011000
1111100111111010
1111111000010111
0000100110110100
0000001000011100
0000100001011001
0000101111001000
1111010010110110
0000110110101111
0000010101010100
1111011101001110
1111011111000110
0000101001010111
1111101110101100
0000111001100011
0000000101011111
0000001101101000
1111001111100010
1111111001000001
0000111001000111
1111101011001010
1110111011010110
1111111100110101
0000010010101000
0000001111010011
1110111010001101
0000000100011011
1111110000001110
1111101010110100
1111000101111110
0000001111110110
1111101110010100
0000000001010101
0000100110000000
1111111100100111
0000010010111111
0000000010000111
1111110011001001
0000000000011101
0000000000001010
0000101111101101
0000011111110011
1111100001001001
0000000010101100
0000100110010111
1111101111101110
1111110000000111
0000100100100111
0000010010101001
0000000111001000
1111011011010011
1111110000001100
1111101101011011
0000000110010101
0000010011111111
0000110111010011
1111111111101000
0000000010000110
0000100001011100
0000110100111101
0000101011001000
0000100001100101
1111100011010011
1111011110010010
0000101001100110
1111111110111010
1111101100101110
1111110110110100
0000101000101001
0000101100100000
0000000010101101
0001000011101110
0000110011110111
0000100111000010
1111101101001000
1111101110110000
1111011100100111
0000001110111100
0000010100010000
1111101010111001
0000001111101010
1111111001101011
0000101010110001
1111100101000010
0000100000000000
0000000000100011
0000000110010100
0001001101001001
0000011100101101
1111011011001000
0000011101000011
0000110000000000
0000000011000001
1111011101010110
0000010011110111
0000000101011101
0001001100101110
1111011110011001
0000010000001001
0000000101010001
1111110100000100
1111101000001000
0000000000100100
0000001110111101
0000111110100111
0000010001110010
0000011011011001
0000000000000110
1111100110010111
1111011110101101
0000011101111000
0000011100101111
1111001101100011
0000001001011000
0000011101000000
1111111001101100
0000011100100011
1111100111111011
1111110100101001
1111001011010100
0000001111011000
0000011001011101
0000010010011010
1111110100001111
1111011010011010
1111111001111000
1111111110101111
1110101010111010
0000001001110101
0000000100111010
0000011111011011
0000011110111001
0000101000001101
0000010011001101
0000010001111100
0000000010000110
1111011010111001
0001000000001001
0000010000110100
0001000011000110
1111101011001111
0000001000110001
0000010111101110
0000101100001000
0000010010110101
0000000110011010
1111110101110010
1111011101100101
1111111000101111
1111011010100001
1111100001101001
0000001110101111
0000010001110000
1111110100110100
0000110000101111
0000000001001011
0000110001011110
0000100000011011
0000110111010100
0001001110101111
1111111011001100
0000110011111111
0000001101011100
0000000110101011
1111011000110110
1111111000011101
1111110111100110
0000100101011100
1111110011011010
1111111111010011
0000101010001100
1111100001101111
0000001011011001
0000101000001111
1111101000010010
1111110100101100
1111110111000011
1111111110001010
0000100110111000
0000111100010011
0000110101001001
0000000011010110
1111001000100001
0000010100110111
0000011111110010
0000100100011100
0000011010100001
0000011001010100
0000001101100000
1111010000010000
0001001010010101
0000111100001100
0000010100101001
1110111110100111
1111101110111010
0000000110100110
0000010111101111
1111111000100110
1111111011010110
1111111001001110
0000100011111100
0000010000010111
1111010011110111
0000100100100101
0000010101011000
0001000001000100
0000101011000011
0001110011101010
0000110111001010
0000010010111110
0001000100011000
1111011011010010
0000001110110101
0000001100000010
0000000101111110
1111110011001110
0000101100100101
1111110011100011
0000100101101111
1111111010010011
0000101000000001
1111010000100011
0000100101010100
0000000011110010
1111111010100011
1111101100111000
1111111101011101
1111011110101101
0000100000011111
0000011010000011
0000110001011000
0000010001100101
1111101011010101
1111010100110110
1111111010011111
1111101110011110
1111010111001011
0000011011010000
0000001111100000
1111111101101110
0000010100101100
1111100100001001
0000000100111111
0001000111000001
0000010110101010
0000000010101111
1111101000001011
0000100111000001
0000010101001011
0000001001010101
0000011001100111
1111101100111000
1111101111101010
0000010111100010
0000001000101110
0000010101000011
1111111011001101
1111011100100110
0000110000111000
0000010000001010
1111100111001100
1111111001111000
0000000011010111
0000011101111011
0001010100000001
0000100000010111
0000100110010111
1111010010000010
0000010010101110
1111111010010000
0000001100100011
1111001111000000
0000110010000100
1111111010010011
0000101000001000
1111001000111111
1111110100100111
0000001100110100
0000000000101101
0000110000010010
1111111011101001
0000010111101100
1111001000110001
1111100011110111
0000100101000100
1111001001000001
0000000101110000
1111011111001010
1111010111011111
1110011111100101
0000001110000101
1111100110110011
0000011010001110
0000001101010111
0000000001010111
1111011100100001
0000010111110000
0000001000101110
0000011111001110
1111110101001101
0001000100010100
1111110000010001
0000001001000010
0000000001000110
0000110100110000
0000000111001011
0000011110001011
1110101111100100
0000000001100000
1111100001010100
1111110010110000
1111100010110001
0000001000001010
1111100000011000
1111111101011010
1111111100000101
1111110011000111
0000000000111111
1111101000010111
0001000010010001
1111111111001010
0000001100010110
0000100110001101
0000010001111001
1111101011011111
0000100100011011
1111100110100001
0000011011110011
1111111101010000
1111000101001110
0000011001011010
0000001001000101
1111101100101000
1111110010110000
0000011110100110
1111110011010000
1111111100111000
0000010011000001
1111010000001011
0000110011110011
1111111000001101
0000000111111001
0000000101010101
1111101010011000
0000010011111110
0001000001010100
0000011000001001
0000101111001110
1111110011011000
1111110010010111
1111011001000010
0000011100111001
0000100001101101
0000001001010000
1110110011001011
1111101010111100
0000000101011010
1111100001110010
0000011001000110
0000001001100110
0000011001101111
1110111111000000
0001001011001111
0000001111000000
1111010111100110
1111001011111001
0000111101000000
1110111011110101
0000001101010011
0000001010001010
0000001111000000
1110101010101011
1111111111011110
0001000100001110
0000001010100110
1111110100010010
1111101100000110
0000100100010000
1111001101011000
0000011100000100
0000000010110111
0000100111011110
0000010011100011
0000011000110000
0000011001100101
0000101110011100
0000011011111100
1111110111010101
0000000001010101
1111101100011100
1111111101111100
0000000001110000
0000101110000010
0000000100010001
1111111010001011
1111111111000101
0000000011111110
1111011111110001
0000100001011111
1111001001011011
1111000101000001
0000100010110010
0000010000001000
1111101101011111
0000000110100101
0000000101011010
0001001000110000
0000001000010001
0000101101111110
1111101100011111
0001001101000000
0001011101011000
0000101001001011
0000011000000011
1111010101011000
0000101010001101
1111110110001111
1111010111101011
0000001000100101
0000000101101101
1111010011010111
0000011010001111
0000100110000100
0000001101011100
1111100111101111
1111110010100010
1111100011000100
0000000111100111
1110101001011000
1111110100000100
0000101110001100
1111111110101110
1111111110011110
1111110111100011
1111011100000111
0000100111001101
0000011010101001
1111110110101101
1111011000011110
1111110000000101
1111000011010000
1111101010100010
1111100001101101
0000011001001000
0000010001000110
1111101001101110
0000000000010001
1111000110100100
1111111100101001
1111110000011010
1111111010110010
1111111000010101
1111111011011110
1111101111011010
0000100001101111
0000001000000010
1111110110100001
1111111010010010
1111111010100110
0001000010011111
0000100101001100
0000000011111100
0000001101011010
1111110001111011
0000010100110110
0000001010010111
1111110101010101
1110111011001100
1111000001001010
0001000010111111
0000000110101010
1111010001011010
1111110000100101
1111110010000010
0000100101111011
0000011010011100
1111001101010101
1111111001001110
0000000100101111
0000010011101001
0000001101001110
0000000001010111
0000010011010001
0000000110110111
1111100110101000
1111011010111101
1111110011110010
0000001111001011
0000110000111100
0000010001000111
1111101101011000
0000000000100011
1111001010110100
1111010111011110
0000101010111100
0000000100100000
1111111001011111
1111010100011011
0000111001010100
0000000101100110
1111101000000110
1111000101011011
1111100000010010
1111111001010010
0000010100010011
0000001001011000
1111101110000111
1111011000001101
1111110011110010
1111100101000111
0000010110101111
1111111100101001
1111111010101011
0000000101110000
1111001111001000
0000001010010000
0000100011010111
0000011010010101
1111011000100000
0000001011000011
0000101010101010
0000000111111111
0000011010000001
1111111111100111
0000110001101011
1111100101010101
0001001101111001
0000010101000101
1111111000001011
1111101110110101
0000000001001101
1111110000000100
0000011101000101
1111010000110101
1111110000110111
0000000100000011
0000001111010111
1111110101111010
0000010111100110
0000001001011010
1111111111110001
0001010001100101
1111111101101011
1111111011100100
1110111111111001
1111101100111100
0000011010111100
1111011000100101
0000010110101101
1111110000001110
1111110011100000
1111111000101001
0000100111100001
0001000110101111
0000101011101100
1111100111010010
0000000111110001
1111100101011001
0000000100010111
1111110100011010
1111110100110011
0000101100010001
1111010100100010
0000000111100011
