0001101110010011
0000100010011110
0000010010101001
1110101011000101
0000100100101000
0000100111001000
1110100110100110
1111110011001010
1111100001111000
1110110010010001
1111111111010011
0000000000100000
1111011001000000
0001010000001100
0000100010111101
0001000010111010
0000100001111110
0000001011011111
1111101010001000
0000111111101110
1111101100101011
1111110101111101
1111000010010000
1111000101110110
1111000000111000
1111010000010111
0001011010000011
0000011001000001
1111000000100000
0001001000010011
1111000010000000
0000001000111110
1110110110101011
1111000010000101
0001001000101001
1111000011011011
0000000000000101
1111111011000110
0000000101100101
1110110111110000
0000001000101100
0001000100001101
1110110000110010
1101001110110111
1110111100101001
1110100001110001
0000000110100110
1111111001001010
0000000111100110
0000001110010011
1111010101011110
1111100100101101
0001001011101111
1110111101001000
0000011101011100
0000000111010110
1111101110010101
1110111000110000
0001001010000011
1111001111011001
1110110010110011
0000111100101011
1111001110100000
1111100110001000
1111111111010100
0000001100001000
1110010110010011
1111000111011100
1111101110010111
1110001100110010
0000101011001100
0000011111000100
1111100100001000
1111000110110010
0001000000110010
0001001110111000
1111010011110110
1111111111101011
1111110000100001
1111010100001010
0000000001110110
1111110110010010
0001010000001111
1111000000110001
1110111101010100
1111011000001100
1111101100101000
0000111001011001
1111011101111010
1111111010001010
1111011111010001
1111111011111101
0001010001010100
0000011000111001
0000100101111011
0000100000010010
1111001011111101
0000101101000110
0000100010011011
0000000111010110
1111000100010101
1110110100011100
0000000001010100
1101111001000110
1111000011000110
0000011010101101
1111011000010100
0000011100111001
0001111111100011
1110111111011101
1110011011000000
0000001111101010
0000000001101000
0000000100001010
1111111001111000
1110101100111110
0001101101110111
0000000000100011
1101110101100001
1101110001111000
0000010001010010
0000100001111010
0001100100001010
1111101011100100
0001000101001001
0000101101101010
0000011100110011
0000101101000010
1111001100101100
1111111010101111
1111100001110011
0000000100110000
1101111001111000
1110111010100101
1110111110111001
1111011011000111
0001111110010111
0001001101101011
1111000100100111
1111110100001000
0000000010011000
1111101010111000
1111001110010001
0000110110100111
0000100011010111
0000110100100101
0000001101010111
1111010100000110
0000011100101101
0000010111001111
0001100000001111
1111101001100000
0001101010001000
1111100110010101
0001100111110110
1111100001100011
0000000101100111
1110101001010001
1111000011101001
1111100011011110
1110010000101001
0000010011111110
1110110101100001
0000111000010010
0000110111111101
0000010100011011
1111101000100100
1111100011110110
0000111010101010
0001010000000000
1111100000000110
0000100110010011
1101110111001110
0000111001011100
0001010011010011
0000001001110101
0001011001111101
0000010001100111
1111101110100111
0000000000001011
1111110000011110
0000010010011001
1110110100010111
0001011000111100
0000110100000110
0000010000110101
0001100001101000
1110001100111110
0000101000000001
1111001010100001
0001000110110000
1110101000110100
1111001101011011
0000100011010010
1111010000011111
0000001100000011
0000101110111011
1111111110010010
0000011010101111
1111011001011111
1111000001000100
1111011011000010
0000110001011001
0000000101101100
0000100010100011
0000110111011010
0000001101000110
0001111001010001
0000111110110011
0000011010010000
0000110001010000
1111101101000011
0000011001010101
1111110110001011
0000011000011110
1111100000101010
0000110010001000
0001100011001110
1111111101001111
1110101110010000
1111110111100110
1111101010010110
1111001011111111
0001101010110010
0000010000100110
1111101111111110
0000101011110000
0000011011111011
1110110110011101
0000001011100110
0000100100111010
0001011101110011
1110100110000011
0001001100000011
0000111011011101
0000101000110100
1111111111101000
1111100101011000
0010000110010000
1111000100011001
1111011001111001
0000000010100000
1111000100111010
0000111010001011
0000111011011011
1111001001001011
0000100001001110
0001001110100111
1110100110100001
1110000000010110
1111100100110011
1110111001000100
1111101111100101
1101110001010010
1111110010111100
1110100111010110
1111001101001010
0000010000001000
0000100101001111
1111010111011001
0000011110011000
0000101000100001
0000100011100000
0000001001101000
0001010101010110
0000010110100100
0000100000001011
0010011100100001
1111101001110100
0001010011110000
0000111111001100
1111010011001110
0001110010011010
1110111101011101
0000111010011000
0000000111110001
0001111100101110
1110000110101110
0010010100110100
0000110101101010
1110110010110000
1111010010100000
0000110011101001
0001000001001000
0000001110110110
0000101001100110
1110111101011000
1110111000100000
0000000010111011
1111110010011010
1101110100011001
1111001110100100
0000001110001110
1111101111101100
0000111001011100
0000101111101100
0000000100101100
0001000000001101
0000110101001111
1111111000111100
1110101101010000
1111111000011101
1110001110001101
0001000100110111
1111011101010111
1110011111111010
0001000110100100
0000101010110111
1111011100101111
1111100101010011
0000111001101111
0000101110110010
1111101110110100
1111000011100000
1110001011000010
1101110000001011
1101110101011011
1110101100001000
1110110010101011
1110100101110110
1110001011010100
1101100011001000
1110001010011110
1101110110101111
1110111111001000
1111000000000011
1110001001100110
1110100000010000
1111000101110001
1111110010001011
1111100100001101
1111010011000100
1111101000010100
0000110000110111
0000111001111001
1111110011101011
1111001011010110
0000101101000011
0000000001111011
1110010011110010
1101100000010100
1110101000101010
1101011010100111
1101001000011000
1100101100100011
1100101111001001
1100000000101110
1101110101100101
1100110100011000
1101011111100011
1110010010100101
1111101110000001
1110010000001010
1111010110001101
1111110001001000
1111011101000110
1110010001111011
1110000101110011
1111011000011111
1111001011001110
1110111100000001
0000000010011101
1111001100110101
1110011100111100
1111011010101011
0001000011001000
0001001001001011
0000010110110101
1111000010101000
1110011101100101
1101110100011100
1101011100110100
0000001111010111
1100111111110010
1111000010010000
1111111100001100
1110101011101010
1111010110011011
1101111111101001
1111000001011100
1111010100010000
0000001101111000
1110010000011011
1111010111100110
1111001000001011
0000111101110011
1110000111110011
0000001010000011
0000101011011011
0000100111001110
0000101000110000
0000100010001110
1111100111111010
0000100010111100
1111111000101101
0001100000101100
0000000001001001
1111101000010000
1101001100101001
1111001011100111
1110011010001111
1110110101110100
0000001000101101
1111001010101001
0000000100110111
1111110000100011
1111100001001110
1110110000011101
1110011101000001
1110011111101100
0000101000111010
0000001100101001
1111010011100110
0000001011110111
1111110011010000
1110100110001100
1111111100001000
0010000001000100
0000011001100101
1111111010111010
0000111010001100
0000101111111110
0000001001111010
1110010111000011
1110100000010111
1111011001110111
1110101000100101
1110010011000010
1111100011101000
0000110101001100
0000001000111111
0000011100100110
1111000101111011
0000000110000100
1111011111001000
0000001001101010
0001101101001111
1111100111000111
1111001011010110
1110110101000110
1110101011000011
1111100110110100
1111100000011001
1110101101011100
0000011000001110
1111001011110100
1111111100111101
1111011011000111
0000011011111000
0010111011001101
1110111111000101
1110111011100011
0001011110000100
1101011111111000
1111010110001110
0000111000000011
0001111001001000
0000010101010011
1111111111110010
1110111111100100
1111110001000001
1111100110000110
1111011110110111
1111111111001010
0000101111101100
0000001101001010
1111101000001110
0000110101001101
0000101111001010
1111011111100100
0001000001001100
0000001001100010
0000101001001000
0000010011101101
0001110110110000
0000000000000100
0001001000111010
0001010000101110
0001010101100111
0000011101111101
1111001111000001
0001010101110010
0010100010000110
0001000011101101
1110011111110100
0000111010011000
0000101111000101
0001010000010110
0000011100110000
0000110001110111
0000010100001111
0000101101100011
1111010100110001
1111110000111101
0000011011100011
1101101100011001
0001000100110101
1110011111010111
0000011010110110
1111000000111011
0001000111001001
0010000110111001
0000000100110000
0000101100100000
0001100000001100
1111111011011110
0000010011110101
0000001100101111
1111110000101011
0001010111110001
1111111100110011
0010010011100001
0001011101101111
1111111100011110
0000110010000110
1111110100100110
0000011110111110
0000110100011010
0000110101001101
0000001101101100
1111001110010111
0000011001101110
1111011111011011
0000110010110001
1110101110100110
1111011111101111
1111100000101001
1111011001001010
0001010101101100
0000101100110110
1111110001001000
0000100111010100
0001111100111000
1111110001110110
1110111101001010
1111100110101101
1111001000101110
0000101100000000
1111111010000110
0001100101011010
0000011111001001
0000011110101100
0010111100010010
0000100101110001
0010001001001001
0001100101111100
0000001011000001
0000011110011100
1111111010010100
1111100111101100
1111110000001000
1111000111110111
0000100100101010
0000110101100000
0001000000101100
0000111001111100
1111101111011101
0000111000100001
1111011111110001
1111111000100100
0000110000100110
1111100110101100
1111010100000001
0001010000101110
0000001010011110
1111010100111011
1111001100001100
1111101111011100
0000011110111000
0001001000111010
0000000000010111
1110111011001001
0001100101110101
1110110100010100
0000111001010101
1111100110000010
0000000111011111
1110110110111111
1110101011101101
1111111100100000
1111110100001110
1111001111010100
0000001010011011
0001111010001000
1111010010110101
0000000011101101
1111011100010001
0010011000110100
1101100110100000
0000001100101100
0000001001100011
0000001111001001
1111111000100101
0000000111000100
0000111111111011
1110011011101010
0001111011001010
1110100000100111
0000010111001101
0000010010100001
0000001110110110
0000001000000111
0000000001001001
0000100001101011
0000010111101001
0000000100111110
1111000001000100
1110011101011100
0000011011110001
0000011111110100
1111101100101011
0001010100001000
0000101101011111
0001001111110111
1111110000100101
0010001100110000
0001010001100010
0001010100111010
1110100001011010
1110110011110011
1111111100000100
0000101101011010
0000000101011101
0000001000101011
0000101111011110
1111101101111000
0000101001100000
1111101111110110
0000100010100100
0000010001101000
0000101101101111
1111001110111110
1111001000110000
0000000001100101
0000111001110010
0000010000110111
1111001011111100
0001010001011101
1111101111001100
0010010111000101
1111011010011100
1111100011011100
0000011101101011
0000010011101000
0001110010101100
0000000011100010
1111010101101000
0001010001010001
0000001101111010
0000101111111100
0000111110000110
1111100010100110
1110010010000100
1111100111000111
0000011110110001
1111010000111011
0000010011000001
1110110110001100
0000010110001101
1111100001011011
0000010010010000
1110110011111110
1110101110100100
0000001010110110
0000101011100110
0000111010000100
0000110110011111
1110000111111001
0001100001000000
1110001011001001
1111001011111111
1111101100110101
1111010011001100
1111110101100010
0000000100111010
1111010111110101
0000111100010101
0000001011110010
1111111001110110
1110111100001010
0000010111000011
1111011110101111
1110101000101110
0000000101000111
0000000001010100
0000010001100001
1111001100111000
1110100010110111
0000101111000101
0000010010111111
1110010100010100
0001110111001000
1111001100100100
1111110100100011
0000100010011101
0000000000001111
1111101110111100
0000101011000111
0001001111001001
1111101100111100
0001010010001010
1110111010100011
1111100000101001
1111111110001010
0000001111100110
1111011011101011
1111111010000101
1110111110111111
0001100001001011
1111111011111111
1111010111011000
1101111001001000
1111110110010000
0000001010101010
0000011100001101
0000100011011100
1111011111100000
0000100001010000
1111111010110111
1110010110111111
1110101000110000
0001001100111001
1111000101100101
1111110100100100
1110110100011010
0000001000010101
0010000000000100
1111010110101010
1111111100001110
0000000101110000
1111111010110100
0000011010000000
0001001001000001
0000011111011010
0000011010011101
0000100001110101
0000111101111001
0000100001111000
1111100101000111
0010001110001110
0001001101100110
1111001111100101
0001100001011001
0000111001011001
0000010101000011
0000110110011010
1111010111110100
1111111000000101
1111111110000010
0000000111000101
1111111100000010
1111100111111001
1110111100101101
0000011000111101
1110001011000110
1111111010001111
1111100001110111
0000010010101101
1111001000011110
0000001101001101
0001010011000001
1111111001110110
1111010110001010
1110110001001101
1101111010111001
0000111000000101
0000011001110001
1111101110111111
1111101110100110
0000111110101111
0000001111011001
1111000101010000
1111110001100010
1111011100010001
1111000111100110
0000000011010010
1111101111000111
0000011100100010
1111001000011111
0000001101101001
0000101001000011
1111110011100111
0001001011101000
0000110000100011
