0000011000001000
0000011110110000
1111110000111111
0000010010110111
0000011010010100
0000101101100010
1101100101101001
0000000111010011
0000101011010001
1111100100000011
1111111100001100
1110100110111100
1111101001011001
0000010111000001
0000000100101010
0001011010110111
1111001000101101
1111000001110001
1111001110001011
1110100001101001
0000101111101000
1110111010100000
0001101110100111
1111100101110010
0000000110111100
1111101000000110
1110010011111010
1111101000000111
0000111100010110
0001101100110000
1111001101011111
1110100100100001
0000100110111100
1110110001011000
1110110000100000
1111011001001111
0010001000000100
0000011111000111
1111001011010000
0000001111010111
0000001101110011
1111101011000000
0000101101110111
1111101000011000
0000100110010011
1110110010011110
0000001100001110
0000100101000001
0000100000001110
1111111011010010
1111111100111111
0001111111100011
0000011000000011
1111101010110101
1110101001100011
1111111011111101
1111110110010000
0001101010111001
1110011000011111
0000011111010110
0000011000000100
1111110101100000
1111110110011100
0000110011100100
0000101010000100
1110000000111110
0000101110011100
1110000010100000
0000101100001000
1111110001101101
1111111101000111
1110111010001011
1110010110001111
0001000001101010
0001101011000010
0000011101001001
1111011011011101
1111110111000011
1111111011001000
1111011001111010
1111001010000110
0000110000010010
0000010001000010
1111110011000000
0000010010111010
1111001110010000
0001001101101001
0000111011000100
1111011110010001
0000000000001100
0000010011111101
1101101110110100
0000001100101010
0000001001010111
1110100100000101
1111011011000011
0000001100110001
0000010001010100
1110100100000111
0000111000001110
0000001101010110
1111010110010111
0000100111101010
1111111110101111
1111011011110110
0001011010011011
0000110111111110
1101101010100010
1110100000010011
1101111100001100
1111111011000001
0000001000001111
1110110110101010
1101111111110010
1111001101000011
0001100000011000
0001011000000011
1101111100101101
0000100101100010
0001010000100000
1111001011110001
0000000010100000
0001010010000001
1111001001011101
0001011010111111
1110011101100100
1110100010000111
0001001111001100
1110110101101000
1111101000011000
1111101100110000
1111000000010101
1111100110000111
1111111001011100
0000011111110000
0000100001001001
0000101101011100
0001010000101001
0000011001011101
0000100001101110
0000011110010110
0000001000101100
1111010010000111
0000010111100000
1111100011111100
1111001011100100
0001010110010011
0001010100111001
1111010000010011
1110110111010111
0000010111101111
0000001110001010
0001001001101000
0000001001110101
1111011110100111
0000100001001101
0001000001101100
1111110011011110
0001001100101011
1110101110111000
1111100100011101
1111110001111101
0000010010110100
1101111101011101
1111011000011110
1101010110111010
0000100110110101
1110100100010001
0000001110001111
1111000000100001
1111011100111000
0000110001100000
1111110001111001
1111100110001011
1111101000101000
0000101010000000
1110111001111100
1111001010100100
0000100100110001
1111100111111101
0000001011110101
1111111111110011
0000011101011001
1110100110010100
1111111100000000
0000001001001011
0000000011101110
1111011010100000
0000000101101110
0000000111001110
1111001011010101
0001100000001000
1111100100010000
1110110001110001
1101011000101110
1110100001011000
1111100100110011
1110111001111100
0001100000111110
0001001010000111
1110011100000100
0001010100010000
0000011010111101
1111011001110101
1111110110110011
0000000110100001
1111011110101111
0000010010011111
1111001010010000
0001111110001000
1111001010100000
0000100000000001
0000001111000000
0000010001100110
0000100011000001
0001000101010000
0000011010001100
1110110101001010
1110001100111010
0000100000100110
1110111000011000
0000010100010011
1110111101001100
0001000001011100
1111111101010001
0000101101101100
1110100101000110
0001100011000111
1111100011011010
0000010000110101
0000100111110000
1111001110010000
1101100111001000
1111111111010011
1111000111011110
0001011000010011
1110000011000101
1111011000100010
0001011110011111
0001100011000101
1110110111010010
0001110111011011
1111101111111010
1111000101111010
1111100000011001
1111100111011001
0000010001001011
0000000010100110
1111011100100110
1101110010000100
1111100011011111
1111001101000110
0000011010000100
1110001010110000
1110100010010010
1111010111011000
0001100011010001
0000100000110000
1111100101110101
1111011110110110
1111101111110010
0000101101111100
1111001001010000
1111110010110011
1111011111110001
1111110100110001
1110110001011000
1111101100011110
0000100101101000
0010000010001000
0001100011100110
0001001100111111
0001010000001100
0000000101101010
1110010000000110
1111111000100110
1110011111010111
1111010010111011
1111000000100001
1111001100000011
0000100100001011
0000111000100001
1111110011011000
1111101110110001
1101101001111010
0001111100110111
1110001000010111
0000100110111011
1110100100000001
0000110000000100
0000100010011111
0000100011001010
0000000001100011
1111111100110100
0000000001000110
1111010100001110
1101100110010111
1111101111111000
0001011001011010
0000111100000011
0000001110000100
0000100001010110
0010010100101111
0000000011011110
1111101100100011
1111001101001010
1111001000010001
1111010111110000
0001100110111010
0000000101000101
0000100010010100
1111100101101110
0000000110110010
1111101110000101
1110100100011000
1111101111010110
1110111110000011
1110110001011101
1110101110001101
0000000100001110
1101010010100010
1110101011100100
1110101000001010
1011101010111111
1110101100010111
1110000001101101
0001110110010011
1111010111110010
0000101000101111
0000010100101111
0000001010110000
0010011011011001
0000100010000000
0010001110001010
1111001000111110
1110100011111110
0000001001010010
1111011011011000
1101011010010110
0001001011010110
0000000010001011
0001101111110010
1111111010110101
1111110011000111
1111011010100011
1111010110010010
1110110011011010
0000000100111010
1111101001100010
0000110010111010
1110101111101001
1100100100111101
1101101111011011
1111010101101010
1111100010001000
0000010000110101
1111111100101011
0001011010001001
0000100100011111
0001111100001110
0001111101011010
1110110100101000
0001000010001101
0000110110001011
0000001001001001
1110101111101100
0000101011111110
0001011100000011
1111000110001111
0000010011001101
1111010101010011
0000101000011011
1111000101111011
1111011111001001
1111110110111101
1111001011010110
0000111101100111
1101011010010001
1110100100010100
1101000010011101
1101101011000101
1101000111100101
0000000011110000
0010101111001011
0000101100111011
0000000000100100
0000110101001001
0010010100101111
0000110011100110
0000111101011001
1101101000100010
0000110000111001
0001010101000010
0000011011110000
0000001000001000
0000010100101111
0001100011001110
0000111111111000
0001000110101010
0010000011011000
0000011111010010
1111010000111011
0001011100101100
0001000111010000
0001000110010001
1111010101101001
1101111001001010
1100011101111101
1110110110001000
0000100010001001
0010001011000001
1111010001100101
0000011101111010
0010000000000110
0000001111110111
0000010001000010
0000101000111110
1111101011100110
0000000011110110
1110111011010011
0000010011010001
0000101111111101
1111001000000010
1111110010111000
0001001110010001
0000010110001111
0000101000101011
0000111100000010
0000101111110110
0000001011110101
0000011110110000
0001010100100011
1101110111111100
1110011000101001
1100110101100100
1101010011010110
1111100111011110
0001010110000101
0001011010101011
0000111101010010
0000111101010011
0001101010000111
0001000010111101
0010111110011100
0001001100100010
0000001001111100
1110111011001100
0000001011011010
0010001010011100
1110101100000101
1111011001010001
1111010111110111
1111101010111000
0001101000010101
0001000110111101
1111111001001101
0001000100001100
0001101000001000
0001010010110011
1111101111111111
1111111100001010
1100000110111011
1110000111001110
1111001000101101
0000101111000111
0001011100110011
0001110111000100
0001100011011000
0010001000101111
0001000011110111
1111110000000101
1111101010100111
1111010100110111
0000010001101101
1111010001000110
1111010010100010
1110101000100100
0000111000000110
0001000000001111
1110011111100010
0000111010100010
0000011111010101
0000111100110010
0010001001111001
1111101101010111
0000011001101111
0001010101101101
0000001010000001
1101111101101000
1110110101000000
1110001011100010
0000111001010001
0010011110111111
0001100001110111
1111111111010000
0000100101100101
1111110001101111
0010000110110101
0000010110110010
0001011100011011
1111001111101110
0001000110100000
0000001000101001
1111001110011100
0000010001111101
0000001011000110
0000001000110110
1110101000110010
1111100101101001
0000011111111101
1111010011100001
1111001000000001
0001000011110011
0000100001101001
0000100000011110
1111001000100001
1101011110111000
1110110010000101
0000011101000001
0000001011101101
0001011100110011
1111101000000110
0000100001101000
1111010001110110
0000100101000110
0001111101010100
0000101000001100
1110011010011110
0001010110000010
1111001100001111
1111000101011110
0000100101001001
1111001110101110
0001011001001110
1111101001110100
1111111111111111
0001001100101001
1111001010101111
0000000111001000
0000001100101110
0001000000001001
1110100110110001
0000001101011010
0000110001111000
1111000010000001
1111011011100000
1110110010110111
0000101001000011
1111001001100010
0000000100110111
0001010111001110
0001010100101101
1101111011001101
0000011100111001
1111010100100000
0000110111001100
0001011000001000
0000110000110010
1110100000111110
1111000001010101
0000000101010000
0000011001011110
0000011111011011
0000000110010011
1101101010110001
0000110010000010
1111000000000011
0001011000001000
1111000111111111
1111001111010110
0001100111110000
1111100101011101
1110110011000010
0000000101000110
1111101001110010
1111011101010001
0000011101000111
1110110100100111
0000000100000000
1111000110101100
1110111110001101
0001000011110011
0000001010011110
1111011011000110
0000011111011010
1110100101011011
0000011101011110
0000000101101110
1111010010000100
0001111111110101
1111111110101110
1111010000000110
1110101011011011
1111100100000000
1111111001110010
1111000101101011
1110011100100011
0000000001110101
0000011001101101
0001000010100111
0000111101000100
0000110010001010
0000011001111101
0000101100000000
1110111001010010
1111011001110110
0000001100110001
0001000110011101
1111101011000011
1111010000100111
0000000101000010
1110101010110010
1111100111110010
0010110000000000
1111011010111110
0000010010110100
0001000011011010
0010101101100110
1100111111000000
1111000101110011
1111000100011100
1111010010100100
0000000001011101
0001011100001100
0000011110000101
0000011010101110
1110101111000001
0001000001111100
1111100101100101
1111100000000111
1111110010100101
1111011010100010
0000101110100100
1101110010101100
0000000000101001
0000000111011011
1111001110011000
0000000011100010
1111101110011011
0000011100101100
1111001101000111
0000101101000000
1110101010001110
1110100110011110
1110111100110010
0000000001111001
1111001110111011
1111011110010010
0000110110111011
0000000100000001
1110011110000001
0000011000010111
0000000001011110
0000010000100111
0000101100100011
0000110000101101
0000010110110000
1111010111100110
0000111000111010
0001111101000100
1110100101101000
1111011100001100
1110001001111111
0000001101000110
1110011100111001
1111111000110011
1111111111011111
1111101011101000
1111011001101000
0001010001000010
1111001001011001
1111111000011001
1111100101001011
1111110110000011
0001011101010001
1111111001000111
0000000111001001
1110100110100000
1111100100000011
0000000101110101
1111100010001010
1111001011011001
0000100000010110
1111010000100110
0001101100001100
1110001111000111
0000001101011100
1111111010111010
0001000011010011
1111001011111111
0000001111010010
1111011001001110
1110010101110000
0000101110100000
1111010101001111
0001101010111010
1110101101100000
0000011110100111
1100111110110100
1111100000110110
1110110111010100
0001110010110100
1110011010000010
1111111110110010
0001110100011111
0000001011011111
1111011001001000
0001111011010101
0000000100011000
1111101000110010
1111010111111011
1110110111100100
0000101110111110
0000001101100110
1110011110000100
0000011101011001
1110010011100000
1111010110001011
0000010000111010
1111100011011111
1110110111011110
1111101001011000
1110110111101000
0000110011100111
1111010100100100
0000001110100001
1110101101000000
0000010110011011
1111001010100100
0000001111001100
1110000000001110
0000100110010100
0001001000011001
0000111110001111
0000000100110100
0000100101000011
1111011110010010
1111111110110111
0010011001010010
0000110000101101
1110110100011001
0000111010101101
0001100100001101
0000000111001111
0000010111011001
1111011000100000
1111101101101011
1111100110110000
1111111001010010
0000001011111101
0000100101101011
1111101010111001
1101001111001000
0000101001000100
1111000110001110
0000111100011110
0001101011010011
0001100101000001
0000001111111111
1111010100101110
0000000111011110
0000101101110010
1111001100000110
0000100101101101
0000101001010100
0000010111001111
0001111101011000
0000110101101100
0000000010011100
0000010111011111
0000001110001111
0000001110001001
0000010010011011
1111011011100000
1111011100001101
1110111101101100
0001011011101111
0000100110101111
0000011100111110
0001010100100001
0000101000010101
0000110101000110
0000001010000011
1111101100011101
