0000011101000110
1111101011001100
0000001111110000
1110000001001010
1110111010101101
1110100011110111
1111010100101110
1111010111111111
1110100011110011
1110111101000000
0000101011001100
0000011000111111
1111111101011100
0000110010101111
1110101101110001
1110101110110000
1111110110000111
1111000110100010
1111011110011100
1111111010001010
1111011001100111
1111100001010101
0000010011011100
0000000010010000
1111110111101000
1110111111101001
1111000010010100
1111011010101110
0000011101000111
1110101101000110
1110010001000010
1110111100111000
0000001110100001
1111101001010100
1111100110110010
0000011000010011
0001001000100011
1111001000011101
1111101011100101
1111111101001001
1110101000110001
0000010000101100
1111100001101011
1111001111001110
1111101011010111
1111010000110001
1111010000010100
0000001101001110
1110001101101000
1111111000111100
0000010010001001
1101011101100000
1110101110001110
1111100001001110
0000001001001100
1110111111011001
0000101101110010
0000001111001010
0000100100001001
0000000000111000
1111100111010110
0000111101000100
1111101001100011
1110111111001000
1111110101111001
0001000111010111
0000001001111010
0000110110110000
0000000001111010
0000011010100011
1111101001111100
1110001101110111
1110110111001010
0000010010110111
1111011111101010
0000001111111011
1111010110110100
0000101011011010
0000010101101001
1101111011100010
0001000011111000
0001000011010111
0001110001101011
0000100101111101
0001001000101000
1111010110011111
1101110001011101
0000010101111001
1111010111011111
1111010000011010
0010011011110111
1111101011111110
0000101100101111
0000111011101000
0000011010111000
0000000010111100
0000011110011011
0001110110111101
0000100011101011
1110000110110100
1111110001101111
0000011110001101
1111001000111001
0010000111010101
1110111000000010
0000101110000010
0000010100011101
1111111010010001
0000100100100011
1111011001101101
1111010100111111
0010010001000111
1101110011010101
1111110110000011
1111110010001110
0000100100100000
0000100001111000
0010100010010010
0000000000111010
1111001100100111
0001100010100000
0011011101000100
1110001110101011
0000100101111111
0001011010001001
0001100000111010
0000101101100011
1110010110010011
0000111010101101
1110011101111101
1111010010011000
1110000101001100
1101111010011000
1111011000110001
1100110110110000
1110110110110110
1111000100110010
0001000010100101
1111100100011110
0000111111000110
1111110000111110
1111010110110011
0000000001010010
1110110111000100
0000010010110001
0000010001000101
0000100111110010
0000101010100001
0000111101110010
1111000000000011
0000011000111000
1111110001100101
1111100011001110
0001000111111001
0000101101001001
1111101111110111
1111011110110001
0000010001000100
1111000111110001
1110101100100110
1110111010101100
1111100101100001
1110001110011110
1110010100100010
1111001010100101
0001000000000110
0001001000000110
0001010010001100
1110010101101111
0000110101111010
1111010110000110
0001011000010111
1111101001100001
1111001000000000
0001011001000111
1111110010110101
1111101001111101
0000010011111001
0000000101000000
0001101011101110
0001011010110010
1111011001010010
0000101111101101
1110110101101100
0001010111001111
0000011100000100
0000001010101100
0000000100010001
1110001101101100
0000101100100011
1110100000100001
1101101001011001
1110101100010011
0001001110011110
1111111110001000
0000000000100000
0001101000011011
1111111111001110
0000001111110110
0000010100110011
0010000001001101
1111101000010111
0001000000110000
1111110011111111
1111010110100101
0000100100001010
1111100010011100
1111000000001001
0000100101000100
0000010000011001
0000001001110111
0001011101100101
0000000110110000
0000110010010110
0000110010101001
1111110011100111
1111010000101001
1111010101000101
1101011010101101
1111101110100110
1110101110001011
1111101100111010
0000101101000000
1111101110110110
1110110001111110
0000110100100100
0000101110101111
1111101101001000
0000110100101011
0000001011000101
0001000011100010
0001001001010001
0000001101110100
1111011010010010
0000000011100011
1101111110111010
0000010110111110
0000111111110101
0000111110000010
0000110110000100
1111100011110111
1111101001111101
0000011101011000
1111100100111001
0000101001010110
1110011000110011
0000000011001110
1100010110110111
0000011010110100
1110111111101011
0001100000100111
1110110111001101
0000001011100000
1111010110000000
1111110111010100
0000111011011110
0001100111010000
0010011111110101
1110110101001001
0000000000100001
1111101100001011
1110001010001111
1110100001110010
1110110000000101
1111101101100100
0000011111100000
0010010001010100
0010100110100101
0011000000110011
0001111011010100
0000111011101110
1111100001110101
1110111011011101
1110101111101110
1101111001000010
1111011100000110
1110100010110011
0000000000110100
0001011000001011
0000110001100100
1111000010101010
0000011111101001
1111011010100010
0000111101111111
0001011110001100
0001110100111111
1111100111110011
1110000001011101
1110001000111011
1110001010100110
1111001010101001
1111011100111111
1101111111100000
0000000011001000
0001100100010011
0001010101111111
0000101110111111
0010001011111011
1111011100100000
0001111111101101
1111110010011110
0000000000000000
1110101010110000
1101001100000001
1110100011011110
1111111011001110
1111110010110001
1110101100010111
1111100000111010
0000000111111000
0000011110101100
0010100101000100
1110110010010110
1101110000101100
1111000001101001
1101000011001111
1111000001110010
1110110001100010
1111110001101010
1111101100001101
1111101011010100
1111011010111110
1111011101000101
0000100011010110
0000110111011000
0000000101000011
0001100110111110
0001010110111000
0000101110110001
0000100110001100
1101011100000100
0001111001000011
1111110011010010
1111010011101101
1111000011010011
1111010011100100
1111100011111100
1111001010000001
1111111111110111
1111101001000100
0000100111010101
0000110010011110
1101010100110010
1101111011011011
1111010110110101
0000001111100111
1111010100101010
0000000100110110
1111000111101001
1101111110111101
0001001001110101
0010110101000111
0001011011010010
0001000110010011
0000011010111101
1111110011011010
0000000011100101
1101110000001101
1110010101110110
1111101011000110
1101100111110110
0001000000010001
0000100101000010
0000011111111100
1111001011011001
0000000010110001
1111110101111101
0000110001001000
1111110101001000
0000011011010000
0000101010100110
1111111101111010
0001000010010011
1110100111011001
0001000110110110
1110110110110100
1111001101000001
1111100110101000
0001010101111100
0000011101110100
1111100111001100
0010001001000110
0000000010100000
0000101100100010
1111011111011010
0000010100000010
1110101010011110
1111011111010100
1110110000100001
1111001101110101
0000000010110101
0000110101010011
0000101111110100
0000010010001111
1111100011100011
0001001101001111
0001011000010100
1110010101110000
0000010101000001
0000011000010110
1111110100001010
1111001100101001
0001000010000000
1101001001010101
1111010111010010
1110101101110110
1111110001000001
0000111000000101
1111111110100000
0001111010101001
0000101001010101
0000001111000110
1110100100111000
0000111100100111
1110100100011101
1110111101001011
1110110101010100
0000000000100100
1110101100001010
1111110010010101
1111000001001000
0010001001111101
1110101110011100
0000000100101101
1111010101101111
1111100100111111
0000100110110101
1111110100000101
1111100111011011
0001111100100100
1110011011000111
1111110010101010
1111101100000101
1111110011001001
0000001110011100
0010010010001111
0000001001010000
0000101000111010
0000100001011110
1111101110111110
1111010100101001
0000101111111110
1110011111101011
1111011001010100
1111111000111110
1111011011100010
1111011110001010
0000100001111111
1111111111111000
1110111111100011
0001011011011000
0000000011011001
1111111100111110
0000011111001111
1111110110110100
0000110101011011
0000011100001010
1110111111010010
1111011011000001
1111001110000011
1110110111000110
0000001100000111
1111111100010101
0000110001110001
0010010011011000
0000101110111111
1111101100100101
1111111111000000
0001100100010101
0001010010110000
0000110111000001
0000100100010101
0000011110111010
0000011100110101
1110100000111011
1111100011010011
0001011110001111
1111000000001110
0000110110000010
0000111100010010
0000101101101110
0001101000101011
0000010011001010
1111110110000110
1101101111101111
1111101001101000
1110101001110001
1111101010101101
1100100111010001
0000001001001110
0001011000011100
1110110110000001
0000011010110111
1111100010101110
0000100110001000
0001000011001011
1110110011010011
0000011001000011
0000001010101001
0000011101111001
1111010011010110
1111101000100010
1111001011100001
1111001000010101
1110011111001100
0000100111011110
1111100110101110
0000000011100101
1111000011010001
1111000101011001
1110010011110000
1111101010011110
1110110100100100
1110110011011100
1110101011010001
1101011011111011
1110010111001010
1111110101010111
0001000101001011
0000100111101110
1110101011100010
1110111000010010
0001010011110000
1111101101101111
0000000101100010
0000001110100110
0001100010111000
1111001011100001
0000011101100001
1111111111001010
0001100000001000
1110100111011011
1111001110011101
1110010001000110
0000100110010101
0000100011000010
0000111100110011
1110110111111101
1101111101101101
0000000000100100
0000110101110111
1110000000101010
1101010011001101
1111001011101001
1111010001101111
1111010000100010
1111111101101011
1111000111111001
0000110010110110
0000010111010111
1110110110000001
1111111000100001
0000010000111001
0001010100010100
0000111101100111
0000101001010110
1111000101100101
1111100111010110
1111110100011101
1111101011100100
0000001000010000
1111101101001101
1111000010110110
1111011000111110
1110011101011100
0000001001110111
0001001100100110
1111100001111001
1111010000100100
1111010010100101
1111001001111011
0000000111111000
1101110101001101
0000000100000011
1111111001001111
1110101001111111
0000001100010110
1111110001000100
0000001100010100
0000110101101100
1111111000010000
1110010111111001
1101101100111101
1111011100001011
1111001111001100
0000110000010010
0000100000001101
0000101011100000
0000101001111001
0000000111011000
0000000110011010
0000110000001000
0000001001010010
0000110111001011
1111110101010101
1111000000011011
0000011110111111
1111100111000110
0000100101100000
1110100010101110
1110100101000111
1111001000000110
0000011101000000
0010001011011011
0000011101011110
0001001001110001
1111101111100000
0000101111100001
0001001100110111
0000010010101111
0000100111011000
0000010000111010
1111010001010100
1110110011101001
0000010111000010
0000010101000001
1111001111101110
1111001100001111
0000000010101001
0000101000011001
0001000100100000
1111110000001000
1111011101110101
1111110100110100
1111110111010001
0000101101110110
1110111100011100
1110000101101001
1110001011011001
0001001101000100
1110110000111001
1110010100011010
1111011101011111
0000110111010010
1111110010010101
1111001111011100
1111011011000111
0000011101001100
1111111101110001
1111001101100100
0000100100110010
1110111101010011
1111110000011101
1110011110001101
0000000111111100
0000011011111101
0001000011101101
1111111110110110
1110110101011111
1111001101011010
0000001101101011
0010010111000001
1111010011111100
0000000011100011
1101101100011000
0000001101100011
1111010111011111
1111111010111001
1110110010110001
0001010010101100
1111001011101000
0000010100111101
1111111110100010
1111110000110011
1110011100110011
1110101010110111
1111010001001000
1110010110101110
1110110001011000
1111010101100011
0000000010101010
0000101100110111
1111000110011111
1111101001101111
0000000111011101
0000000000000101
0000010111001010
1111100000100011
0011110010000101
0001000100101000
1101111010011001
1111101011001101
0001001010011010
1111011101110001
1111101101111111
1110110100011100
1111110101001110
1111011000110010
1100111101111011
1111011111101101
0001010000101001
0000000001111000
0000101111100010
0001000111101100
0000100100111001
0000000001000000
0000111011001100
1111111001110110
0001001000110101
0000010100111110
1110011111111011
1101110011011011
0000010101001000
1111111111000101
1111100001101011
0000100110000001
0000111001001001
1111011110011000
1111101011011010
0000011011001001
0000010001000010
1111010101000011
1111111010011011
0000101010110011
0000000111001011
0000001001100100
0000010101000100
0000011100000011
0001001010111011
1101011010110111
0000001010011010
1110111111111111
0000101111001011
0001000011001001
1110010011111000
0000000001010001
1110111000011001
1111111010110010
0000010100111011
1111101011101011
0000000001111100
0000011010000001
0000111000001110
1111101000110100
0000100010011000
1110101011001001
0000000011000101
1110101100001101
0000101011101110
0001010000101100
0001010100011010
0001000110101001
1111001110000101
0001001100000100
1110100111011000
0000000110011010
1111001101111100
0001001101001100
0000100100111000
1111110100101010
1101110100011100
1111001000110101
1101011001111001
0000111101010000
0001101100011111
1111101001100000
1111110000011010
0001111011010011
1110011111011011
0000000011010100
1101110110101001
0000100010100010
0000000010111100
0000111111101010
0000110111011011
1111011010011001
0001100111010001
1111001011001000
1111010011011111
1101111110000101
1111011100111100
0000111110011001
0000111111110100
0010000110101101
0000001001000101
0001010101100111
1110111111110011
0000101111000001
1111111101100010
0001100011010110
1110110101001110
1111010010100110
1111100000100001
0000010001110001
