0000100011111010
1111101111000000
0001000110011100
1110100010000010
0000110101110010
1111011101111110
0000011110100111
1111110000111010
1111100100101001
1111001100110100
1111100101111001
0000010000010110
1111110111000001
0001011011110111
0010100101000101
0000011101100111
1111010010000100
1111100010101100
1111011110001011
1111011010100110
0001001110000001
0000111100011011
0000000001111111
0000110100001010
0001011110000001
0000010101100001
0000000101001110
0000000001001011
1101101100111010
1110111011110010
0000101100001111
1111011001111000
0000100000111100
0010001100100100
1111010101000011
1111110110010110
0000011000010100
1111110100111101
1111110001111101
0000110011111010
0000101111001011
0001000001101000
1110110001111001
0000100101111111
1110111100000000
0000100010110000
0000001101101001
1111001010110011
0000001001110010
1110110101100010
1111000011110010
1111011011011101
1111001111000011
0001000100010111
0000100101000100
1110100001011101
1111101010000000
0000111011001010
1111111011101011
0000010000111001
1111011011111010
1111101010101111
0000011001111101
1110111011010111
1111000011011100
0000010001111011
1111000000001000
1111110110010111
1110111110010101
1111101111001111
1111100011011000
1111111100110111
0000111001000001
0001111010110011
1111100100111100
1110110011101111
0000001011100001
0000000110011011
1110100111001010
0000110100000001
0000011011000011
1111011101110000
1111011111010101
1111011110010011
1111100011100001
0000110110110110
1111011100000011
0000100011110101
0000110011110010
0000010110101110
0000101000000101
0000100100001101
0001001011110011
1111010010001001
1111010010011100
1110101011010100
1110110011110010
1111100110011000
0010000101101100
1110100100010111
1110001001101100
1111101010111101
0000010100100110
1111011000011010
1111001001010110
1101111110101100
0000100100000001
1111111011010101
1111110101000111
0000011110010000
0000001100100001
0000110011110011
0001000110010011
0001001010110000
0001000010111011
1101101011100100
1111000010110010
0000001111000000
0000010001111110
1111110011110111
0000011100101001
1111110100010100
0000000101011000
1110010110000111
1110100011010000
0000011011110111
1110110111010100
1111101111010100
1111100100111110
1111111100010100
0000001010000111
1111010110110110
0000100000011101
0001011011000000
1110000111100001
1111000111111100
0000001011010011
1111001011110100
1111110101011111
1111011000001110
1111111001001101
0000011100011001
1111110100101011
0000111111100010
1111111000100110
0001011000000000
0001100100011110
1111101110001101
1111101101011000
1110010010100110
1111110010001100
1111101100101100
1110101001011100
0000101000101011
1111101010000101
0000101001100100
1101101110110101
0000000000001010
1111000110010110
0001101110101111
1101100100010100
1111111011000110
1111011010101100
1101110111101100
1110010011010010
0000011001110000
0000101110011100
1110101100110100
1111001110000101
0000011101000100
0000011001101010
1111101000110010
1111010101100011
0000000110111001
1111110100011101
1110111000010110
1110111101110010
1110010011101010
0000010110110111
1111110110101011
1101111011100011
1111110001111101
1100110010100110
1111110001001001
0001101100011111
0000011000001011
1111110011101011
0000111000101000
1111100001011000
1111110001100010
1111001101000010
1110111010011110
1111110110001010
0000010010001000
1111100101101101
0000100001100001
1110110110110010
0000000110011000
0001000100100111
1111001010101010
0001001010010101
0000011111101011
0001000010011001
1111000010000101
1110001010111010
1111110010000000
0000111000100000
1101101100010001
1101111110011100
0000010011011010
0000110000111000
0000100001001010
1111110111110011
0001110010111110
0001100101010010
0001001000101010
0001111000000101
1111110011111110
1111010111110010
1111001100001000
0000101000101110
1110110110010000
0000001100001000
1111110000011101
0000011000111110
1110100100011111
0000000110011100
0001010110000010
0000000010001101
1111101101000101
1111111001001011
1111100011010011
1110011101000011
1111111101001010
1110010110100010
1111001101001000
0000101110100000
1111010011101000
1111101011110100
0001011000010101
0100000111001000
0000110001100110
0001100000111100
0000010010110000
0001011111111110
0000001111101110
0000011001101100
0000101011000111
1111111101100101
1111011101111111
0001101010110011
1111101100110010
1111011101101110
0000101000100010
0000000100010001
1111111001000010
0001010100110001
1110001001110011
1111000000010011
1111001101000110
1111111001101010
0000000001001000
0000001100101010
0001000001000010
0010100001100000
0001100110110110
0001011100000110
1111100010011010
0001100110010011
0001110101001011
0010001110101111
0000011010110001
0000101000010101
0010010100010110
0001111111011111
0000111111100101
0001101101100111
0001011100110000
0001101100011110
1111001111101110
1111000101011010
1111111001111110
1111110111011000
1110100110101101
0001100111000110
1111011101110111
1110011111110000
1111110001101001
1111001010100010
1111110111011111
0000001011110001
0001110110100011
0001011010011111
0000101000011111
0001010101010111
0010010001100110
1101110000100011
0001000010010010
0000100110100001
0001101010010111
0000101010010000
0000110100001011
1111110100111111
0001010001100100
0001010100011110
0000000101010000
0000110111100110
1111111111110110
1110100001100010
1111010111110111
0000110101001110
0001010010001110
1111101100011001
0000001001010100
0000010011111011
0000111011000011
1111111110111101
0000100101111001
1111101000000010
0001010101110100
1111000001110100
0000111110100110
0001001001000001
1110011001110100
0000101010001010
1111111000110110
0000010010101110
0001010011001000
0000101011100101
1111101011001001
0000110001010011
0000000100010100
0001000001110111
1111111001000000
1111011010100111
1111010001000100
0001001010110100
0000110110011111
0000001000000111
0000001110010001
0000100110010010
1111110001000001
0000010101010100
1111011101001100
0000101011001011
1111101101011111
0000100011110100
1110111101111100
1111110110000010
0000000101100110
1111101010000000
0000001111101110
1111010000010110
1110101101101011
1111101100100011
1110111110001011
0001011001111001
0001000111101010
0001001100110110
1111110110101010
0010110001010100
0000100011110000
1111011000100101
0001001110100100
1111011100000010
1111100011000010
1110100001100000
0000111101001010
1111100001001001
1111110001110010
0000000101100011
0000010001011110
1110111110001010
1111011110110010
0001001110011101
1110111111110111
0000011111011100
1110110110101000
1110111111100101
1111010110010101
1111001101000011
1111000011011010
1111100100101110
1111100100100110
1111010000111011
0000001101000100
0001110101000001
0001110100010001
0000001111110100
0000100100001110
1110111111100011
1111000100011010
1111111101111100
0001100001100110
1111010011010100
0000111111010011
1111001111000000
0000011010000010
0000001001101001
0001001000111100
1111101111101100
0000000100110001
1111101011001101
0000010110000110
0001010010011101
1111110001100001
0000110100010010
1111011011100101
1111001000010111
0000001010101100
1110011001101011
1111110000100001
1110111110011001
0000001111011111
0000110101111000
1111011000000111
1111110000001100
0000111010010101
1111110000001100
1111110001110011
0000111000110110
1110101010010101
0000000100111110
1111100110011100
0000100011111101
0000101010001111
0000000100001110
1111000101100010
0000011001010011
1111110100110011
0000010110101111
1110110011111110
1111110011011001
1111001011000001
1110010101101111
0000011011101000
1110000001101010
1110110101111011
1110101111011101
1110100101000100
1110101010000111
1111001000111001
1101110001011000
1101100001100111
0001010010111110
0000011111110110
1111010110111100
1110100110000000
1111110010100000
0000111110001110
1111000010101001
1110010010111100
1110011111001110
0000010001001011
0010000011001001
1111000001110110
1111100010010101
1111111011011001
0001110101110111
1110111100101100
1111110010110101
0000110011100100
1101101111100101
1101110111011101
1111100101110100
0000111010011110
1111111100011111
0000010110010110
1111000101110001
1110111100011001
0001000011011100
0000011010001101
0000110010111001
1111110110010011
0000000011110010
1111110000110111
1111100101111110
0001001101110000
0001111011101001
1111010010011010
0000100000100000
0000011010001110
0000111000101010
0000101011100110
0000110001010101
1111001100100101
0001110000101011
1111011110011110
1110110010100110
1111110011001100
1110110011101011
1110010001011011
1111011100110011
1110100001100101
1101011011000000
1101101000110101
0000001011001011
1111010100000111
0000010011111110
0001010101010100
0000111111101111
1110110110011011
1111111101101100
0001000001010000
1111011010100000
0001001110010010
1110110000101111
1110010000100101
1110100010011010
1110100010101001
0000110001111000
0000001001001111
0000001111011100
0001001011101010
1111011011101101
0000000101010000
1110001000000010
1111100001001001
0001011000110000
0001000100100000
1110111101111001
0000111000101101
1111101010101000
1110101010001100
1111001101111100
1111001000110001
1111110111110000
0000111011101000
0000000011000011
1111000001001100
0001000001000001
0000010100001110
0000000011011001
0000101000001100
0000011110101011
0000101101010001
1110010101011010
1111100110111111
1111110101000010
0000100001001010
0000111110010000
0000110010000000
0000001100010011
1111001010001011
1110010001101111
0000110101000111
1101100101101000
1110100101110001
0001001001100100
1111001111100110
1111100101111000
1111101110110111
0001000000011101
1111110011110010
1111101000001011
0000011010100001
1110110111110110
0000000111011110
1111100100011100
0000011010100101
1111010010001010
1110110110110101
0000001001111010
1111100000001101
1111100001110001
0000010000110110
0000101000001000
1111001110010010
1111110100001011
0001010100101000
0000110011111101
0000111111101001
1111000111110101
1110010001010110
0000000110010001
0000000011000101
1111111001110110
1111011011010010
1111101101110000
1111010100010000
0000011011011000
1111111101010001
1111111111110000
1101100100000010
1111000101001000
0001000100101010
0001001000100101
0001000000011101
0000101100000100
1111011000111000
1111111001110000
0000110011000111
1111011011011011
0000001010100110
1101111000010001
1111110101101101
1111011100111001
1111111100101000
0000011010101110
0000011100011110
1110001101011011
1111100001100111
1111110011111111
0000101011010000
1110011101110001
1111011100010000
1111111000101100
1110101110110100
1111010101011001
0000010101101110
1111100111111100
1111000110000110
0000010100100100
1101100010111010
0000001001101110
0001000000101000
0000101000101111
1111101010101010
0000111111000111
0000111001011111
1111110010010111
1110110001111000
0000100100000110
0000000011101101
1111110000001110
0010000010001010
1111001101011100
0010001000101010
0001000101011111
0001001010011001
1111111000010010
0000011100101010
0000010011011111
1111000000010010
0000010001000101
1111000001011000
1111010101010100
1111111011010000
0000101101000001
1101110010010110
0000111000110100
0000000110111110
1111011010101000
0000011110111000
1111001011111001
0000101100101101
0000100101011101
0000010010010011
1111101111110100
1101110111110110
1111111011111100
1111011011001100
1111001000111111
1111000010100111
1110101101111010
0001010001011010
0000111110000111
1110101101100101
1111101001010100
1111100011101001
0000010011000101
0000000101011010
1111000111000110
0001000100111001
0001001101010110
1110111111000001
1111011101110101
0001111010010000
0010000001000110
0000000100001010
0000100001100101
1111100110011010
1111011000001111
0000101101000011
1111000111010111
0001011111100100
1111100111111000
1110110011101010
1111100110010110
1111111001110011
0000001000010110
0000111111001011
1111010101000110
0000010111111110
0001001001011001
0000011010110110
0001000111110001
1111100001011011
0000000011011010
0000010100000100
1111111111111111
1111100011110001
1111101101010010
1111001001011010
0000000001101101
1110101101000111
0001010111110010
1111011111111110
1111011000001110
1111010110101001
0001010000000011
0000000111110101
0001001001001011
0000110101100010
1111100110000110
1110101001100110
0001110111100010
0000111011110100
0000011101101101
1110010010000101
0001100011001110
1110100000111101
0001000011100011
0001010101001010
1111111000001011
1111110100111010
0001010110111111
1111010000000010
1111110100001000
1110011011111110
0001100101110110
0000110111000000
0000100111100110
0000010011001000
0001000100000111
1111011110010011
1110111011101010
0000001011111010
1111010011001100
0000001111011110
0000110000001100
0001101011100001
1111110011001011
0001001101000010
1111010000100000
0000111000101110
1110010100100100
0001010100000111
1111110100101000
1110100011101110
0001000101010100
0000001011101001
0000100101100001
1111000110000000
1110111101001000
0001100001011100
1110101011010011
1111111111010011
0000010100011101
0000101100100111
0000011101101111
0000001101001010
1111110101000000
1110110010101110
1110000011101000
1110001101010110
0000010000000011
1111110001110100
0001010010000001
0000001011011110
1110101011010001
1111100010101010
0000011000000101
1110110110110000
1110110000101011
0001001110000001
0000011101100111
0001000111100000
0001010101110100
1110110101010011
0000111000100101
1111000111110110
0001000101100011
0000111000000001
0000011110011101
1111001000010001
0001001111010100
0000010011101010
1111001010011001
0010000011100001
0001000001110001
0001010100011101
1111001100101010
0000110111100110
