1111001001100011
1111111101010111
1110001000101111
1110010110011110
1111100111010010
0000011100011011
1111011011001011
1111111110001000
0000011110100111
1111001101010010
1111010010011000
0000000000011000
0000001101111111
0000000001001011
1110101010010101
0000001010111111
1111000011110010
0001111010100101
1111100100001010
1111101001011011
0001111000100110
1101111001100101
1110011100110001
0000101100110111
0001010001111110
1111100111000100
0000101010111111
1110111100010110
0000001001111000
1101011101010100
0000100100010011
1111011111011000
1110111001101001
1111010000111111
1111111110011001
0001101001101000
1110100111010100
1111111100101001
1111110000110101
1111001100100001
0000011111011010
0001011000000011
1111110011010010
1111100001101011
1111111101100001
1111001001101010
1111010000000111
1111101101001010
0000011010011000
1111011010010000
1110111001101000
0000011001101100
1110110011111011
0000010100011001
1111000000001111
0000010111010111
0000000000110010
1111100001010110
0001011100100111
1111111001110010
1111010000001010
0001111001001011
0001000101100110
1110100010100100
0001110010101100
1111001011110111
0000001110010111
1110010111011110
0001010101110000
0000010011000111
1111010001111000
0000000010011000
1111111100111000
0000101110001010
0001010010000100
1111100100110001
1111100100001100
1111110001101110
1110101001110010
0001100011111101
0001001111110000
1110111100100011
0000010010100111
0000000001001010
1111000001010001
0000101101000111
1111111000010101
0000010100000001
0001011011100011
1111101001000100
0000000010100110
1111010100000111
1111101111100011
0000100110001000
0000111001100100
0001101110010101
1111011001011011
1111011000010011
1111001011100110
1111101011100001
1110100110000100
1111000111000010
1111001010011000
1111110110011010
0001101000011101
1111001001101000
1110000100010100
1111111011011001
1111110000111011
1111001101010001
1111001110100001
0000111011011110
0000101000100010
0000001100110100
1110100100010010
0000011101010000
1111111111010011
1111110101001110
1110100000100110
0000110000110101
1111010001100010
0001001110010110
0001010010111001
0000000011011000
1111101000010001
0000111111001101
0000111110111010
0000011111111011
0000000100000000
0000010101000111
0000010111110000
1110101100101101
0000000010100011
1111111110111000
0000101111111000
0000001000011100
1111101010110110
1111111101010100
0000001101010110
0000101010100100
1110110101011000
0000110000001011
1110111111011010
1111111011100001
1111000000110101
0001000001111011
0000010100101011
1111010111010110
1111001110001001
0000111001010000
1110010010100101
0000001001000111
0001001100111110
0000011100010110
1111110010010110
1111111010110100
1110101011111100
1111100100000110
0001101111101000
0000100000100111
0000000001111101
1110111101111110
0001111001101011
1111101101010000
0000010110001110
1111111110000001
0001001011010100
1111010101111011
1111110011001111
1111000100011100
0000111111100111
0001001001100111
0000001101011000
0000000111000101
0000101111110011
1110000100100110
1101111010101011
0001000001011110
0000100110001110
0000010010100110
0000100011111111
1110100100010101
1111101010000001
0000010111011011
1110001110100110
1111111101110001
0000011001101000
0001001101011010
0001000011000101
1111111010111001
1111111100010110
1110111011010101
0000000100011100
0000000011000101
1100110110000100
0000011011101000
1111101101011111
1111100000010101
1110110101001101
1110011101001110
0000111100010100
0000000101100010
1111000101101011
1110010110000100
0001100111100010
1111110101000100
1111110011000101
0001011110000110
1111101011011011
1110111010010110
1111000101101001
1110110100111011
1110111100000000
0000011100100101
1101111011000010
0001001011000011
0001000101010111
0000001011000011
1111100111010101
0001001010011001
0001000000100111
1111011111010000
0000100100100011
1110001011000001
0010001111001011
1111011101100000
1110111110100000
0001110101111000
1111001100011000
1111001011001101
1111100110111100
0000001100100110
1111001001100000
0001011010110100
0000101100111110
1111100011111100
1111100011010010
1111000000110011
1111110111111100
0000011001100000
1111110110110100
1111111111010111
1110011100010110
0001101001011001
0000000101101010
0000001111100001
1110000001100001
1111011110011011
1110100100111100
0000011110001110
1110101110010000
0000100111011101
0000000100111010
0000001001000101
0000100001111100
1111111001111010
1111010011101110
0000111111110000
1110101110110101
0001001101111000
1111111001011010
1111111110111101
1110110111001111
0000111111111011
1111000001101001
0001010011010100
0001000111001000
1110011111101100
0001001100100110
1110101110000101
0001101001111010
0001011111010101
0000100011101101
1111001000110000
0000011000101010
0000001101111000
1110011100101011
0000000101111101
1110011110011100
0000101010001101
1111111000001111
0001000100001001
0000100100111010
0000111000000110
1111101010101001
0000100111000000
0000010001001001
1111011010100110
0000111011000110
1101100110010111
0000101010001001
1111001111110111
1100100100110101
1111100110000000
1110000100110011
1111000101010000
1110100101001111
1111011000101100
0001001001010100
0000010110010110
1111011000101000
0000001001100111
0001000001001010
1111110111110111
1111000000010111
1111001110000010
1110001011000101
0000111010101110
0000001111100001
0001100101111001
1111111011101110
0000011110001111
0001101100111110
1111111000010110
0000100001001010
0000100010110001
0001101101001001
0001010110000001
0000001001001001
1110110001111001
0000001000100001
0000110101000100
0001111111101111
1111111001100110
0000110100101011
1101010110101011
0000111011111111
1111111011010101
1110110100000001
0001000111111011
1110100111010111
1111001011011011
0000110001111011
1111011110100100
0000000101110001
0000110101111011
0000011010001010
0001000110101110
1111111101100000
0001000111010101
1111111000101111
1111111001110010
1111001110011001
0001000110010001
1111101110001111
1101110111100111
1111110011011111
1111011100100000
1111110000010001
1111101100101001
0000100010100000
1111001110100001
1110100101010011
1110100001100110
1101110000010101
1110101110010100
1110111000000101
0000010111010100
0000000001110011
0000001101100001
1111011011010100
0011001010111101
1111100111100101
0000110000100111
0000111000100001
1110110010100101
1111111110001001
1110111011101011
0000011011000010
1111000101110111
1110100011011110
0000001001110010
0001111000011011
1111000000110000
1111100001001010
0000011110000010
0000001001110010
1110010000010100
0001001100000001
0001000000001001
1111111011101011
0000111111011100
0000111110100000
0001110110000011
0000011001000001
0001000100010101
0001100110000101
0001101000111110
1111011100101110
0001001100100010
0000100101010111
1110110000111110
1111001101010110
1111011100110100
0000001110010001
1111100100000100
1110101101011110
0000110000101010
0000010000000000
0000011111011111
0001000111110110
0000010100101000
1111011011101110
0000100011111001
1111101101000110
0000100110110001
1110101000001101
1110011111000011
1111100001100111
1111101110100001
0000101001101001
0001001111010100
1111100100111000
1111011101111100
0000000010010010
1111111101101000
1110010000000100
0001010000100010
0000101001010000
0000101110100001
1110101011001010
1111000010001000
0001000101111010
0000000101010101
1111110011111000
0010001010100110
0000110111011000
1111000110100001
1101010100111001
0000011011101111
1110101011101010
1111111111100010
0000100001011010
1111010000010010
0000111101010001
1111100100110000
0010000100110010
0000011101010001
0001111000000101
1111110001011000
1110110010001011
1110001111100110
1111001011100001
0000111111101010
0000001001001000
1111001101010000
1110000100110011
1111111110000101
1111000100111111
0000011110101101
1111111101110100
1111010000010100
1111001110100010
0000100101101000
0000010011100000
0000110011001111
1111000110011001
0000010101100010
0000000100100011
0000001110000001
0001000100000011
1110100000100111
1110001010100100
1111100101000110
0000111010010011
1110101001010001
0001011101001010
0000110101100100
0000001110110111
0000100101111110
1111010010000000
1110111011100100
1111001000000000
0000011100010001
1110101010100001
0000110100000011
0000110001011111
0010001011001101
0000110010000000
0000001001101010
0000010101000101
0000001100111110
1110111001111011
0000101101110001
0000111001010011
0001100110001000
0001001010001101
1111110101011111
0000010001001000
1111001100110000
0000101110101001
0000011101010110
1111110101011000
0001000110010000
0001001110001110
1111100110111010
1110101111011110
0001001100111000
1111111110111111
1111011010001100
1111010010000011
1111001100010011
0000111110111000
1111011110111011
1111100000111010
1110110011111101
0010011001101110
1110011100111110
0000011010010100
1110011000000000
1101101110110001
1111101001000110
0000011010100010
0001010101100110
1111101010010101
1111101110111010
0000011011100101
1110011001000011
1110101001011011
1111011110011110
0000111000000011
0000100010110100
1110100001001010
0000010101010101
1111100000100100
0000010011100001
1111100110000100
1111001011110110
0000010010000011
0000010011010101
0000001111001111
0001010011011101
0000011010111110
0000000111110010
1111001111010100
1111111010000011
1111011001000100
1111000001100010
0000100011001010
1110110110100101
0001000100010000
0000011001011101
0010010010001000
1111101101110010
1101001110010110
0000001010111111
0001101010010111
0000111010101001
1111110011111010
0001101001011111
1111011011011000
1110100100100000
1111011101111111
1111000110100101
0000010110011011
0000011010100010
1111001010011111
1110110101011011
0000101011101010
1110111001100111
0000100100101010
1111001001111011
0000001000111010
1111110000110000
1111101110000101
0000011111001100
1111001110111000
0000100100001001
1111111010111000
1110100100001000
1110011001001000
0001110101111010
1110111100011000
0001001110010111
0001110011001010
1111100000010011
0000101110111101
0000000111100100
1110100101110111
1111001010110110
1111011110001010
0000001000010100
1111010010101101
1111111101100011
1111010100001111
1111111011101101
0001110110011100
0000001100101010
0000011101000100
0000001001000010
1111110101111110
0000000011110100
0000000101111011
0001001101000111
1111010101010101
0011000101100001
0000110001001111
1110111101100000
0001000110111110
1110100111111000
1111011101000111
0001000000101111
0000100010111100
0001110001111010
0000110101110101
1110001101111001
0000110011001000
1110100000101000
0000010010100111
1110111010100001
1111101111011101
0010000101011101
0000111001100100
1110101100001000
1110110101111111
0001011001111001
1111101000111010
1110111001011111
0000110111111010
0000011010011100
1110010110010011
0010001101000110
1111100010101111
0001110000100010
1110101101101100
0010001001000100
0000000001111000
0000000010011111
1110111100100101
0001010110011100
0000100011101001
0000101001011111
0010001111000110
0001101001111100
1111011100001011
0011001001101010
0000110111100000
0001010110110001
0001000000000001
0000001011001100
0000000100110101
0001010110010011
0000110011100111
1111110101010011
1111010101111111
0000111011011110
0000010000010001
1101010100010100
0000100101000010
1111101100101010
1111011101100101
1111110011101010
0000111100101110
0001001100001101
1110101010110101
1110101001001001
1111011010010100
1111110100010001
1111100101000111
1110010110101100
0010011111101010
1111011001011101
1111101011100110
0000101011101011
1111110000110110
0010001110101111
0001010000100010
1111010000010011
1111100010101001
0001001110101001
0000011100100000
0001000111010010
1110100100000010
0001010100111011
0000011111101010
0000001111111010
1111110110010110
1111111111110001
1111011001101110
1111011001001000
1110100111100010
0001100100100110
1110011111101100
1110111010010111
0000011010111001
0000001101000001
0000110001100100
0001011111111111
1110100101100000
1111011001100110
0000010110010001
0000011010100101
0001110110100011
1111111110001000
0000010001101110
0000100100010001
1111001100000100
1110110111111111
0000101010111010
1111110101011110
0000000000011010
1111010010100101
0000101111011001
1111111100110000
0001010000000001
0000110001011011
1110000001000001
1111101000011000
0001001101110011
1111011010110011
1110101010110100
1111001010000111
1111110101000000
0000010100100101
1110110000110110
0000001011010100
1110000111000100
0000010000111101
1110010100001000
0000110010010110
0000110000010101
0001100111001000
0000000111001101
0001011010101101
0001010011010110
1110111100011001
0000001001101000
1111101100011010
0000011001011011
0001001110001110
0000001101100011
1111110100101101
0001000110100001
1111100011111010
1111110110110101
0001100110101111
1111001100100100
0000100000100001
1111111011110011
0000101110101100
0001001001100000
1110100001000100
0000000001011101
1111010011111100
1111101101001110
1111100101011010
0000010111001011
0000101111101011
0000001001010100
1111011000000100
0001001110000010
0001100111110111
0001110111111000
1111010101011101
0001011010011000
1110100010000110
1111000100011000
1110100011011000
0000011000111010
0001110010110100
1111110010010010
0000100010010010
0000011110011010
0000000001110000
0001000000101110
0000110101011011
1111110000010101
0000001001010011
1111101111100111
0001010000101100
1111001001111001
0000100110000110
1111100010100000
0000100000101010
1111100001100000
1111101011010001
0001010011111001
0000100011010111
1111100101000011
0000010111000000
0000000101010101
1110101111010100
0000101000001011
0000110101111010
