1111101010001011
1100001100010111
1111011110100101
0000010110111011
1110011001101010
1111100011111011
0001100011100101
1111001111101011
1110110100001010
1110001000110001
1110110010110101
1101110000001000
0000111011101111
0000111011000101
1111111011100110
1111011011110010
1111101011101011
0001010110110001
0001000010000010
0001000011100001
0000101001100110
1111001110100001
1110101110010000
1110011110111100
1111010010000001
0000001001001010
1111111101110011
1111110100001110
0000100101101011
0000000111111101
