1111010111100000
1110111010011100
1111110010001010
1101000011001100
1111111111100100
0000001011100111
0000101011101010
0000011111011101
0000011110011000
1111111101011001
1111000010101100
1111001011101111
1110111110110011
0000010000101110
0010000111111111
1111110110110011
0000100001101111
0010001010111101
0001101110111110
1110110000101000
0000000011101011
1111110100001001
1111100011100011
0001010001110100
1110111011000111
1111110000111001
0000011010101100
0001000001110011
1111011010000001
1110100001001001
0000001100111110
1111100110001001
0000101111001001
0000111101001101
0000001100110110
1111000111101010
1111000110000001
0000001101101001
0001100001011010
0000011111001011
0000001011010011
0000100101110011
0000100001011001
0000010011001010
1111001000011000
1110111011110110
0000010011001001
0000101110010010
1111110010011010
1111010011100100
1111000001011010
0000010011100001
1110111111000111
0010100010111011
1111111111011001
0000001001011011
1111111111101110
1111110100010110
0000001101000100
0000101001101110
1111101110011001
1110110000001010
1111101101111110
0000100000011011
1110100101101001
1111011101111000
0000111111011111
0000011111010101
0000101100011110
0000101000111000
0000011010111001
0000010110101010
0001100110111011
0000000010001111
1111110010111011
1111100110001010
1110110001100110
1111100000010100
1110001010110000
1110101110111100
0001101101000011
1111100101111111
0000000001011010
0000010011011110
1111010011110000
0001000100001011
1111001110000010
0001011100001110
1111110100100000
1111001110111111
1111000011111111
1111101100001111
0000010101010011
1111110001001001
0001000100000000
0001000010100110
0001001111001111
1111101000111110
0001001011111100
0000111100110110
0001000011100111
1110011111000100
0000000101100100
0001100100101001
0000010001010001
1111000010111111
0000101010111100
1110100100000001
0000001000001100
1110110010111011
0000101100011101
1111101111000111
0000000110111011
1110110110111010
1110110101100101
0000110111001100
0001010111001011
1110010000010010
0000010110101110
1111000110010011
0000010110100000
1110111100011100
0000110011011010
1111000001011001
1111011001011110
1111011110110011
0000010110111100
1111101111100111
1110101001100110
0001101101011011
0000001000110100
0000011100010010
1111011111111000
0001110110100110
0001100101010100
1111101001110100
1110111101001110
0001001101001000
0000101001100100
0000001011010111
1110011110010011
1101101000111001
1111110101010101
0000100000101101
1111101010100010
1111000110001111
1110001011111110
0001000000110110
1111010111000110
1111110110110011
0000011011110000
0000111000011101
1111011010000100
1111011101010000
0000111011010111
0000100000110110
0001010010111011
0000001000100111
0000010100100100
1110101111110111
0000000010100101
0000001100001010
1110001000111110
0001111101011001
1111100000001110
1111111100101101
1110110000011010
1111111010101110
1110110101101011
1111001110111001
1110110101000000
0010100100000000
1111011100001111
1111001100011111
1111001100111100
0001000111101110
1111011101011000
0001111000110110
0000011111101100
0000110001101010
0000110001011010
1101110110000100
1111010111011111
0000100101010001
0000110001100011
1111000100001101
1111110010000001
1110011111101111
0000000011000100
1111010001111100
1111010110101011
0000100111101001
1111110111100100
1111101011010111
0000100100111100
0001111010011001
1111110010110110
0001110001010001
0000001010111111
1110001001101110
1111001011101101
1110101001010011
1110111010110011
0001001100110010
1111001111101001
1111100101001101
0001001011000001
0001100010011111
1111001111110110
1111111111011101
1111011011111101
0001110010000000
0000110100111010
0000010001100000
1110110111001010
1111111000001110
0001010100000011
1111110001000100
0001101101110100
1111001100011010
0000001110001101
0000010100011111
0001010001110011
1111010101101001
1110100011111000
0000001111101100
0000000101010000
0000000111011010
0001010011000100
0000111001100001
1111001001111001
1111101011001110
1111010011011001
1111001011111100
0000101010100010
0000010011000100
1111101110110111
1111111010110101
1110110110100110
0000100010000010
1111011111111001
0000000010110011
0001011001010011
1111110011111011
1111001010000111
0000010000100111
0000100011010010
0000100000100111
0001011000011111
1110000100101010
1110101011000010
1111101110111100
1111011001001110
1111011101101011
1111000000010000
1111100100011111
0000100011101101
1111001110011011
0001001010010110
1111111101100100
1111011000100001
0000110010010000
1101101111111011
0000011010011011
1111111100110001
0000000011011010
0000101011110101
1110011100101110
0000101010001001
0001101100101000
1110111000101011
0000000000011011
1111111110101110
1111010000010010
0000100010010100
1111010100110010
1110111000110001
1110100110010001
1111011101000100
1111100110100001
0000110010100010
1110100000000101
0001110100110001
1110001001101010
0000110100010000
1110101001000010
1111110001100000
1111110011110101
1111110000111111
0000110111010101
1110010010111100
1110101100101011
0000011010100100
1110101011010100
0001100011100000
1111111110001101
1110100001101101
0000101010000011
0001000000001101
0001000100101001
1111000111000010
0000011010101000
0001000001001010
1111111010010001
0001110100010000
0001100101010001
1111010101101010
1111110100001111
0001011111110011
1101100100111101
0000011011010001
1111110101111110
0000111011101111
0010000111101101
1111100001001110
1110010100110001
1111010100111000
0001001101101100
1111100101110100
1110111111111010
1101101001001000
0000110010100011
0001010101000100
1111011001001011
1111101100110011
0000100001100000
0000000001001100
1111111000010101
1110111011101100
0001011110010010
1111001110010110
1111111101000101
0000010110101001
1101110011101101
0000110100111110
0000010011000111
1101100101111110
0000011001001101
1110011010010100
1111111111101000
0000100101011011
0000111101011000
1111011110001111
1111101100010000
1110110101110111
0000100110000100
0000011000000001
1111111100011100
0000001100011000
1111011111100011
0001111001001011
0000101101010101
1111100101001111
0000011001000111
1111111010100001
0000101100101100
1111101100110010
0000000001110010
0000011111001100
0000101011110100
1101111100001110
0010001001010101
1111000000101010
1111110111001010
1111000001011010
0000110001101110
0000010000011111
0001100000101011
0000101100100111
1111001100110011
0000111100010100
1111101100001111
1111001101101100
0001010111100000
1110111100000100
1110101001101000
0001000010111111
1111110001011001
1111010111011000
1111111010101100
0000000110011101
0000101100010110
1111111010101001
0000110001000100
0001110111000011
0001111001110001
0001100100000111
1111101000001010
0000001001101000
1111100000001000
0001001100110010
0000000000100110
1111000111010001
0000010111100111
0000110010100001
1111110000110111
0000110011010111
0000000101110011
1111101001000011
0001001001100001
0000000100010101
0000101010010111
1111100110110101
1101111100011111
1111110101010100
1111110011010110
0000110110001011
0000000010011101
0000101001101101
0001100011000001
0000111011101010
1111111011000100
1111101111000001
1110100100101001
0000011100001000
0001100110110110
0000011110001100
1110111011110010
0000111010100110
1111000100101110
0001001110010101
1111011101011111
1111001111001000
0000101101101100
1111000000100010
1110110101011100
0000001010010111
0000110001010011
0001010101100001
0010000000111010
1111101111000100
0000100110011011
1101111100110001
1111100110100100
1111101001110011
0001010001101010
1111100001010000
0001000110000010
1111000001111101
1111001110110111
1111110100101010
1111110000001100
0001000100111101
1111001111110100
1111111011101101
0000010000010010
0001000110110011
0000110110100000
0000000011111011
0000111111111001
1111100010001010
1111100101011001
0001001111010001
1111000111011101
0000101111010001
0000100001000110
1111011011100100
0000010011011111
0000100001000010
0001101001010110
1111101100000110
1111001000010000
1111100111101101
0000111101000001
1111101011101100
1111010000011000
0000100010111001
0000110111101000
0000111011011110
0001001001111101
1111011111111111
1110111000011010
0001111110000101
0000111100101100
1111101000010110
1111100010010101
0001010111101101
1111010110110000
0000101010110001
1110100100000101
0000110111000100
0000010100111111
1111111001010111
1110110100101101
0001010110110010
0000110000111111
1110011001110110
1101001001101100
1110001110100010
0000010010110001
0000110000011001
0000110110101100
0000011010011110
1110100111111010
0000110000010000
0010000100100000
0000111111001001
0000111010010000
1111000010110100
1110011111011101
0000001000000000
0000110100111110
1101111111101000
1111100011011001
1111011111101011
0000100101010101
0000110111110001
0000111111000010
1111001101000111
0001100010010100
0000010001000010
1111010100010011
1111011000111100
0000000000010011
0000001110000000
1111010111100100
0000111111010111
1111011011010101
0001000100100110
1110101011001011
1111110101011100
0000010100100001
0001111111111100
1111110101101100
0000010100110100
1110111100001101
0001001000001111
1110100011011010
0000011001010001
0000010011010001
0001000001001110
1101011110011100
0001111110100001
1111111011001111
1110111100001010
0000110110001010
0001001100011010
0000010110101011
0000110011101000
0001011100101001
1111111001010001
0000000101110000
0000110011000101
1111011100010000
1101111011110010
0001001101111111
0000000100100101
0000000111001001
1110000100101010
1111100001001111
1110111111011001
1110100010001001
0000010010101001
1111101110000011
1111101011011011
0000100000010000
1111010000001101
0000001001010010
0000001001111111
1111101100011000
1110101001100110
0000100001111011
1111001001110101
1111101001000100
1111101101110001
1111010011000000
1110110101001101
0000100111110110
1111101010010011
1111111101000010
0000110010110100
0000011100110101
0000001100110001
1111101111010000
0000110111111111
0000000110100011
0001110010010101
0000100111011110
1111101001010011
0000011111100111
1110100000100001
0000100101111010
0000101100100000
1111011111111000
1110101100001110
1111010010100111
1111100011011111
0001101011001000
1111001000100010
1111111000111110
0000110001010011
1110110110000100
0000001010011110
1111000110101010
1110001101101111
1111010010001000
0001011000001011
1110110100101000
0000001011110011
1110111011111010
0000011110011010
0000111010110011
1111101000111010
0000110101010110
0000001111010111
0001011000010101
0000010111001011
1111010011010101
1111000100111000
1111110000110001
0001010010101101
1111101001101011
0000110111101101
1111100001111001
0000000001101010
1110111011001111
1110110010000010
1111010011001101
1111111111010000
1110100011011001
1111001110010101
1111000010111010
1111110110001001
0010001100001001
0000001101011011
0000001110001100
1110100010110010
0001011110010000
0000010110111100
1111010011111100
0000100101110010
0000000111111110
0001101110010001
0000011111010000
1110100010110001
1111000100011010
1111111101100101
1111011110011011
0010001101000101
1110000001010011
0000111101010010
1111101010101011
0010011010001101
1111000101100001
0000001110001111
1111000000011001
1110110000000010
1111110011010010
0000100011110101
0000011011001011
0000011000111101
1111110110000000
0000010010100111
1111100100110110
0001100010110111
1111100010000011
1111100100101101
1110010011111110
1110111101011100
1110110101010000
1101111001100100
0000010101111011
1111101000100111
0000101001101011
0001001001110011
1110101010101101
1111101010111010
0000000101000001
1111000100011101
1111010111000110
0010011101011000
0000101101111000
1111001001000010
0000101010001000
0000001100001000
0000111111100001
1111101101111011
1111101101000011
0000010101011110
1110110100101011
1111011001111001
0001010111010011
1110111010100000
1111011101101010
0000011111010100
0001110110000110
1110110011010101
0000010100010000
0000011001011111
1110101011111111
1110001010101001
1111000011011100
1110110000011000
0001001001100101
0010001010011010
1111100000101001
0000101011010101
0001001001101010
1110111011001101
1111011101110000
0000101110001110
0001010100001011
0001001001001000
1110101010100010
0000001110000001
1111100000100011
1111110010001100
0000111110000110
1111011100110100
0001010001010111
0000011011101101
1111010001100100
0000010100010111
1111011001111000
1111001000101111
0000101110000000
0000011110111000
0000110010011100
1111001001000011
0000101100001000
0000100011111110
1111110101000011
0000100100000000
0000001010101100
0000111111110001
1111100001111000
1111001001010110
1111011100011111
0000100111111100
0000001110010000
0001010110100001
0000000001011001
1110100110110110
1111110000101111
0000100100001001
0000001111110010
0000010001001001
1111001101011000
0000001010111001
1111101001111010
0000111101010000
1111110010000101
1111101100001000
1111111101100111
1111101100100010
0000101110101101
1111111000101001
1111001000100110
0000010000100011
0000010100101001
1111110011011011
0000101111100111
0000101100000001
0000111111010101
0000011101011101
1110100010011101
1111001111100110
0000010011001001
1111000010010010
1111101001101100
1111011001110111
0000110110000010
0000111010000000
1110111010001100
1110001111010000
0000110011000000
1111101110011101
0001110110100010
1110111111011111
0000101110001110
1110000000100000
1111101100000000
1111100100101100
0000011101000010
1110110010101011
1110111100010110
1111001100011101
0000011000110110
1111011011100001
0000111101110110
1111110011001111
1110101110110001
1110111010100101
0001001010101101
