0100001110100101
1111111001111101
1111001101100000
0000101001010110
0001011111000110
1111100010101111
1111110110001000
1111110000011111
1110111110110111
0001110000101000
0000100010111110
1110000010100010
1111000010000101
1111110001100111
0000110010010101
1111101110101101
0000010000011010
0000001011100010
1111101111011111
0001000010110101
1111110101000101
1110011100110010
1111001000000001
1101011110010101
1111101100110000
0010010011000011
0001100001010100
0000110010100111
1111010011000100
1111011001011111
