0000110101100011
0000100010100100
1111010111010000
0000001010001011
1111111110100000
0000100101000110
0000000111011100
0000100110111001
0000001010111110
0000111100110110
1111000001001111
0000110100011001
0000111110011111
0001011100001011
0000011111111101
1111111101110011
0000100010010101
1111101110011111
0000100100000000
0000100010100100
0001011100111011
0000000110000011
0000010011011011
1111001110011110
1110001111100110
1110001010100110
1111101011111011
0000011011010010
1111011000011010
0001001101001101
0000001010011000
0001100101000011
0000101000010001
1110011101110111
1110101011101011
1111110111010111
1110111101001000
1111111110111101
0000110011110100
1111111010101110
1111111101001000
1111000111011110
0000000100011100
1111001001001001
0000111111011100
1110111111011111
1110111101010111
1110111010001011
1111110000100100
1111101101100001
1101111000110101
1111110000001111
0000000001110111
1110011111010111
0000100101101000
1110110101111110
0000101011111001
0000101000011111
0000010101110100
1101110101101111
1111000001010010
1110111000100001
0000100100101110
0000101011001100
1111001111111001
0001010111000101
1111101001010111
0000100110000101
0001011100011001
0000100001001011
0001010111100110
0000010000110001
1111111101100111
0000111000010010
0000011010010101
0001000111111001
0000000000011010
1111010000011100
1111110110010100
0000011100111001
0001100111101110
0000001000001010
1111100100111011
1111100111111100
1111101000111101
0001100100001101
0000110001010011
1111101011100101
0010011111100010
0000100110011110
1101101011111100
0001111000101001
1111100111100111
0000010100111000
0001011101001111
0000000010010011
1110101100110100
1111101000101010
0000100001000100
0010001110111100
1110110011101011
1111010111111000
0001001011110010
0001000001011110
1101101101010011
0000011011111111
1111111001001100
0000100000100011
1111111010011111
0001000100011010
0000001000001011
1111111000100100
1110010111001111
1111111111001011
1111100101010011
0000001101111011
0000000010111010
1111100010001101
0000000010001010
1111001001110011
0001001011000111
0000001110110100
0001000111100000
0000011010110000
0001110001110110
0000001111001000
1111111010011011
1111110001101110
1111010010100110
0001001001111011
0000000000110000
0001010000000100
0000111001110000
0000100101101110
0001011010110011
1111111100101011
0000101101001111
0001000100001100
1110111001111110
1110110100000101
1111110110111011
0001000011010001
1111110101110010
0000101010010010
1111011010011110
1111110100111000
0001011010101101
1110100101000001
0001010010110011
1111010001011011
0000101000010011
0001000110010000
1111010101111100
0000010111010111
1111101000001111
1110010100010001
1110110101011010
1111010001010101
1110100001111110
0010001011100111
1111001101100110
0010100100111010
1110111110110010
0000011110000101
0000001011100111
0000100000111000
1110110111001000
1101111110001100
0010111001011001
0001011001111010
0001110011111010
0010011010011001
0000101111111000
0001100111010000
1111101000010110
1101111111001010
0000111100101011
1111011001100111
1111010010010010
1110110011000100
1101101111110000
0000111011001111
1111101000101110
0000101111101100
1111000000110001
1110110100110000
1110110111010011
1111000000000001
1111111100010101
1111101001111000
0001001010010110
0001011110010010
0000101011010101
1110101101111011
1111011010000001
0001010010001110
0000101011110001
1111000001110111
0001000101000011
1110101110110111
1110101110100111
1111111100101100
1111000001000110
1110001011010011
0000001100010010
1111100010101011
0000000100101010
0000110111110110
0000010001001010
0000101000100110
0000110011111000
0001100100011010
1111101111001111
0000100100110000
0000111000001011
0000101110011000
0001010110101010
1111100100110010
0001001010101101
0001001000101011
0001011000011010
1110101111000111
0000000110010101
0000001011111000
1110101101100100
1111110000111110
1110111011100110
0001010000111000
0001010100001011
1111001001011001
0000110010001010
1111101010000000
0001101100001000
0000011000101010
0000000100001000
0000010000101100
1111000111101011
0001011010111111
0000010000001011
1111010101101010
1111011000100101
1101111001101111
1110010010011110
0000001111011010
0000001010011100
1110111101111001
0000101101010001
0001000100011110
0000100011000000
0000001001110101
0000111011111011
0001010110011001
0000010001111101
1110100111001110
1111001101001000
0001110000000011
1111111000001001
1111111011110111
0000101101010000
1111110101011100
0000001111000101
1111111100111110
0000010000011011
1111011001001000
0000000101000000
1110110001011010
0001100100101011
0010001010010001
0000010011101011
1110010111000000
1110111011001101
0001011100111110
1111100000100001
0000011101110110
0001011101111011
1110111111110011
0001110011111000
1111111101111100
1111011010100110
1111001111111101
0000000101010001
0000010101011000
1111000111101000
0001001110111001
1111011101111100
1111000000001011
0001111101111000
1110101001010100
0001000001111111
1111001011000100
0000010011011101
0001001010100011
1111010000111110
0000101000100001
1111111111111011
1110101100100000
0001011000111010
1110010111001011
1111110100110000
0000000100001111
0010010001111010
1111001011101111
0000000100001101
1111111100101011
0001101100111000
0000011101111101
1110010110111111
1111010111110110
0001010010111001
0000111000011001
1110111101101000
0000011100100100
1111011110100010
0000101101101011
1111010111001100
1111011111111001
1110101111100000
0010000110101010
1111111110111010
1111110011001111
1111111011110111
1111000011110001
0000010010111011
1111111111110110
1111101100111000
1111111111100101
1111010011101110
0000001111001011
1111110101001000
1111110100111010
1111000000100011
1111011100000001
1111111111111011
0000111011110001
1101011001000011
0000011001111101
1110110101010011
0001101011001101
0000101111010000
1111000100101000
1111111101110001
1111001101101101
1110010100001111
0001101110000000
0000100110010000
0001000010011100
0001011101011011
0001000010000010
1111010001111011
0001011101010000
1111110101001010
0001011110110001
1110010111000001
0000001000111110
1111000101011010
1111101010101101
1111100111011010
0000111101110101
1111001011011101
0000101110000001
1110100001110100
0000010101100111
1110110111111011
0001100011101000
1111011111001100
1111000000010011
1111010011010011
1111100010011111
1111110110111110
0000001010011011
0000111011001000
1111011011111110
0001010100010000
0000111011010000
0001010101000001
1111100100101111
1111001111011111
1111111110000010
0001101000101010
1111101110101010
0001011110101001
1111101111010111
0000100001011101
0000001001100011
1110110101010111
0000101000010001
1110101001011111
1111101000110001
0000001001001001
1111111100000100
1111101000101101
0000000011101010
1111110111001101
1111000011100101
0000001001000010
1111100111011000
1111001110100111
0000110101010110
0000010011011010
0001001110011001
0000010001010000
0000000001111111
1110001011100110
1111110010011001
1111001110111010
1110101101011100
1111000110111010
1110100010011001
0000111011000011
0001001101100101
1111100100011111
1111100101110001
0001111010010011
0000010110100101
0000010000101011
1110101001010010
0001011110101011
1101110010000101
1110101111111111
1111110111111011
1111000010110111
0000111101101001
0000101011000000
1111011100000110
0000111000001101
0000110011110101
1111101000011001
0001011001011010
1111111011010000
0000011110101000
0001111100101000
0001001001010101
0000000011111011
1110001000000110
0000101111011100
0000010101111100
0000001010101111
0000101001010011
0000011101000100
1111001100100001
1111110101111010
0000001000110110
0000101010100100
0001100100010111
1111101000111000
1101111011000100
1111110101000000
0001000010110111
1111011010111101
0000101010000101
1111011110100101
0000100111000011
1110111101000010
1111100100010000
1111011101010101
0000001110110110
1111100011100100
1111100011100100
0000101000111000
1111110010111111
1110110111110100
1101110010111110
1111110101100011
0000100011111100
0000100111110100
1111100010101000
1111010000000100
0001011100111001
0000001010010101
0001011011011111
0001001100010100
0000011011011010
1110101011001011
1110111110110000
1111000010111001
0001001100011001
0000001110100110
1110110011110011
1111011100000100
1111100110000001
0000110010100011
1110000111101010
0001011000000011
1111100010111001
0000001010101000
1111010001010110
0000010011000001
1111111111010010
1111110011110100
0001000001101101
0000100000100000
0001011000110001
0001001100000100
1111111010101011
1111011010010011
0001010011010000
1111000000101000
1111110000010001
1110101011111111
0000011010001110
1111111001010101
1111111101001000
0000000110010011
0000111001010011
0001001000010100
1111111101111001
0001100110000010
0000001110000010
0000111011100000
0000001000000110
1111110000101001
1110111010001011
0000000100110111
0001111001001101
0000010110101000
0001011000111010
1110101000101000
0001001110110111
1111011110011110
1111011011100100
0001100000001011
1110011100111011
1111011101011101
1110101000001101
1111111001100001
0001010000111111
1101111110000101
1101001011100111
1111100001100011
0000000010011000
1111111101000101
0000011000010001
1111011010110001
0000110000101111
0000110000010000
1111111101101111
0001100110111011
1111110001011001
0001010100000000
0001001001000101
0000101011111100
1111011010011101
0000110111010001
1111011001010101
0000110100000110
1101101111001000
1111011101010110
1111110101111000
1101110110001101
0000010111011001
0000000111100011
1111100000100000
0000001101100011
1110110110100011
1111111100000001
1101111100001110
1111111100011111
1110101110111001
0000100101010111
0000101011011000
1110100001100110
0000001010110001
0000011111011111
1111111100001101
1111110000010110
0000100110111100
0001001011100111
1111000111010110
1101010100110111
1101010011110011
0001000000010110
1110000011000100
0000110101110100
1111110010110100
1111101101010011
1111101100110110
1110100000100101
0001011110111010
0000011101101011
1110101000001111
1111100010100000
1110011111110010
0000001001000000
0001100011101100
0000101010101011
1111111000000001
0000000101101100
1111110110101001
0000111011100000
1110110001111000
1100110001000011
0001100011000000
0001011011001110
1110101011110001
1110000100111011
1111111001001111
0000101100000111
0001000100110100
0000000011001111
1111010001011001
1111110001000101
1111011010110111
0000011000000111
0000100001011101
0000010101100110
0000111010111000
0000100101011100
0000101101110110
0001000101101111
0000111101101011
1111111010011001
1111100010111101
1111011000111001
1111100101010000
1110000010101000
0010100111101111
1111001010111110
1111000110010010
0001000011011011
1111100110111111
0000111000010000
1111100111100100
1110110000100100
0000110111100010
1110100010111101
1111110010101011
0000010110100111
1111011010100011
0001101001101011
0001001111101110
1111000100000001
1110110110111010
0000110101100001
1111010111100010
0000000101001100
0000111110010100
1111101010011110
0001001111000000
0001011111001001
1111001100001001
0000100001001010
1111000100001010
1110011011100000
0000001110111100
0001001101000100
1111110000110011
1111110000110000
0001001010111001
1111100110011001
1111010011010010
0001001001100001
0001000110010010
0000000010010100
0000001100111100
1110101101001101
1111001111110101
0000010101001001
1111110001110110
1111001110100110
0001111110000001
0000101100010010
1111110000101101
1111010011010111
0001000100111101
0000011000001111
1111011000110100
0000101011110011
0000110100100110
0000001000010100
1111100011101111
1110111010000110
0000010011011101
0000011101111001
0000101011000100
1111110001010010
1111000101011101
1111101110100011
0001011010000000
1111101000111001
1111010110000001
1111000010000110
0000011010010000
1110000000011011
0000110100100000
0000110100000111
0001000101100111
0000101101111001
1110111111110110
1111101011011011
0001000101101111
1111110010101001
0000000001010111
0000110011000000
0000010011000011
0001100110111111
1101110010001001
0000001100010101
0010000111111111
1110110101011100
0000110001010010
1111011101101101
1101011101000110
0000110101110011
1101110101010001
1111101110011100
1101110101010011
0001001001010000
0000001011011110
1111111111010011
0001010101001101
1111000111100000
1111111010110110
0001001110011011
1111100111001101
0000101001101111
1111100000110000
0000100101011011
1110111000010101
1111110101101010
1111111111001101
1111100010110000
1111111000101110
0000011010000101
0001100000010100
1111001101100101
1111101001111011
0001011010010011
0001111101011101
0001110010010000
1111010110110101
1110001011001010
1111011100101001
1111011101101010
1111100100001000
1111100001100101
1111101100001010
0000111000000110
1111100111110111
1111101000100001
0000010011110001
0000110100000110
1111010001111001
1111101111110011
1111010011101011
1110011101001110
0000011110000101
1111110110010010
1111101001100010
0000010111111101
0000100100110000
0001111110100001
0000100010010110
1111010110101011
1111110101100010
0001010010001111
0000001101001010
0000000111101010
0000111101001000
1111111010000000
1111100101101001
0000010001101110
0001010100010110
1111001110110101
1101011010010100
1111001010101001
1111011011101111
0000101011101101
1111010101101100
0000010101100110
1111101110111010
1111100000111001
0001001000010100
0001000000111101
1111100100111100
1110101001111101
0000110000100110
0000100101011011
0000100011011001
1110110101011010
0001001101111100
1111111001101111
1111111000001110
0000011010011000
1111101101111110
