1111101001110100
0000111110100001
0000111101100001
1111101000010001
0000010101110111
0000010010101101
1111101011100101
1111110000110000
0000111101000101
1111111100110011
1111001111011101
0000101110110111
1111011110101111
1111101001101000
1111011111011000
1111110110010110
1111011010101010
1111100000101011
0000010111101111
1111110101100010
0000110011010110
1111101111011000
1111001111010100
0000000011110111
1111000111011011
0000110010011110
1111110011100010
0000101001000000
1111111100101100
1111101001010111
0001000100111000
0000111010110110
0000000000110001
0000011100011011
1111111011100111
1111110010000010
1111011111001101
0000000111000010
1111110010101100
1111111100000000
1111111000010001
0000011100000001
0000000001101110
0000000100110111
0000000101111111
1111110111010100
0000010011011011
0001000011011101
1111100001101100
1111111101101110
1111111101000001
1111010100111011
0000010010110101
0000000010101011
0000010001010011
0000011110110111
1110110000000111
0000010110010100
0000000000010101
1111010000011011
1111010010000100
0000011010110100
0000110000110110
1111111100110011
1111011111100010
1111011110010010
0000101010100010
1111001110100100
1111001001010111
1111100001100111
0000000001001010
0000100010110001
1110110100010100
0000001110010000
1111110111001101
1111011001111110
1111011000100111
0000010001100111
1111111000010110
1111001101010111
0000001000110110
1111100100110011
0000110001100100
0000110010000111
1111101100000111
0000010101100111
1111110001001000
0000001100000111
0000000100000101
1111110001011110
1111100101011001
1111000010011000
1111101100010011
0000010001100001
1111000011000111
1110111000100100
1111110001101100
1110010111010111
0000001101110110
1111101101110010
1111101101110001
1111011101100110
0000101000110111
1111100000000010
1111011011101101
0000010010111111
0000000100011001
0000010000001010
1111100011000111
0000100000110001
0000010110110111
0000010100000101
0000000101111101
1111110011000100
1110111100100001
1111110100000101
1111110011101001
1111110101110101
0000000111010010
1111011001000010
1111011100101010
1111011001100110
1110110011111010
0000001010110111
0000000101110000
1111001101000010
1111101111100101
0000000101010100
1111010101000011
1111111100110100
1111100101100000
1111101011010001
1111001010000100
1111010010101011
1111111010110001
1111101001011011
1111011010001001
1111111101001101
0001000110111100
0000010111111101
0000111100001010
1111110111101110
0000111101001011
1111101100110000
0000101111001100
1111111111101110
1111001111110001
1111011101001111
1111111000010111
1111100001011010
1111100001110110
1111111001110101
1111110100001000
1111011011101100
1111010001100110
1111101101001011
1111111111010011
1111101101100001
1111101010011001
1111011110010110
0000000100000000
0000000100011100
1111110110101011
0000100101101011
1111100100000011
0000100111011100
1111010101011100
1111101110100001
0000000010110110
1111011000101010
0000000011001011
0000011010000010
1111111001010101
1111010111111111
1111011100111010
1111000010010111
0000001000001010
1111111100010000
1111010001011100
0000001001101010
1111110101110000
1111111111000001
1111101110011011
0000100000010111
1111010010100000
1111110011010100
0000000011100011
0000010110011111
0000100010100001
0000000101010011
1111100101011100
0000100100010010
1111010111110110
0000000011001011
0000101100100011
1111011111111000
1110101101111000
0000010000000110
0000000011111000
0000101000101111
1111100111010101
1111111111101100
0000001110001100
0000011101000000
1111001110111000
0000001001101001
1111111110010111
1111100100111001
0000000010000000
0000110110100011
1111100001011101
1111111101011101
0000010111101101
0000011011010000
0000011111001110
1111101111110110
0000001011001000
1111100001011001
0000011110100000
0000111101011111
1111011111101010
0000011010111110
0000000011100001
0000010100101111
1111110110100110
0000110001010111
1111100111000000
1111101001110101
0000000100110101
1111111100010001
0000101010100011
0000010011011100
0000011100010001
0000101001101110
1111111111100101
0000001110011000
1111101010100000
0001000101101101
0000010000010000
0000110100100111
0000011101110001
0000011010001001
0001000100001011
1111110000101100
0000011101100111
0000110001011110
1111111100000010
0000101110111001
0000000101101011
0000011011100001
0000001000111110
0000001100110001
0000011011111100
0000010100011111
0001001011001110
0000101110010000
0000010011100111
1111011110010101
1111100000101001
1111101010001101
1111110011100110
1111001101010011
1111110111010011
0000110010010100
1111110110110111
1111111011000010
1111010000101000
1111010110000110
0000101001111110
0000110011100110
0000101011110101
0000110001001100
0000101100111111
0000100011011110
0001000011001011
0001001101010110
1111110000101110
0000000101100100
0000101100001010
1111111011100011
0000111101000000
0000000110100001
0001001011000100
0000011110101001
0001000010100000
1111010010001000
0000100010100010
0000010101010001
0000101011110111
1111111010000100
0000001110111011
0000001010111000
0000000101101110
1111000101101101
1111100101110010
1111110010101011
0000100110010100
0000011101001001
0000110011011000
0000000111001011
0001000100111000
0000000100100100
0000010010010100
1111110100000111
0000011111101100
0000100010011011
0000010111011000
0000011111000100
1111110001010000
0000101010111010
1111110110100110
0000011011000011
1111111100000111
0000011101000010
1111111101100011
0000000101110100
0000001001010010
0000001011001101
1111100000010111
1111101100110011
0000001101001101
0000001110001111
0000011111101110
0000111010001111
0000010011011110
0000100110011000
0000111000011010
0000001101101111
1111001111101100
1111100011111110
0000011001101000
1111110001101000
1111110100110000
1111111010011110
1111001000101111
1111101111001010
1111111000001000
0000000001110111
1111001100000100
0000011111110110
0000100001011100
0000001011111001
0000001011100010
0000110001100101
0000110110001011
0001000110010100
1111100011100100
0000000001101101
1111111000010000
1111110101001011
1111111001110101
0000001001110010
0000011111101000
1111011010110111
0000000101010010
0000000101011111
1111110110001110
1111111001000110
0000100111110000
1111010010011110
1111011000011010
1111111111100000
1111110001101111
1111011100000110
0000101101010001
1111100111001011
0000101001100111
1111101100000110
1111011110100101
0000000000010011
0000000111001101
0000101010111010
0000111001101100
0001000101100001
0001000100100111
0000001101010011
1111110111111100
1111011100001101
0000000001101001
1111111100110001
1111011111010101
0000011100000101
1111101010010011
0000100010010000
1111110001000000
1110110101110011
1111110001010001
1110101101100101
1110100101101101
0000001101101000
0000001011101010
0000001011010111
0000011011001100
1111111101100100
1111110001000001
0000000011101110
1111101001110010
1111110110001111
1111101111110011
0000101100011111
0000010010111111
0000100111000001
0000010111001000
1111110011101101
0000011001010011
0000000001011010
0000010001010110
0000001000011111
0000001011100100
0000101011010110
0000011001111100
1111011000001110
1111101010001010
1111101001110011
1111011111000001
1111001111111000
1110111011011110
1111001011000100
0000000001110101
0001001111001100
1111001000001101
1111110100100000
0000010001011011
1111001101000100
0000101000101110
0001010100011110
0000001111000110
0000100101110110
0000111110011101
0000110001001010
0000100111101101
0000110010110001
0000100011101101
0000000011101000
1111010101111111
1111110000011000
0001001010010100
0000110110000000
0000011000111101
1111011011110111
0000000011010101
1111110110000110
1111010001100100
1111111111000110
1111011011010011
1111000011100110
0000000011111101
1111100010100011
0000011111111010
0000010111011100
0000000110011110
0000011111111000
1111100101001110
1110111110001011
0000011011011101
1111011100011101
0000000100100011
1111001101100110
1111110111011011
0000011111011100
0000101100011011
0000001011110101
0000001011010001
0000010011111100
1111110100001000
0000101001111011
0000000010000000
1111010100111010
1111011111101111
0000011100010101
0000011000110111
1111100000110101
0000010111001100
0000001111111110
1111111100100011
1111010010010011
1111010000111110
1111101000001001
1111111011000010
1111111111100110
0000100110100111
1111100101100101
0000010110101101
1111101010000111
0000110101011000
1111101100110001
1111111000011010
1111101110110011
0000101001000110
0000010111010011
0000101110011100
0000011111111010
0000001111111010
0000000101000100
1111011011100010
0000000101101010
1110111100010110
1111100011100001
1111100001000000
0000100100110111
1111001011010101
1111001000100111
0000010110100101
1111101011000101
0000100100101000
1111110111111001
0000110011011111
0000001010010101
0000000000011000
0000000100110000
1111101010001010
0000000001010001
1111111111001011
0000001010110000
0000000100000010
1111110111011110
1111011101100011
0000100010010110
1111110010011101
1111111101101001
1111101001000010
1111110001100011
0000000001000010
1111111101000011
0000000001101101
1111111101111011
1111010100001110
1111000110010011
0000000111001100
1111100101001111
0001001001010100
1111001100111100
1111111001111001
1111110000001110
1110110111110010
0000101101010101
0000010001100010
0000100011000111
1111111010110110
1111100101101111
1110111011111011
1111111001101000
1111001110110111
1110110011000101
1110011111001110
1111110110100100
1111001101000010
1111110000001111
1110100101010011
0000101011100001
1111000110000100
1111110110110010
1111110001100010
1111111010001011
1111101100010001
0000001000011110
1111110001001000
0000001111010001
0000001110000000
1111011010111000
0000010010010011
1111111011110010
1111010011000000
0000001010011010
0000101000000101
1111110101100101
1111001101100000
1111001110100101
1110011111011100
1110100010000101
1110100111111101
1111001000111111
1111010111011000
1111101100101011
1110101011000011
0000000110011100
1111101010001001
1111100001001100
1111011111011111
1111000110100100
0000111010110101
0000011010011110
0000111011010000
1111101101011001
1111111111001011
0000011110011110
1111100111011101
1111111101110011
1111101011011011
0000001100111011
0000010111100111
1111110111111111
0000000111110101
1111110100001110
1111011011111111
1111111110100111
1111001000100101
1111110001010101
1111001100111101
1111001001010101
1111011100110110
1110110110101110
0000000100010010
1111100101000111
0000011010001000
0000000101100010
1111010001100100
1111110010010001
0000000001001010
0000001011001010
1111100010111110
0000010111111100
1110111111011100
1111111101010100
1111101111101001
1111111100001010
1111100101100111
1111110011010000
0000111111010000
1111101001000011
0000101111101101
0000001111001010
1111011111001001
1111010011110010
1110111101111101
0000011001100000
1111001100010110
1111110001011001
0000100001000011
0000001011010111
1111101110011100
1111001011101010
1111110100010011
0000011111100111
1111110010000110
1111100100010000
1111111101110101
1111101001100011
0000111101111000
0000011001000011
0000110110100101
1111110001110111
1111001010001011
0000010110100010
1111110110110101
1111111100010110
0000100011011000
0000010101011010
1111110101100110
1111100110100001
0000100101001001
0000010110010001
1111111001011111
0000001110101100
1111100001100101
0000001000101011
1111010101101010
1111011010111010
0000001011111000
1111110001100000
1111111100110001
1111011000111110
0000010001101001
1111110100010011
1111110100100101
0000100010000101
1111110111100010
1111100001100100
0000010100111000
1111010110100101
1111111110101000
1111110111011111
1110111010011110
1111000111011110
1111001111101100
0000101000001011
0000101100001110
1111110001111001
0000101100000011
1111110011010110
1111111101100010
0000011001001000
0000010111101011
0000010111011001
0000011100111111
1111110010100110
0000000000001111
0000010000010011
1111110001100111
1111001011010111
0000110100110101
0000100001010100
0000001010101100
1110111010011010
0000010000011010
1111100110010110
1111110101001100
1111011101001011
0000001001001010
0000000100101100
1111100000101110
0000001000010111
1111110110101000
1111111011011101
0000110001010100
1111011000001001
1111110000101100
0000111100101010
0000000111110101
0001001011101001
0000010000000010
1111101111011111
0000011001100111
0001010101011111
0000001110110100
0001111110110001
0000001110101000
0000100001110000
0000011011000100
0000001111100111
0001001010110100
1111111101110010
1110100011010001
0000000110001111
0000001111000001
1111011111111010
1111111101111010
1111100000000110
0000000100010010
1111101001010111
1111100101000101
1110110111111001
0001000100111101
0000010001011010
1111111101100111
0000000100110101
0000000111010000
0000011010011101
1111010110100000
0000101110100000
0001000101111010
0000000011110111
1111111100111110
1111000100011000
0001010100000001
1111111011100000
0000111111101001
1111110100100100
1111111000010011
0000011101110010
0000101101101000
0000110010011101
1111111001111110
0000001101001100
0000101001100000
1111101011110101
0000100111011111
1111010110100110
0000100001101010
0000001001101010
0000010100101000
1111110101101010
0000101001101101
0000000011110101
0001000110111000
1111010011100001
0000001001000001
1111101011100000
1111111100100010
0001000101001001
1111110010001001
1111010000101111
0000011110010110
1111101001100110
1111111110011111
1110101100000100
1111111010110010
1111101010000001
1111111110011010
0000101011011011
1111011111100010
0000100000011001
1111101010111011
1111010011101001
