1100000110010010
0000010111110000
1101011101110001
1111010110011011
1011001110101111
1100110010101010
1100111101011100
1110010001000010
1110111100010000
0010111100100110
1110110100000000
1011011111011110
1101110010111001
1010000000110111
1110001000110010
0000100001011011
0100011000101010
1110111001001101
1101001111011111
1011111111110011
0000111010110110
1110000010110101
1101100010100010
0011110100011100
1110011111011001
0010101100000110
1110100011010111
0010010100001100
1111100101100010
1111011011111110
