1110110111101110
0001001010011110
0000101101011011
1111011101011111
1111011100101110
0000100110000100
1111001010110111
0000011100000000
1111100001101001
1110101110111000
1110101000110011
0000001001110010
0001110100101100
0000010100100111
1111011000100011
1110110001000100
1101111111011000
1111111100100100
0001001000001001
0000110000001110
0000010110100010
1110000010110010
1110010011110101
0000011101011011
0000111111111110
1111001000110100
1111100011011110
1111101010011111
0000000101111010
1111100110101101
0000011001011000
0001000111000010
0000011111011001
0001000000001100
0000100010010000
0000011000100111
0000000001110011
1111100100001000
0000000101011001
0000000001100110
0001000010011000
0001001011000011
0001100100100011
0000101110001000
1111110000010110
0000100100101001
1110111101001011
0000000101010111
1111110001101010
1111011000101100
0000101101001001
0000011100000000
1111100111011101
1111100110000111
0000100010100110
1110100011010011
0001010001101101
0000111010111110
1111001000010101
1111010010111111
0000000010111010
0000010001100000
1111010110011100
0001000100011111
1111001111110011
0000000100011101
0000001000010000
0001010011111010
1111001001000110
0000001001001110
1110111100100100
1110011101101011
0010001100101111
0000000000111011
1110110010101000
0001001111000001
0000111011000011
1111111011101111
1111010000000100
1110011000110011
1110100001001101
1110000110100010
0001011101100100
1110111001011001
1111100001100011
1111101101010101
0000010110000000
1111011101011000
0001010001001010
1111001001110001
0000111001101001
0000011100001001
0000100100001011
1111111010010101
1111010110000100
1110101111001110
1110010110100011
1111101101100111
0000111100100011
0010000001001001
1111000011001001
1111111001011101
1111001001011010
0000000101101100
1111101010001010
1111000011101000
1110001011001110
0000000000010110
1111111110011111
0000111000101100
1110110001100001
0000000110110010
0000011101110100
0000011111110111
0001010100011001
1111100100001001
0000011011100100
0000010100001110
0000101110111000
0000111100111011
0000001000100011
0000010111100110
1111010111011001
1110111000010001
0000011101010111
0001000010101110
1111000011010011
1111101001100110
1111111000000001
0000110100001101
1111110010011100
1110011100101101
0000001100101110
0000011111101000
1101111010111000
1111100110111001
0000001011101101
1111110110101110
0000000011101001
1111011100000000
0001010101010100
1110011111011001
1110101001010101
1111110000000110
0000000010001001
1111010010011111
1110110000010000
1111011111101101
0001000000101010
0000011011011111
1111101001000001
1111110000000011
1111101100001001
1111111100111000
0000000001110011
0000101010101011
1110101100111010
1110001010010011
1101110010111101
0000100111111110
0000001110000001
1111011000001101
0001000001100111
1111010001010001
0001100010101101
0000011010011000
0000010011111110
0000010110110101
1110110100100010
0001100100001010
0000100111100001
1111011111101111
0000110001001111
0000011000011011
1111111001001011
1111001111111001
1111101100111110
1110100001100010
1101010011011101
1111110100111111
1111000111001001
1111010000011011
0000000111100110
1110111110101111
1111011010000001
0001101001110100
0001100101110000
1111100000101101
1111010001010011
1111011000110001
0010000011010100
1110101000000111
0000101110100100
1111111100000100
0001100000101010
1110110010000000
1111011100011110
0001110001101101
1111011011101111
1111010011100110
0000011100000010
0000001101010101
1111001001001011
1111000101110010
1110100000010000
1111010111101010
1111001001011110
0000011011101010
1111101001101011
1111100010111111
1111010111100110
0000110110100011
1111101010000000
1110111101110011
1111000111100011
1110111100000110
1111111101111010
0010101011011100
0001000111110110
0000000011000110
0000010010110000
0001111110000011
1111110111110110
0000101001101100
0000100111000001
0001000100000111
0000010000100100
1111001011001110
0000110100101001
0001011101100111
0001101010101011
1111010001111011
0000000001011110
0000100110011001
1111011010011110
0000110011111101
0000000101110110
1111101111100110
1111010111110110
1110010000000000
1111001010101111
0000001011001011
0000100000100000
0001000010111011
0000010010001111
0000101111010100
0000101110001110
0001111100111110
1111101111101101
0000000000110100
0000001100111001
0000110000100001
0001011110101111
0001111100110100
1111100010101000
1110111000011111
0000100100001011
1111110010011101
1101111001111001
0000001001101100
0000011111101101
0000111001100111
1111101111101000
0000101101010011
1111011101100001
0001000101111000
0000010011011010
0001100000101001
0000000110000110
0000101101101111
1111011100101011
0001110101100110
0001000011010000
1111001101111100
1110110101010010
1111000001001001
0001010011100101
0000011001001100
1111111000100000
1111110101101000
1111000100000011
0000010010000100
1111011100111010
0001000011110000
0000010011101011
0000100111000101
1110111011011110
1111110000111111
0000110011100111
0000010101101011
0001001110101000
0000000101101100
1110101110111010
0001001011111001
1101010101110100
0000100011000001
0000110010011110
1111101101110000
1111100110001111
0000100011011101
0000100110111010
1100011011111010
1110001111010001
1111101001010000
0001001100110000
0001000000100111
0001001101001001
0000110100100001
0000101100001101
1111111101001111
1111011011011111
1111111011110000
0000001010011010
0000010101001101
1111101010110011
0000001001101000
0000011101000110
1111011011000010
1110101101011111
1111001001111111
0000111000111100
0000011001110011
1111111011011001
1111010111000010
0001000111010100
0000111110001111
1111010011101111
0000101110001011
0001000001101010
0000101111010110
1111101111110111
1101111011011111
0001111111100010
1111001010010100
1111111010000011
0000101010001011
1111110000100011
1111100100011010
1111111100001101
0000000110010111
0000001101001100
1111100000100110
0000111100001010
1111101100011111
0000000011010110
1111001001001010
0000010001010010
1111001010101101
0000011011000101
0000100110111000
0000000000111100
1111010110000000
0000110111000110
1111110011001111
0001000000010011
0001101111111010
1111010100101111
0000100010100101
1111010111101100
0000110010101111
0000110111100111
0000000000000101
1111100000111011
0000001100110111
1111101010001111
0000111100000011
1111001110000111
1111010101000111
1110010000001011
0001100000000101
0001000011001110
1110111100010110
1111000000100000
1110101101110000
0000001011100011
0000110101100010
1110111110000001
0001011100100101
1111111001101101
0001101010111000
1111111111000110
1111101111001101
0000110110100010
0000101111010000
1111100110000011
1111110010101011
1110111011001011
1110101011001011
1111000101101100
0000110111000110
0000010110010000
0000001011111100
1110101101101110
0000111011000110
0000110011011011
0000000110011101
0000011000101100
1111110100110110
0000001101110101
0000110011001001
1111100101011110
0000001101101110
0000010110011010
0000110101101011
1111001111111000
1111110011101101
1111010110100001
0001011011100110
1111100001100011
1111111100000001
1111110110010000
1111001100011110
1111111010000111
1111001110010101
0010010110111101
1111001001000011
0000110111000100
0001011100011010
1111111111100111
0000101101011111
0000000101010100
1110100000101000
1111101010010000
0000010000001001
0001001001100001
0000111100101001
0000000001110010
0001001000100011
0000000111001001
0000111111010101
1110011011111001
0000000111101111
0000000011111000
1110111110111010
0001100100100000
1111001111000100
1111011101011011
0000100000011100
0000110001000111
1110101001101010
0001100001101010
0000010011010011
0000110001011100
0000001100010100
0001100100110001
1110111011101100
1111101000001101
1111010000100110
1111011001110101
0000000000010001
1111001000010001
1111010000000001
1101110001011011
0000001011010010
1111111110001101
1110101000011101
0000000010110001
1110100110110010
0001001001000110
1111000101000000
1111001001100110
1111101011001111
0000111101010010
0000001001000010
0000100000001110
1110111001010111
1111110110011000
0000110110100110
1111001110001000
0000001010101001
1111101001011001
0000011111101011
0000110100111110
0000010111001110
1111011101111111
0000111001101101
0000111001110111
1111011111111001
1110111001001010
0000101111110100
1111110100001010
1111001010111111
1110010010010111
1111110000110100
0001010111010000
1110101011101100
0000010110000110
0000111001111001
1111110110111110
1111111000101111
1111011110110001
1111011101000100
1111100110101111
1101110101000000
1111101101110101
0001011111100010
1111111000101101
1111110001101011
1110100100001100
0000000101101011
0000101011111000
0001100101100111
1111101111100100
0000001111100011
0000110000011011
0000001001011100
0001001110011001
0000100000110000
1111110101101011
1110011111100100
1111101011100001
1111010010010100
0010000000010101
1111101101001011
1111110001100111
1110100101101100
1111110000111101
1110110100110100
1110011001000100
0000011000100110
1111001100101101
0001110000111011
0010011010110111
0000010101001110
1111110011001010
1110001100001010
0000100101100011
0000111010110111
1111010000001010
1111101000110011
1111101111000101
1111110110010011
0000010101010001
0000011010100010
0010000101001111
1111001010110001
1111000001010001
0000100101011101
0001110110110110
1111011101111111
0000100111011110
0000011011110110
1111110110111001
1110111100001100
0001111111000101
0001100000001000
1110110101100000
0000011000110110
1111110010111010
0000011010110111
0000101111011100
0001110010010010
1111010100100100
0001000100111010
1110101010011000
0001001001110010
1110100110111111
1110100000001100
0000011000010101
1111000100001001
1110111011011001
0000001001001001
1111010010011001
0000000101000010
0000011000001001
1111111100101010
1111010000101110
0000111011110000
1111100101001001
0001001110100010
1110011100000011
0000101101000001
0000001100111000
1111111110011001
0001011000110001
1111011010101100
0000000111110111
1111001001001111
0000000001110110
1111011101100100
1110110011010111
1111101011101101
0000011110000001
1101100001000000
1110100010010111
0001010011101010
1111010000110111
1111101000001111
0000000100111011
0000000001101001
0000011011100101
0000011011111011
0001100010111000
0000011100010000
1101111001111001
0000111111010011
0001101000001001
1111111110001111
0000001101001111
1111001001110011
1111101101011000
1111100010101100
1111101000010100
1111010011101001
0000001001010000
0001001110110101
0000101111010001
0000100010010000
1111011010111010
1111001011100101
0001000011000000
1111111111110010
0000110100000111
0000110110100011
1111110000111100
0001011100010111
1111010100000010
1111000101111110
1111010101101111
1111011011110111
1101101001001101
0000001010100101
1111011111001011
0001010111001110
1111100111010001
0001000111000010
1111111100011110
0001011110110000
1110001101011011
1111111000010011
0000110110010010
1111101100011111
1111010001111001
1111101110111001
1111111111001011
0001001010011101
0000000010101110
1111111001101101
1111100010010110
1111010001101101
0001001011110011
0000011111011011
0001000111101010
0000111000000111
0001000010010011
0001000001110000
1110111010101110
0000111001101111
1111011100000011
1111111011111011
1111010001000100
1111010011001001
1111100101011110
1111001000100101
0000110111011101
1111100100011001
1110100100101010
1111100011011111
0000011111000110
1110011000001001
0000000001111111
0000101100101111
0001000001100110
1111111000110011
1110100100100100
1111001011001011
0001001001101001
1111100001000101
0000001101100011
1111111101011010
1111000111101001
0000000101100111
1111101010010100
1111101101101100
1111011100011101
0000000100001101
1111011011000111
0000000110000001
1111010010011010
0001000010010110
1111110001101100
1111001011100100
1111101000100001
1110101101000011
0000100110001011
1110110011011100
1111011101010101
1111110001011001
0001001100001000
1111001011110011
1111001001111101
1111001010101000
0001001001010110
1111010000001111
0001010000011110
1111111101010110
0001000111100000
0001110110110110
0000011001101000
0001010100111011
1111110011011110
0001011001110100
1111011110111010
1111100110100001
1110110011100111
1110100000110111
1111100100001111
1101011010001011
0001100001110101
1111100001111011
0000111000000001
0000001111110101
0001010110011101
1111000001101110
0001100101010000
0000010000000001
1111111111110101
1111010110001111
0000010000011110
1111010000101100
1111110010001101
0000111111011100
1101110100011111
1111100001111111
0000100100010110
0000100001111100
0010000010000110
0000010111111100
0001111010011011
0000001110001010
0001011010110001
0000000100111011
1111010010001001
1111000101110101
1111000001111011
0001001001011001
0000011000111001
1110101101100110
1110101111010100
1110101111110110
0000001110110010
0000000001010111
0000011101100100
1111110110110010
1110111000101000
1111011100101000
0000011110101100
1111110111101001
0000011110100010
0001000011010001
1111101110111111
1111100010001011
1111000000000101
0000011110001100
1111011010100111
0000001110011111
0000011111110010
0000111101111101
1101111110000000
1111000101000010
0010100001101111
0010101101001011
0000101001001111
0000010100101111
0000010100101110
0000000100011101
1111001001010000
0000000110010011
0000101011000000
1111101010011001
0000111110010110
1111101100100001
0000001111010101
1111111010000000
0001000110001000
0000001101000011
0000101011111001
1111110111111110
0000001000110101
1111111100100111
0000110000100001
1111110010011100
1110110110010010
1111111000110001
