0000001111111000
0000001011110010
0000100000001011
0000000111110100
1111011010011100
1111101110010010
1111111010011010
1110100110111011
1111111011101001
1111110010110111
0000011111000110
0000001010100011
1111000101101010
1111010001001010
1111111101111111
0000000100101100
1111001001010001
1110110000010100
0000011001101000
1111001111001010
0000010101001011
0000010100001010
1111011101000010
1111010000100111
0000011010110111
0000000101100011
0000010111111011
1111111110100011
0000010111111101
1110111110001011
1111101111001001
0000001011011110
0000000110000011
0000100011110111
0000100010111011
1111111101011101
0000000010110110
0000001000101000
1111101111000101
1111111001011101
0000100110101001
0000001111000110
1111110100011010
0000001100011110
0000010010111101
1111110101010100
1111010110001101
0000001110001001
1111000001011000
1111000011101101
1111111100100110
1111101001001101
1111011010111000
1111101001000001
1111000111001000
0000000000001110
1111110010110010
1110110001111111
0000000100000000
1111000000011101
0001001001000100
1110110110000110
0000111101001010
0000011000101000
0001100000110001
0001000110010001
0000001101010101
0000101000001000
0000011000010101
1111111010111000
1111111100110101
1111010101011001
1111110010110011
0000001100011000
1111000101110110
1111110110111110
0000000101011101
0000100010100100
1111100101010100
0000000111101110
1111011100110111
1111101111101001
0000011001111101
0000101111110100
1111111111110110
1111101110101110
1111101000111100
1111011000100100
1111111110100111
0000000110001111
1111110110001110
1111010011110010
1111101101101001
1111111100111011
1110110100110100
0000100010101101
1111111110100011
1111111001101001
0000101101101110
0001010000110010
0000100110111010
0000000100000100
1111110101011000
1111110011101110
0000010011010101
0000001010010000
0000100110000010
1111100111000110
1111001000010001
0000001011111101
1111110110001010
1111011011000000
0000001110011101
0001011100111001
1111010011001001
1111001101110101
0000001100010010
1111011000000111
0001011101010011
0000011010010000
1111011101011110
1111101001000101
0000010111101010
0000011000010111
1111111000000011
1111101001000001
0000101000011000
1111110001111100
1111010111000111
1111100101111110
0000011011000110
0000010110100010
1111100100111011
1111111010100100
1111101000000011
1111111101100001
1111101110011001
0000000000010000
0000010111100010
0000010010100111
1111101011100001
0000001110101100
1111111001001010
1111100110000010
1111011010001101
1111100001110000
0001000011000101
1111100100000010
0000010101010001
0000000001010110
1111010101101110
1111000100110011
1111101111101010
1111001111011001
1111110011101010
0000001100001111
0000000111010011
0000000111000001
0000010011010100
0000011001110100
0000110001100010
0000000000001111
0000100001010101
1111101100001000
1111100011101001
0000100111010000
1111101101100010
0000010010010011
0000000011011000
1111111100001000
1111100100110001
1111100101010101
1111011110010011
0000001110111111
1111100011111111
1111111100001100
1111010001010000
0000000010001110
1111110101101000
0000000101001000
0000001110000100
0000101000011110
0000100000111011
0001010110001001
0000000101110100
1111111110001100
0000010000000011
0000101010100110
0000001000101011
1111111011100010
1111011111111111
0000001100100110
1111110100100111
1111100110100000
0000001101011011
1111110010100011
1111101101110000
0000001000110010
0000100000011110
0000001111110100
1111110110101111
0000101110000000
1111011110101101
0000001001101101
1111110111010001
1111010111101001
1111010001110001
1111110011001011
1111100010100000
0000011100001111
0000010010111000
0000100001010111
0000010100100010
0000110101111001
1111110010010111
0000100101011101
1111110111010110
0000001101000010
1111101101100111
1111111111000100
1111111100110001
0000011001011010
0000000101110001
1111110011010001
0000100010100011
0000011111110011
1111111010111001
1111010101011100
0000011101101000
1111001001110001
1111101101100111
1111100001111011
1111100001101000
0000100000000101
1111010011000001
0000011111000011
1111110110111110
0000100000010001
0000110101101111
1111100101000010
0000110111111100
1111111000001110
0000000100100100
0000100101010001
1111110111001110
0000000010000000
0000001010110010
1111101111101011
1111101111110101
1111101110100001
1111111010011110
0000000111000011
1110110101101100
0000110001001111
1111111000100111
1110111010001101
0000010000100110
1111010100001100
1111111000001001
1111011101000110
1111110011110010
1111100101011111
0000100101001000
0000010011001111
1111110111100001
0000101101101110
0000100101010110
1111101000110001
1111000100010010
1111111110101011
1111010110011110
1111111101111101
1111100111110011
0000010011011111
0000110001011000
1111110110000100
0000011110100011
1111100010001100
0000100100100111
0000001010001011
0000010010110010
1111110010111010
1111111101100110
0000110110001110
1111100001000011
1111010001110001
1111101111001111
0000000111000011
0000101011011110
0000011001101101
0000000111110110
1111101110000100
1111111110110110
1111001000110011
1111110001010100
0000001110010111
1111011000000100
0000000100101110
1111110001101111
0000001100110101
1111010100111101
1111111001011010
0000011111001000
0000001010100011
1111000111001000
0000000100100010
1111100001011001
0000000100111110
0000011001001110
0000011011101010
1111111011010000
1111100111011011
1111100001101010
1111101001100100
1111011011011100
0000001001010110
0000001100111010
0000010111001101
1111101010001100
0000010001111111
0000011000000101
0000110001100011
0000110100101101
0001100111110010
1111100010011111
1111100100111110
0000110110110101
0000001111001000
0000011101101000
0000000010101101
1111110000110011
0000001011001000
0000010100011100
0000011111011001
1111110011100100
0000000010111101
1111110101010000
1111010111011101
1111100100110111
1111100001011111
1111010110011111
1111011101110001
1111000101111001
1111011010000111
1111111101101111
1111100110101110
1110110111011011
0000010100101111
0000001101110001
0001000111000111
0000011010000000
0000100101111001
0000010111010000
1111111100001110
1111100110000100
0000010010011000
1111110011011101
1110101010111100
0000000110111100
0000000101010100
0000000100011001
1111011010101001
1111000111000000
0000111000011001
0000111100000101
0000110011111110
0000100110011010
0000010001110001
1111110011011100
1110000110011011
1111001011101110
0000011011000010
0000000011110100
1111011011011001
0000001111110110
0000100110100001
0000111100000000
0000111001111100
0000000111110000
0000010110101110
0000000111111001
0000010100001001
1111110010100111
1111110111011111
0000100101111111
1111000101111001
1111001000111001
1111101001000000
0000001001000010
0000001110011011
0000001110000000
1111111010100000
0000000001110000
0000011001000111
0000100010110000
0000010110001001
0000100110000111
0000110001100110
0000011010011010
0000011100101111
1111111111010100
1111110100100001
1111101110101111
0000101110111100
0000000001101101
0000100011101001
1111111000100001
0000010000111111
0000101001100000
0000001001111011
1110110011110111
1111100100100110
1111111010010011
0000010000111000
1111101001110100
1111111001010111
1111100110011010
1111001100010000
0000001011001110
1111000001100100
1111111111000001
0000011101110100
1111101000000010
0000011100101010
1111110010111000
1111101001111011
1111010100101111
1111101100011100
1111100001000001
1111001111011110
1111100111010100
0001010011001000
0000110110010000
0000101011111111
0000000111101100
0000000100000001
1111011011101001
1111011001000010
1111110001110111
1111011100110000
1111011100110000
1111100000100111
0000011000110101
1111101011100101
0000001101110110
1111011011100101
1111110011101001
0000011111110001
0000001111111100
0000011000111111
1111010011100000
1111000001101001
1111111000001010
1111111110101001
1111100001000111
1110111010100111
0000001010000000
0000000011001111
0000000100110010
0000101111100010
1111100100001010
1111000100111100
1111001100011101
1110010111101101
1110111101001000
1111111110010111
1110110011111110
1111111000000110
0000001001110110
0000011001000001
1111111001010010
1111100010111100
0000111110001010
1111011100011111
0000001101100010
0000001110100100
0000111011101111
1111100001000001
0001001010001111
1111111000111110
1111011000111110
0000000001010000
1111100111010110
1111110000011111
1111101111110010
0000010001011011
0000101100111100
0000010010110000
1111001100101100
1110100000011110
1111011010011011
1111010111011101
1111101111111101
1111110100101011
1111100000000001
0000011001110101
1111101110101010
0000111100001001
0000110111111101
1110110000101100
0000001011011100
0000110000001010
0000000011110101
0000000110101000
0000000111000001
1111100011111011
1111001000101101
0000101011001101
1111111100110000
0000110011101110
0000001010111110
1111110101011011
1111011000111100
1111101011001001
1111100010010001
1110011101111011
1110110001010010
1110000001110010
1111011111000011
1111111010111000
1111110111111011
0000011001001101
0000011101100001
0000001100010100
0000011010110010
0000000101101101
1110111110001001
1111110000010011
1111100110010111
0000010000010000
1111110101010101
0000001010100101
1111001011011010
1111100110110110
0000011110011100
0000001011011100
1111111010011100
0001011010000110
0000011001110101
0000000101010001
0000110110111110
0000011101111011
0000101000110011
1110011100001110
1111010110111101
1110111011100011
0000001110001100
1111010010010010
1111101001110000
1111110111101001
1111010001110010
0000000111001011
0000110001110100
0000010100110111
1111010011001001
1111011000111011
1111011110011101
1111101110100111
1111110110100001
1111111011100110
0000000011110010
1111111001110100
1111111111000000
1111001010000110
0000000101100110
0000101011110001
0001010101111001
0000011011010110
1111111110101011
1111101111001110
1111111001101100
1111100001000110
1111110111010000
1111110001011101
1111111011111111
0000000010111110
0000011000101010
0000000001101101
1111001001101100
0000011100101000
1110111000110111
0000011101101110
1111111110110010
1111101010111101
1111100110010100
0000000111001100
0000001101000001
0000110101000011
0000011100000100
1111000110110001
1111100001110110
1111011111001111
1111110010000101
0000001100010101
0000001111101100
1111110111001110
0000100011000101
0000100110101111
0000001000000011
1111111010110001
0001000010011011
1111110110011100
0000010111111110
0000011010001010
0000011010111001
0000110010011101
0000010001000101
1111100010010110
1111111100100000
0000011000010000
1111110001001010
1110110100101110
0000000100101010
0000010001100010
1111101001110000
0000011011101110
1110111110101111
1111111010010001
1111101010111101
1111101001001101
1111101100100100
0000010010001111
0000100001110001
1111110010100001
0000000000110110
0000000110101111
0000111000100010
0000011111110100
1111101100110111
0000100000110101
1111111100100001
1111101011010000
1111110010111010
1111010110011000
0000110110101101
1111101100110001
1111101110111000
1111110101111100
1111111000010001
0000011011010100
0000010100111001
1111010101101111
0000000111111110
0000110101011000
0000000001111111
0000000000100100
0000110010100101
1111011110101100
0000011110100110
1111111101111011
1111011110001010
0000000111001010
0001001000000011
1111110011010111
0000010000111100
0001001110000010
0000101111001110
0000000000011111
0000010100111100
0000010101001001
0000000110101010
0000101100101010
1111100001000000
1111000000111010
1111111101000001
0000011001100000
1111011111000111
0000000010101110
1111001001100001
0000111000110111
1111110111000101
1111111100001100
1111010100000100
1111111011110101
0000001110111011
1111011111110100
1111101101111000
0000011110000000
1111101001111000
1111110001011001
0010001001101101
1111111100000011
0000010110011101
1111011000000000
1111110010110101
1111100011001111
1111110101101011
0000001001010000
0000000100001101
0000101100101011
1111000111100000
0000011011110111
1111111000001111
1111111110110000
0000110000100011
0000011111100100
1111111000000011
0000011000011011
1111110111001011
0000100100011001
1111110101100010
1111001011111010
1111111100011011
0000101110100101
0000000011010000
1111101010110101
0000001101010000
1111010100001111
0000001100011111
0000010110101111
0000111100011110
1111011111111100
0000111100100101
0000001111101010
1111011101110011
1111100001000001
1111110001100000
0000000101010101
0000010110001111
1111100000110010
0000000101100100
1111110101111101
0000000001101001
0000100100101000
0000101001000101
0000000110010101
1111100011001010
0000010101000110
1111110111100000
1110110100011100
1111110010100110
1111000011001000
1111101100111111
0000111011101100
0000010100111111
1111101100000110
0000001101111001
1111110001001010
0000000101000011
0000000001101101
0000101011001100
1111101101001000
0000100100000011
1111111111100011
0000001000110100
1111010100011101
0000001010010001
1111101010000011
0000000011110000
0000110111010100
1111000111101001
0000100010100101
1111110101101100
1111110100011100
0000100001001010
0000010110010010
1111001011101000
0000011110010101
1111001111101011
1111001100110001
1110110001100101
0000011000100010
1111001101111000
1111111111010101
1111101111100001
0000011111010101
1111101100010000
0000110110010111
1111111000000011
0000010011010000
1111110100010101
0000000010010111
1111111111011111
0000000000100110
1111101111100001
1111100101110000
0000010001010010
0000000101111001
0000001110100001
1111100011100000
1111110100100101
0000000101000011
0000001110000000
0000010100100011
