0000100010100011
0010111100010010
0000001100101110
1110101110110100
0000010000110010
1110110101010101
1111000011111000
1111001111001111
0001100010010100
1111101001100100
0000110111010100
0001101100110100
0000100011101010
1111011101110101
1111100010001100
0000011110010011
0000010000011101
1111011011111001
1111101001000000
1110111111100100
0000111001000001
1111111011101100
0000110001110101
0000000000111000
0000010001111101
0000000000101100
0000011001101011
0000110101111000
1110010101000101
0001000001100011
1111101011000011
1111001110100101
0000111111100100
0001000100010010
0010110001000001
0000001110101110
1111111111111001
1111111101110101
1111101001011100
1111000011001000
0000110011010011
1111101001111001
0001100010001111
0000100101010101
1111110011011111
0001000000100000
1111011101110011
1111111000000101
1111000001100100
0000111011001000
0000011011100010
0001001111001000
0000000111101011
1111001010100000
0001010011011010
0000011101000111
1111110011111011
0000100011101011
1111101001010011
1111110010100010
0001101111101000
1111100111100100
0000110100000101
1111101001111011
0000111110111010
1111110000011000
1111110100010011
0000100101110100
1110011000001110
1111100000000110
1110011000111100
0000111000000001
0000010000111010
1111011011011001
1111101111111001
0000001100000010
1110011100100001
0000100110001100
1110001100111101
1111001001001100
1110110011111110
0000011011110110
1111000011100110
1111111111111010
0000111101001111
1101111001000001
0001101011010011
0000010000110101
0000100000000111
0011001110110101
1111011101101000
0000111010111011
1110110101010101
0001100010010001
0000110111011111
0000101101101111
0001011100100010
1111101000110010
1111000111000100
0000011010000100
1111101001101001
1111111110111001
1111010101010010
0001010000100010
1111000000101100
0001111101001011
1110100111000001
1111011111010101
0000110010100110
0000111101100011
0000110101011111
1111101010000011
0000100010111000
0000101110000100
1111100111111110
0000010000110101
1110011000101010
1111011100001101
1111100101101010
1111111101111001
1110111001111011
0000100001101000
0000111110001110
0000101111011101
1111010100010011
0001001001000111
0001011001010000
1110101111001010
0000010110001001
1110110010111111
1111000011111101
0001110100000011
1111010010000111
1111011110000110
0001001111101111
0000110010100001
0000000111011100
0000010110100101
1110010111100011
1110100001101101
1111100000111101
0001010111101111
1111101010111101
1111011011100110
1111111010101111
1111101011010110
0000000100100011
0001110000101101
0000001011101001
1111101000110001
1111001001110111
1111001101011101
1111101110101111
0000111000011001
0000100100010011
0000111101101110
0001011000000100
0000101000111000
0001010011000011
1111100101111001
1111110100101010
1110110011110111
1111101110000000
1110110110101011
1111101010111111
0000001101011110
0001100101110100
1110100100111001
0001000001111011
1111100011011100
1110000110010001
1111111111001001
0000011001001110
0000010100011000
1110001011000110
1110110000110010
0000010010101111
1111010001001010
1100000110001101
0000101101110100
1111100100111101
1110101011000100
1111000101110000
0001001110110100
1111000000111011
1111111100100000
1111110101010011
1111101100100000
1111100011111010
0001001001111100
1111100111011001
0000001000101000
0000101100110000
1110010100111000
0000001100000010
0000010010011000
0000000011011010
0010010010010100
1111100111001011
0000011001110000
0000000001010101
1111100001100111
1111001110010001
0010001000010111
1111110011000110
1111000000001111
0001001101000001
0001010110110110
0000100001111010
0000001100101011
1111111110001011
0000101110100101
0001001110010010
0001010001111011
1111111000101100
1111110100110101
0000010110010101
0000001001110011
0001100110010000
0000001001100110
1110110100011111
0000101101111110
1111111010100001
0001010010011010
0010001100010000
0000010101100000
0000000101001010
0000011000111000
0001001110100111
1110100000111010
0000001010010000
1111000101011001
1110100011110100
0000101111100000
1110101011111111
1111110011101100
0000101110011001
0001001110100000
1110011101001111
1110111001111100
1110111010101100
0000111110110010
1111100000011110
1111000011001110
1111111011111110
1111010010100001
0000110001100011
1110100110010011
0001001010011100
0000111010010111
1110011101000010
0000010001001111
1111101001011100
1110111011001010
0000011000010101
1110100010111101
0000001011011111
1111000010101111
0010010110110100
0000001010110111
1111100001101011
0000001110010000
0000000101110000
0000000001110101
1111010000100110
0000011001101101
0000111001110001
1110111000010100
0000001101010101
0000011101001011
1111101000001011
0001011011111111
1111111110100011
0001100001100000
1111111101100110
1111101010100000
1111000010000001
0000010010011011
1110111111001101
1111111100110101
1111101001100110
0001101110100000
0000110001000000
1111011100110001
1111010110001011
0000001101011110
1111111100011000
0000100101101110
1111111100111010
0001000111101110
0000011111000101
1110011100010011
0000111000100101
1111110001100111
1111011010001011
0001001110001111
0010100111001010
1111110011010010
0000110110111010
1111111010000101
0000110001101001
0000011000101101
1111111001000101
1110101100111010
1111110011000101
1111101011001101
0001011000000001
0001000110100111
1111000101101000
0001111100100110
1111101100001101
1111011110000101
1111001010100010
1110011101000011
0001010001010010
0000100100000010
1110000111100100
0000000101000111
0000001110011010
0001101010111110
0001011000000000
0001011011100000
1101101101101111
0010111000010110
0000100011110110
0000000010101111
0000100110001111
0000111010010101
0010001110001001
1111011100101110
0000011100101101
0001011011100010
1111011110111010
1110111011011011
1111011100111001
1111100010101111
0000011100101111
1110000101110111
1111111100001001
1110111001001101
1110101100001001
1111101011101001
0000110101100100
1110110111100010
1101111000011011
0001010010101001
0000001101010000
1110100000110011
0001001001000000
1111101000011011
1111011100010100
0000100001001100
0000000100101001
0000100001100011
1111011100111101
1110100111000100
1111100011100000
1111000110101000
1111111000110001
0000000111000110
0000011001101000
0000110110001111
1111001100001110
1111000111000101
0000010101011001
1111100001000101
0001111110010001
1111010011110001
1111101001101100
1111001111100001
0000000101010111
0000000010110000
1111000100110011
0000010111000101
0001100101110110
0001001110101111
1110110101000100
1111010111010101
0000111100010110
0000110110000111
1111110000110100
0001001000001111
0000111110000011
0001010010011101
0001011111001111
1111101111011100
0000111111000100
1111111111010001
0000010100010011
0000001101001111
0001111010111000
1111110110110101
1110101100011000
1111101010110111
1111111111011101
1110110100011000
1111101011010101
1111011011011111
0001001111011100
0000010110101110
1110110101010001
1111000010100011
0000101100100001
0001011011011001
1111111111100011
0000100000100000
0010000000011011
0010001101100101
1111001011000010
0001101011001100
1111000011001101
0000101001001100
1111100001111010
1111001101101110
1110110100110101
0000000111100011
0001001101001010
1111010001000010
1111001101101001
1111010110111101
0000000001000000
1111101111011111
1111110101010111
1111011000111111
0000111100000001
0000111010001001
1111101101011100
0001001111111011
1111100110000001
0000000110001110
1110111111011001
0000101001111011
0000101001000101
1111010001111100
0000111000100000
0000010111110010
1111111110100011
1111001010010110
0000110110010111
1111010101100010
1111011011111111
0001010111111011
1111000101000111
1111000111001100
0000100110110011
0000111001100010
1111111110000000
1110101100110110
1111111000010100
1111000111000110
0000100100001111
0001000010111101
1110010111111010
1110110001101100
1110100111000011
1111111110010001
1111110111001010
0000111010111110
1111000110101101
1111110111110100
1111000101111111
0000101110011111
1111111100010110
0000100110001110
1111101010000011
0010000001101000
0000100100001101
1111101011011101
1110001100100011
1110101100011001
0000100001101001
1111011100000011
0001101001011001
0001011011101000
0010000000011100
0000100110101100
0000001011100110
1110111101100110
1111001111010100
1111111101010111
0000100111110101
0001000001011100
0000110111011100
0000111110010100
0000110111110000
0001001110011101
1111101110010001
0001001000001001
1111100010111110
0001000101101100
0000111011101101
0000100001110101
1111111111010101
0001000100001111
0000101010011101
1111101001000110
0001100010110100
0000010111111000
1111000011101100
1111100101000000
1110110100001100
1110111101101011
1110111011111111
0000111000110010
0000011100000010
1111001110001111
1110101011010010
0000111010111010
1110110011011111
1111011101111110
1110100000111001
0000010001001101
1111100000101100
1111111111011001
0000010110100001
1110110000100001
1111101110010001
0001000010011010
1110110100110000
0000000001011111
1111101100001010
0000111001001010
1111010111100010
1111010000011110
1111101110011011
1110111011000101
1111111100010111
1111101101010000
1110101100101100
0000101111001000
1110011011110110
0000001000011101
0000010110101101
1111011011100011
1111111100101100
1111110111010111
0000000111111001
1111101010001011
1110001010110010
0010010100011000
0000010000010111
1111010010011111
1111111101101100
1111010110011111
1110100001011011
1111000111000101
1111010110110111
1111011000100110
1111101110110011
1111110100100000
0001010111111110
1111001101111100
1111000010010110
1111010010011010
1110001101000011
1111101010111101
1111001110001101
0000010110110000
0001001010000011
0001011011110100
0000101111110110
0000011011011011
1111111001010011
0000010010110101
1110111010000101
0001110000011111
1110011001000111
1110100101111001
0000100100011001
0000101111101100
0011011011111000
0000000000111100
0000011110001101
1111101111100000
0000111110100011
0000010110111110
0000001111110011
1111000100011111
1111001111001001
0000111110100010
1111100100010010
0001011100101001
0000110010000010
1111001010101011
0000110011110011
1111101011000001
1110011111001011
0000001111001110
1111100001000101
0000011110100001
0000010111011100
0000100010010011
1111011000011101
1111000101000111
0000010010111110
1111000101111110
0000110111101100
0001000110001010
0000101110100111
0000010111000111
0001001100000111
1110110111111100
0000010010010101
1111110100100101
1111100010010111
0001111110010000
0000001101110100
1110110111100011
0000001111111111
1111011100001000
1111111010101011
1111111110010110
1111011010001110
0000001111001100
1111010000111011
1110111101011101
0000100101100001
0000011100100101
1110110001100001
0001010000011000
1110100100001000
1101111001000110
0000010000111100
1111111011111000
0000000011011000
1110011111101101
0000011011011011
0001010110110010
1111011000010101
1111110100110010
0010011001100111
1111100011011101
1111110111011011
1111001101011100
1110010110000010
0001001000010100
0001000011011010
1111110010011111
1111101110111000
1110111001001100
1111011010001100
1111101001010101
0000011010100101
0000011111101011
1111011000011110
0001001010000010
0010010000100101
1111100101110111
1110110010001111
0001011011011010
0001010111101101
0001010111101001
0001100110000011
1111011110001001
0000001110110010
0000011100011000
1111010000100111
1110101110000111
0000110000101000
1110110010011011
0000000100001110
1110100110010001
0001011100100110
0000001010001111
0001011010010000
0000011010101101
0000010000111010
1111010010010001
1111101011111100
1111011111000011
1111111000100100
1110011101011010
1111011011010100
0000110111110101
1111111100100001
0000011101000010
1111001111001011
0000110001110010
0000011010000010
1110000010001011
1111100000010000
1111001001101111
0000011011011100
0000011010101111
1110010100110000
0000011110001010
0000111001010001
1111000100111001
0000010001000010
0000001001101010
0000111100110011
0000110000011101
1110100110001011
1110100111111001
1111000100100011
1111010111111001
0000011000000110
1110111011110110
1111101000010010
1111010101010011
1110101001111101
0000000000101100
0010001011100001
1110000011000111
0000110100100110
1111010101101111
0001111100010111
0000000001111010
1110110011010010
0000011101110111
0000010111100101
0001110100110111
1101110101111100
1111100010010010
1110111111000000
1111011100000111
0000000101111001
1111011111011100
1111000111011100
1111000101110000
0000110011000101
0010010101100110
1111000101011001
0000011011000110
0000000110101100
0001010011111110
0001000010011001
1111101101011111
0000100000110111
1111011000001011
0000010110101110
1111010110101110
0000000001100101
0001010100110101
0001011001101111
1111111100100010
0001000101110001
1111011000000110
1111001101000111
0000000100011011
1110011010111111
1111100001010101
0001000010010001
0000100001110101
0001101001001000
0000001000010000
1111110010111011
1111011100001001
1111000111101101
1111010010110000
1111110100111101
1111111000001111
1111000110101001
0001011100110110
0000010101011011
1111101001111111
1111011010110001
0001001000110001
1110011010000111
1111001101110111
1111111010110011
1111100001110010
1110110010000001
0001010111010011
0010000111101100
0000001001000001
1111001110101001
0000010110000101
0000001001110110
1111001101110011
1111110111111000
1111111011000010
0000100110000000
0001000100111100
1110011100101101
1111101101000010
1111111101100101
0000101000000010
0000001000100000
0000010101111101
1111100100011011
1111100111000001
0000101010011101
1110011101110011
