0000001010000110
1111111101011001
0000000111100011
0000011110011111
0000011011111110
0000011101001110
1111100111010101
1111100000010111
1111100111100010
1111101011001100
1111100001000100
1111111100111100
0000000011100011
1111101111001101
1111001101001000
0000001001001011
0000000010111010
0000101100011101
1111010011100111
1111110100000110
0000101000001100
0000010000101111
0000110111001110
0000000000110101
1111100000111111
0000010001101010
1111111000001111
1111101111000101
0000001100000101
0000111000010001
0000111100110111
1110111111110011
0000010111000101
1111011010001111
0000100101101101
0000001111001110
0000000000001101
1111001111011100
0000000010011010
0000101000101101
1111010010111101
0001001011110110
0000111010001110
1111111111100011
1111110011000000
1111010001111010
1111010111001001
1111101010000101
0000001111010000
1111101010111100
0000010100111010
0000011010101100
0000010010100101
1111110100010101
1111101001000110
1111100111101010
0000000001101111
0000000001100010
0000000011001010
0000000010110001
0000001001011100
1110111101100100
1111100100000001
0000011011100110
1111111110001010
0000111111001110
0000001111010001
1110101000101111
1111110111110010
1111111001101101
1111100011111111
0000011001010111
1111110000011100
0000001110111010
1111101000110011
0000110110111010
1111110111111001
0000001000101001
1111010001100111
0000001100100001
0000010111000100
0000100010100110
0000100111111010
0000111111011111
0000010010010010
0000101011101101
0000110101101111
0000101000010001
1111111010001000
1111111110111010
0000000010001100
0000100001011100
0000110010100111
0000000010000011
1111011100101100
0000001010011000
1111100010000111
1110100110001011
0000011000101110
0000001000111001
0000000001000101
1111110101101110
0000100111110010
0000010100010000
0000000001011100
1111110011100010
0000000110110010
0000101110011001
0000101001000011
1111100111110001
1111101011000110
0000000001111010
0000110111001111
1111001110111001
1111100010101110
1111101110011000
0001001001100000
0000001010001110
1111101101111000
0000101100001011
0000101101111011
0000111100110001
1111100111111111
1111110101101100
0000001101010001
1111111100011100
0000100100110010
1111110100101010
1111110100010001
0000000011010011
1111100000011101
0000001101011110
1111100100101111
0000010010100111
1111111101111010
1110111001110011
1111101111111101
1111110101100101
1111110001000101
1111011000011001
0000010100100001
1111110101001101
0000010110010001
1111110111110010
0000000001011001
0000000010100101
0000101000001101
0000000100101101
1111111100110101
1111101000001101
1111110010110100
1111011110011111
1111110010001010
0000001001001110
1111100000111100
0000011111000000
1111111111010011
1111110110000001
0000000111110101
1111110001001000
0000010111000011
1111000010011110
0000010110100011
1111010111111100
0000001011010110
1111111111010100
1111111100011110
0000001111011001
1111111110011010
0000000000001111
0000001101101111
0000110111011011
1111010101011101
0000011111110010
0000000010100101
1111100000001000
1111110100110001
0000000001001111
1111100001001011
1111011000010011
1111101110110111
1111100011000010
1111101111111001
0000010000001000
0000100101100001
0000101010000011
0000000111011011
1111011100100001
0000000111110010
1111101001110011
1110101010100111
1110110111000101
0000000101111000
1110110001100111
1111101100111000
0000100001110000
1111110010100111
0000100011110001
1111011110011000
1111101111001001
0000001101111000
0000011101010110
0000001110000010
1111110111101110
1111001001001100
0000100111111101
1111101110111000
1111010111010010
1111010001001000
1111010101010011
1111011111010011
1111111111001101
0000000100101100
1111010110011010
0000001111010010
1111101001101001
1111110111110111
1111011101111111
1111111000111010
1111101001100010
1111011101010010
0000000001110101
1111011111001011
0000001001011110
1111110011100000
0000010110011010
1111101100000110
1111110011010000
1111100100111111
0000010111111101
0000111001000001
0000011000000110
0000001101000001
1111100010001010
1111010110100111
1111110100101010
1111001100010000
0000001000110100
1111010111101101
0000011101111100
0000010010000010
0000100011001110
0000011000001111
1111011010011100
1111101000000011
1111101100110001
1111100110000101
1111001110101110
1111101110001011
1111001000011110
1111111100110110
0000100110101110
0001001111101001
1110101010000011
0001000000001010
1111110001100100
0000111011110111
0000010001010001
0000010100001010
1111100101111010
0000010000000100
1111110001111010
1111110010110011
1111100000101011
1110111100010010
1111001100101111
0001010101010100
0001000100000001
0001111010010010
0001100000000010
0001001101001110
0001110011110101
0000101111100111
0000101010101000
0000000111011100
1111101100100100
1111010000100001
1111100101001100
1110100010101101
1111111011100100
1111000011100001
0000011010101110
0000001000000001
1111011010111101
0001000000000000
0000011001100011
1111100101010011
0000010100101110
1111101110110100
1111111101011111
1111001010010000
1111001110000101
1111110011111010
1111111101101110
0001100100011111
0001001011100011
0001001000010011
0001101101011010
0001100010111111
0001011011011110
0001100101100110
0001001110001100
0000110110010011
1111110100000011
0000101000111000
0000010001100110
0000000101101111
1111000101110000
0000101101001111
1111001000110101
0000001010010001
1111111101001101
0000100101110111
0000110100111000
1111000100111000
1111010101010111
1111100010110001
0000011010000111
1111010100010011
1111000111110101
0000000000101110
0000101110110011
0000011101001101
0001011111110010
1111101101001111
0000101011010011
0000110011010011
0001001101001000
0001000110000110
0001110011111111
0001001111100010
0000011100010010
0000111100010110
1111111010000100
1111000110001000
1111001011110000
1111100000010110
0001001000000010
1111001100111110
1111001011101010
1111000111010011
0000101011111011
0000001011010011
0000001100001000
1111001111011011
0000011010110000
1111011011010010
0000001101000001
0000100010011110
1111101001111010
0000000110000100
0001010101100101
0000100011101111
0000000100110011
0000000011110010
0000100110000011
0000010111000110
0000110001001000
0000011011000011
0000000110011110
1111101011001010
0000100111110100
1111010010001001
1111011001100110
1111110000001101
1111101000000100
0000101110101110
1111001110010010
0000001000011000
1111101110011110
1111100000110110
0000110010001001
1111011000010010
1110111011000100
0000000101110101
1111101100001110
0000000100111101
1111110101100110
0000101001010110
0000110110101000
0000101000000110
0000010100000010
0000101011001110
1111101100001100
0000010100011101
1111100110111100
1111111000000101
0000010110100011
0000100011101001
0000000100000010
0000010111111101
0000010011101100
1111110010111000
0000110101010100
1111100101010000
0000001011110100
0000000101110111
1111101111011100
0000000110000111
1110101111010110
1111110111101001
0000000010001001
1111101001111101
0000010001000111
0000111110000011
0000010000011001
0001000110010001
0000000011101110
0000111100010101
0000101110001111
0000101111001110
0000101101000010
1110110110101001
0000010110001010
1111100001011110
1111101011011110
1111011100001000
0000001011110001
0000011000100101
1111111110011111
1111101000101000
0000100101001000
1111111010001111
1111101010111000
0000011001101111
1111000010001101
1111101110101011
0000001010000011
1111011000000100
0000010100111111
0000001101101111
0000010001110011
0000010010000101
1111110011110000
0010000010100010
1111011110101110
0000101110000111
0000011001101100
1111010101100110
0000001010001110
1111110110010011
0000010011000101
0000001011000111
1111010010011100
0000111011101011
1111111010011001
0000100111000100
0000010110000001
1111110000000010
0000011000001010
1111111101010010
1111111010000000
0000000110000100
1111101101101110
1111110101100111
0000001001010000
0000000011010111
0000001001010011
0000100001100000
0000011101111111
0000010001011011
0000010001001110
0000100101110100
0001000100100110
0001010001111101
0000001100010011
0000001011000111
1111101000111001
0000001010010000
1111010011011001
1111100110001011
1111110000010101
0000001000111110
0000100100010110
0000000111110000
0000100110010001
1111011110110001
1111001101011101
1111101111010111
0000000110011110
0000010011001011
1111111011000111
0000010111011001
0000011001010101
0001001010110110
1111111001000111
1111111010110110
0000111101101010
0000000000010100
0000110101010111
0001011011110010
0000000011101110
0000010011110011
1111011000011001
1111001011100011
1111001111001000
1110110101011101
1111111110111101
0000010000101010
0001000001000111
1111111010001111
0000000101010110
1111010101100100
1111011010000101
1111011100001110
0000101111001010
1111111111110001
1111111110000000
0000001101011011
1111011011000101
1111111010100010
1111000111101000
1111110011000100
0000111110011000
0001001010101100
0001010100000000
0001000101111111
0001010011011000
0001010010001011
0000001110001100
1111011001101010
1111001000100101
1111101011011000
0000010001110011
1111110111100001
0000011111111100
1111110010100010
0000010101001111
1111101101010110
1111001111110100
0000011111000001
1110001111101011
1111110100110111
1111111001110110
0000000000000010
0000001000000000
0000000101000001
0000011100111001
1111110010010110
1111111000101010
0000000100111000
1111101000110010
0000000010001010
0000010100101110
0000001011000110
0000001100010001
1111011100001110
1111011001011001
1111110011100100
1111011110110101
1111101100001101
0000000001011000
1111101001111100
0000001001000111
1111110100100010
1111110001100100
0000001100011100
0000110011111111
1111000011111100
0000010011111110
1111101011111110
0000100100010010
0000000111110111
1111110010100110
1111100011010011
0000100010111100
0000000011110100
0000011100011010
1111011100111000
0000101001000110
1111111010110011
0000000001011111
1111011101111001
0000010100000001
0000001111000101
1111101110001001
1111110111110110
1111100110100000
0000100101111100
1111110001001011
1111101011100101
0000111010111000
1111010010011011
0000011110100111
0000011101110111
0000111111110101
1111101100101011
1111001001000010
0000000100110110
0000100111001110
1111111100001100
0000001111001111
0000011100101001
0000000110010111
0000010111110101
0000001010000100
1111101101010110
0000011011010011
1110011101101111
1110111111101110
0000001110000101
1111110010000010
0000001010100011
0000001001111110
1111101100011100
1111101000100110
1111110001010000
0000010101110110
1110110110101000
1111110011110011
1111110000001011
1111100011001110
0001000001111001
1111010010000111
0000001001011101
1111010111001110
0000010000010000
0000011010011111
1111010010111100
0000101101000101
0000100011111100
0000001011010001
0000100100100100
1111100111010010
0000010100101111
1111111001010000
1111111101010001
0000000000000101
0000000001101110
1111100111101100
1111010111101111
0000000001110011
0000001110000111
1111011000111011
1111011101100101
1111101001101101
0000001000000100
1111011010010111
1111111111010110
0000001101111100
0000011010000111
1111001010011101
0000011011101101
0000001110100110
1111010100100110
0000010111001101
0000000111100000
0000001110110010
0000011110110011
1111101111100001
1111100000101001
0000101011111110
0000011110000101
0000001010011010
0000010101101000
1111110110010100
1111101010000111
1111111011110010
1111110000101001
1111100101111011
1111101101010010
0000110101100001
1111101001001101
1111110000000111
0000000110100011
1111010110111000
1111111001000100
0000101101111110
0001000011000110
1111000000101001
0000011101010011
1111101101100000
1111101011110100
0001000001010110
1111101101010001
0000010010101011
1111011011011011
1111110001110010
0000001110001011
1111111100000010
1111100110010111
1111111110111101
0000110000100111
1111010100010110
1111010111010011
0000000010011011
0000011100100011
1111110001111110
1111111010101101
0000011000010001
1111101110100110
0000101010111011
0000101001111001
1111101111011110
1111111001111100
1111011111100001
0000001000001110
0000001100100111
1111010110110100
1111011000100110
1111110000000110
0000001111101001
1111110111011001
0000110011110111
0000010011001101
1111101010110011
0000100111000101
1110110110000110
0000000001001111
1111110111110111
1111111001011111
0000111110111110
1111011110110001
1111101101110100
0000000011101101
1111110110110100
1111011000000011
0000010011100111
1111110000001101
0000000011110111
1111111011110101
1111110101110111
1111111010110101
0000001011101110
1111101010100101
1111000001000010
0000000101101101
0000000011001111
1111011111000001
1111100010010111
0000000010001100
0000000100101111
0000000000010110
1111011011001000
0000000010100101
0000100100100000
0000011101011001
0000101001000110
0000001010011110
1111111111110100
1111110111100101
0000010101100011
1111111110111110
1111101010110100
0000001010011011
0000010010000010
0000001100110101
0000010011110111
1111101011111100
0000110000101110
1111111110111001
0000001000110010
0001100011000111
0000010011111000
0000010010110011
1111101010000001
0000000101100001
1111101000111010
1111010011110111
1111010110110001
1111010101110000
1111101101000110
1111111010011010
1110111010111101
0000011001010110
0000001101001100
0001001010111010
1111011001101010
0000000101010111
1111111101001001
0000000111110011
1110100100000011
0000001100000100
0000001001001001
0000010001110010
1111011000001110
1111111001101010
0000000000001001
0000100000011010
1111101111100101
0000001100000010
1111110111010111
0000100101011010
0000110001101011
