1111000010001011
1111111011110111
0001000000100100
1110111110110101
1111111001100001
0001101111101100
0000001100011011
0000110010110101
0000100110100011
0000100101010101
1111011100110001
1111101001100011
0001010101010000
0010101011101010
0000001100110011
1111010011111111
1101101000000001
1111011010010011
0001000111010010
1111101110101000
1111000101111011
0000000111111111
1111011101000000
1111110111001110
0000011111110011
1111011010111000
1111100100010011
0000010111000111
1111100010100001
1111001010100111
1111101111111110
1101100000000011
0000101010011100
0001001000001101
1110110111010110
1111101011111011
1111000001101101
1111111001101101
1111111111100100
0000011011010100
0001000001011100
1111101011011100
1101011011000100
1111111100001111
1111100100000010
1110001010101011
1111011100101001
1111100110000100
1111111000011101
1111111111001100
0010001011100101
0000001011001111
1111010001100110
1110100111101001
0001010111001000
1111011011011101
1111111010010111
1110110100001010
1111011000011001
1111001001010101
1111010011110000
0000100010010110
0000110010111101
1111000110111111
1110111110100000
0000001111001010
0000010111101011
0000001010000010
1111010011011101
1111100010110001
1111101000110110
1110111111010101
0000001100010010
0000000110000000
0000100111100111
1111100011100101
0000000100010010
0000111100110110
1111110011000011
0001011111101011
1110011010110111
1111100000011001
1111101110100100
1111100110100110
1110011100101100
1110110000000100
1111010000011011
1111011011000111
1110010000000100
1111100101000011
0000001011000100
1111100101001000
1111000101101100
1111110110110100
1110001100100100
1111110101111000
1111101000110100
1111111101001101
1110111010001110
1111110110010110
0000110101001001
0000100110111000
1111110011110010
0000111111010001
1110000100011011
0000101001000011
0000100001110010
1111110100100111
1111011111000100
0000100100001101
0000111000011011
0000000100010110
1110100001110111
0000100100011010
1111100000001101
1111010010010110
1101001001000110
1111101011001010
0000010000110111
1111000000010110
1110111110001110
1110111000100010
1111100100101011
0000000111010011
0001101001100110
0000001000100110
1111000110000111
0000001101000011
1111111100000000
0000010110100010
1111101001101011
0000101100111001
0000001100111101
1111011111110110
0001110001111100
0000100101011100
0000001101010100
1110100010010010
1111011001111100
0001100111001101
0000101010111000
1111101001110010
0000001110101000
1111110100000001
0000001011111000
1111101111110000
0001101011101000
1111011011101010
1110111111011100
0000001010010010
0000000010000011
0000000101101111
1110101100111010
0000101110100101
0001000001101000
0000000010010111
0000010111101011
1110110110011000
0000110101111001
0001000111011101
0001101001001111
1111110111111100
1111100111101000
1111100010101110
0000001101100001
1111001011110101
1101011011001001
0001101001011001
0000110001000101
1110110001011100
0001101100100011
0000110101001110
1110110110100010
0000000111010000
0000110110001010
1110010011101001
0000001100000001
0000000100111110
0000000110100110
0000000110001011
1110010010010101
0001010100100000
0000101000100101
1111011000110000
0000001011001110
0001001001100111
1110111010101100
0000100100010111
1111100010000010
1111011000000110
1111100101001001
1111001110001101
0000101011010011
1110000100011100
1111110011111011
0001010010001100
0000110011100010
1110100010100111
0010101100000110
0010100010101111
0000110010011011
0001011110000101
1101110011111000
0001010101001100
0000110110010000
0001011100100110
1111110111001111
0000111011010000
0010010010011111
0000011000111010
0000000000000100
1111010011101110
1110101110111101
1111111000000000
0001110110010000
1111001101000010
0000110010100000
1110111010011001
1111100110111011
0000010000100001
0000100111000100
0000110101100100
0000001001011011
0001111011001101
1111101110110010
1111011010101000
0000100110001111
0001011000100001
1110111111010110
0001001110011011
1111000001001101
0000000001101001
0000101010011001
0000110111010111
1111010111111100
0000101100000100
0001001111111101
1111010100101111
1111010010000100
1111111000100101
1111101010011011
1111110100101010
0000000111110100
0000101110011100
0011101001010001
0000010101111101
1111001101011101
1110010110100000
1111000010101010
1111101101110010
1111000101011111
1111001000111010
0001001000011110
0001011100011101
1111101000011010
1111000001010100
1111101011000111
1110100111011010
1110111110010111
1111001011110111
1111110000110111
0000100011011110
0000100010011000
0000001111110110
0001001110111000
0000011011100011
0011000000011111
0000010010101100
0001000111011101
0000111101011001
1111001001100011
0010001100101000
0001001001111101
1111101101010001
0000010101011011
0001101001100111
1111100010011010
1111101010010100
0000000010010110
0000110011010011
0001010111010110
0000000001111110
0001000111000011
0000010010110000
1110001001110000
1111101111000011
1111100110010111
0000100100001010
0000110101001110
0001101010100011
1110111110110101
0000000101001001
0000010100010101
1111011011101111
1110111101000100
0001011000100100
1111110111111001
0000101001010101
0000010000100001
1111110101101001
1110110011001100
0000011110001011
1110111000100011
1110111001010101
1101111001110010
0001100100110100
0001001010010001
1111101010000100
0000000010001010
0000011101100011
1110010111011100
1110010100111101
1111001101100001
0001000111010000
0000010101111100
1110011011111100
0000100101000100
1111010100001101
1111111001000000
0000110010111100
1101101100011110
1111001010000100
0000111101110001
0000000011101011
0001011001111010
1111111111101011
0000111011001100
1111100000000011
1110011111001111
0001000110010111
0001011000111100
1111101111110011
1111000100100110
1111010010011101
0000001100101111
1111101111000111
1111110000111001
0000101010001010
0000100111001110
1110100000001000
0000001111010110
1111100001001100
0000000100011000
1111011000001111
1110111100000000
0000110110111100
0000001110100010
1111111110000000
0000000000000101
0001010010001001
1111101000110110
1111101011110101
0000100001111100
0001110111110010
1111101011010011
1111111000000010
0000110111001001
1111101000101011
0000001000110000
1111100110011000
1111010000100100
1111100011101110
1111111010111001
0000100100111000
1111110000111000
1111110100010001
1111001110101001
0000010101000101
1110000111011100
0000101001111111
0000000011011101
1111011100000000
1111011001101001
0000000011110111
0000100001110010
1110101100000000
1110011101111100
0000000010001100
1111101011000001
1111110110101111
0000011111011100
0000010100001000
0000010010001100
1111001010011111
0000110111111101
0001101001011100
1111000010001010
0000110001111001
1110111010111111
1110101001001111
0000011001111111
0000111011101011
0000001001000110
0001001101011111
0001010011011011
1110011011011001
0000110000101100
0000001101100100
1111110001111110
1111000100100101
0000000101010100
1111100001110111
1111111111101000
0000100110101011
0000010110000110
0000011000000101
1111001100101000
0000111011111110
1111101001011101
0001001001001010
0000111101101101
0000000111100010
0000111011111000
1110001100001111
0001001110000110
1110111011100011
1110010011001000
0001000101110010
1111001001101111
1111100101011101
1111111110111000
1110000100100100
0000011100000010
0001110010111010
0001000011110110
1110110011000110
1111001111010100
1110011000000010
0000011100000000
0001001011000001
0001101011010011
0000010001111001
0001001100100110
0000011010011001
1110101000110110
1111011110111001
1111010000010000
1111100111110101
0000000010011111
1111011011011010
0000110110010101
0001000001111100
1111110100000101
0001001000000100
1111101101111110
0000011101101001
0001101111110000
0000001000100011
0000110101110011
1111100010111100
0000100100100111
1111001111110100
0000110110110011
1110111110111011
0000010100111011
1110101100111100
0000101011100110
0000011111101011
1110111101100100
1111011001011010
1110101111000001
0010010001010011
1111110110010011
0001000001011111
1111110010110110
0000101110101111
0000110010001001
0000101111000111
0001010010101011
1111000111001101
0000011011101011
0000001001110101
1111011010110010
1111101110010110
1111010101010000
0000000011011010
0000110111111101
1111110101110110
1110000111110110
1110110110000111
1111100110010110
0000001111101001
1110111111110000
0000010111000100
0000101000101111
1111010010111000
0001011111001111
1111000100010101
1111000010101010
0001010110011001
1111001010011001
0000010111010100
1111010110110100
0000111000001100
1111011001011101
0001000111010011
0000011001011101
0000011000110010
1111100111111000
0001011100101100
0001001100111010
1111110011111110
0000100110010000
1111110110011101
0000100010010111
0000011111110100
0010100010001011
0000100111010110
1111110111011000
1111110100110001
0000010110000111
1111010110000001
0001100111110010
0000011001111100
1110010010001011
1111010111000000
1111000100001010
1111010011011100
0000100111100010
1111011111001000
0000000101010010
1111001000110100
0001001001110111
0001110011101000
1111110001100111
0000011010000100
0001011001010011
0000010000101101
0000100011111101
0000110011110111
1111110001110101
1110111101101000
1110101001100010
0001000010011011
1111101100100110
0000011010100101
0000010011110010
1111001100010100
0000100001011000
1111101100111010
0001010110110011
1111001101000101
0001100001000000
1111111000010010
1111100000111101
1110101101111100
1110000101010111
1111010111111011
1111010000111100
1110110110011100
0000101110100111
0001101110111111
1111010000101001
1111010000100010
1110111110001111
0000100001110011
0001001101101110
1110100001010000
0001101110111100
0000101111100010
1111101111001001
0000110001110011
0000001110010111
1111011101110111
0000100101001111
0000101010010000
1111011010100011
0001101010111011
0001000010110010
0000010001110100
0000100011010001
0001110111010011
1110000011100000
0000101100110001
1110101111110001
1110001000101001
1111000011010111
0001011011010000
0000011010100010
0000111100010011
1111010000000111
0000000100111101
0000010010011011
0000100000011010
0000000001110100
1110111110101001
1110100101011000
1110110000111101
1111101111001000
1111111110000000
0000101010001111
1110111100001001
1111000010000000
1111100001001000
0010000111110010
1110111100001001
0001000111011110
0000000001111011
0001010000111111
0000100111011111
0001100101001101
1101001001111000
1110010110010101
1110010110101101
0000100010101000
0000001101101011
1111100010100001
1111101000111111
0000101000101101
1101111101100111
0000010011101101
0000100101011011
0000010101110001
1111010111100110
1111010111101100
1110010111001110
0000001101101001
1111010101110101
0001001100101000
1111111101101001
1111110110110010
0000001000101000
0000010100110001
1111111000100111
0000111101000001
1111000101110000
1110100111100010
0001000111110010
1111011010111101
0000100000100010
1111100011000010
0000111000011010
1111010101001001
1111010010111100
1111101101100100
1111101101101111
0001001100001010
0010110101000000
0000000101011010
1111110110110110
1111010011001000
0000100000011111
1111100101011101
0001011001000110
0001010010011011
1111100111000110
0000111001010000
0001100011100100
1111110001001000
0000001010101010
1111100111111111
1111101011111001
0000100101011010
0000101000000011
0000111010101110
0001101011100111
0000111000101001
0000111001011111
1111100001101001
0001001100000100
1111011100100110
1111111000011001
0000110000100011
0000000101011100
1111111111100100
0010001000001110
1111011000111100
0000010101011100
0000111100110100
1111101111111101
0001000011000001
1110111011101001
1110111001110111
1111101000110010
1111110110000111
1111011011010000
0000101110000010
0001010010001000
1110000011111010
1111101011011010
0000011011101100
1111110010011010
1111111000000101
0010000001101010
0000010100000011
0001100001000101
0000110011000000
0000001001011111
0000010000001100
0000010101001100
0000000100110111
0001010001000010
0010001000011001
0000100011101100
1111001011111001
1111010110101011
1111100101000101
1110010110111000
0000101000000010
1111001001101111
0001010010111101
0010000001100111
1111000001101001
1110001001010010
1111110110000010
0001001001100111
0000100100000101
1110101111101001
1110011100011010
0000000101100001
1111110010011111
1111111101010110
1111101010000001
1111010011101100
1110011101110100
0010010110110100
1110111010000100
1110110011101011
0000001000111100
1110110001001011
0000000100100010
1111001000110001
1111011111111110
1111001110000101
0000001010110001
0001110001010000
1111010100110100
1110101110001011
1111111111011000
0000101010011100
0000011111111011
0000010001111110
1110101110111100
0000010011101011
1111011010110001
0000000101100010
0000111111010111
0010001101000001
1110001111101001
1111000111001101
0000110110111111
0001010001110110
0001010111001100
1111000111110101
1111011101100100
0000001001110000
0000001111001001
0000100111100101
0000100011001001
0010001110001011
1111101110001010
1111010100000001
1111011000010110
0000100111101001
1111000110101000
1111000101101110
0000000101101010
0000110111000001
0000101111011100
0000111110110111
0000110001000010
1110101100011110
0000101011011010
0000000110110110
1110100011010110
0001101100011101
0000000001110001
1111001101010011
1110100011010111
1110100000101100
1111010101000001
1111010010110001
0000000010011101
0000001111111000
0000111100010110
1110111001111110
0000001000010011
1110010111001100
1110010000010001
0010010001000100
1110111110000100
1110011110111011
1100101001110100
0001100001110111
