0010001001110010
1111011110100100
0001110001001110
0001000010111111
1110110011100011
0000000010010101
0000010100111110
1111101101101010
1100100111100001
0000110011111011
1110110110110111
1110110011011111
0000011010101111
0000110011101111
0000111100001111
1111011001101011
0001100111010100
1111111111100010
1111100011100011
0001001000011001
0001001001010110
1110100101101010
0000000000000001
1111110001111001
0000000000001000
0000000101011101
0000001100000100
1111111110010010
0000010001101111
1111100110101001
1111100101101000
0000001000001001
0000010100011101
1111111001110111
1110001110000100
0001000011110111
0001000011011010
0001001010100111
0000100101010011
0000000010000111
0001100101111011
0000100100110100
1111011100110001
1110011101100010
0000100010110110
0000010110101111
0001000110101000
1111110111001101
0000101000111101
1111111010110111
0000011011001010
1110110101000001
0001100000010100
1111001010110100
0001010111011000
1110100001001000
1111011001100010
0000100001100001
1110111111011100
1111011101001001
1111101100010110
0001101000111110
1111101001110111
1110101110000111
1111000010110101
1111011011010011
0000101011100110
0001000011010111
0000101010001001
1111000101010000
0001011101100100
0000001010110111
1111110101110011
0000010000001110
1111010101110011
0010000000001110
1110101001010001
1111110010000101
1110010101011101
0000001100100000
0000100001110100
0000011100011010
1111110000111011
0000001101100011
0000011110111010
0000010010111010
0000001111000111
0000010001110000
1111110000011100
1111011110001111
0000001010001111
0000100001011100
1111001111101111
0000010010110101
1111101011101111
1111011010010010
0000011000010101
0000011110011110
1111001001010011
1111110010101000
1110101110010001
1110110100000001
0000100000101101
1111000101011001
0001010100000101
1101100101001000
0001000111101010
1111001101000101
1111111010011000
0001101101110101
1111101011010000
0001000101111011
1111100010100000
1111111100111100
0000001100010110
0001010010010110
1111100110001001
0000100100100101
0000100110011101
1111011111110011
0000110101110000
0001101011001111
0000000001100001
0000110010000111
0000000001001001
1111100000100111
1111011001101110
0000100011010001
0001000001010010
0000011010000110
1111111100110011
0001001010000101
1111100100111000
1111101110010111
0001110000100001
0000010001011000
1101011101010010
0000100110000001
1111111001011101
1110000100111100
0000010100000010
0000101111110011
1110110010001100
0010000000110110
1111110110100000
0010000011010100
1110110001101101
0000000101011010
1110111111110001
1111111001000110
0000101010011011
0001010100010011
0001010000001011
0001100011011100
0000110010001101
0000110000101101
0000101110110111
0000100001101101
1110100100100001
0000000000110110
1111010001011010
0000101010111110
0001100110100111
1111100101100110
1111001011111011
1111000101000111
0000000001010111
1111010001110111
0000111101100110
1111011101101001
1111011110010101
1111101001101011
0000110100100100
1111000001011101
1111011011101011
1110111011110101
0000110000001000
0000010100101010
0000000011010001
0000101101110111
0011001001110111
1110111000011111
1110111001101101
0000100001001101
1111011100010100
1111101001111011
1111110101100000
1111100100000011
1110101110100011
0000011001010100
1111000010000001
0000001011001000
0000110111100101
1111000111001110
0000000100101001
0000001010100110
1110110101011110
1110010111110111
1111010101001010
0000000101001001
1110010100010100
0000100110110011
0000101100101000
0000010001001101
0001001101011011
0001001010111111
0000111110110111
1111110111011000
0000101110110100
0000001101101011
1111110110100100
1111110101111010
1110010001011001
1101011000000111
1111000011100001
0000110011011110
1110001110101000
1110111001101100
0000110110010100
1111111110011100
1110111100010100
0000001000001111
1111110001000101
1110111000110111
0000000101101000
1110111001000001
0000101100101010
1111011010101001
1111100101100010
1111110001001001
1110111100010011
1111010100111100
0000000111110111
1110000011001000
1101101101000010
0000010100111110
1110111111111111
0001000100000100
1111001111000000
0000001101010001
0000001010011011
0000100010001100
1111101010110000
1111011010010010
0000111011100011
0000001110010111
1111001101111011
1111101011110110
1111010110111000
1111100100100100
1111101110000101
1110101001111010
1110100101001101
0001010100111000
0001101010101101
0001011001100111
1110111110000101
1111100101000001
1101100000110000
1110000011110110
0000100110100001
1111100000100000
1110110011110000
0001110011110110
1111101000011100
1111111111100101
1111001111110101
1110000000001100
1110111001001110
1111101011100100
1110101001011111
1111010110110010
0000100101101010
1111110001000101
1110101100011000
0010000100101110
1111011010001101
1111000100001010
0000011101101110
0001000000101100
1111110011000010
0000011001101000
1111110111110011
0000001001001011
0000110101111000
1110100001111011
0000110101000001
1110111111110101
1111100000100011
1110101000100110
0000001101001110
0000011011000111
0000101111000001
0000011001001100
1111111110100000
1111011100110001
1111010001101100
0000000111101111
0000101010110100
1110010110000000
0000110000011001
0000101010110001
0000010110111101
1111010101111110
0000111000101000
0000011100111000
1110111010001101
1111011001001001
0000001100001001
1110111110000001
0000100101101100
1111010101100101
0000101101110001
1111010111100000
0000111101101101
1111101010100001
0001010010101011
1110110011010111
0000110010100001
0000000000011001
1110001100101110
1110010001101101
1111101000110100
1111001111000111
1111010001010001
0000000100000101
1111110010001001
1111000101000010
0000001010011101
1110010000111100
1111100111110110
0001100110111001
0001001100101101
0000111001000011
1111010011110100
0000000111011011
0000110010100011
0000100111101010
1111000000001110
0001010111100011
1111100101000101
1101111011110000
1111100101100110
1111000111011111
0000001101101100
1111010010101000
0000001100111100
1101010101010000
1111011100001100
1111001101101001
0000010001001111
0001010110001000
1111011010011110
0000010111101111
0010010111001110
1110011100001101
1111011110000001
0001011110011001
0001111110110010
0001100010011011
0001100010001110
1111011011001011
0001010101110101
0000010100001110
0000011100011100
0001000110110000
1111010110011001
0000000000111010
0000101001101111
0001110010111111
1111011111000011
0001000110101001
0000010101010111
0001000001101110
1111011100100101
1111011010001101
0000111100100010
1111100110011010
1110011110110100
1111011010001111
0000110110101011
0001001110101011
0000100111011101
1111100100111100
1101101100001001
1111100111111100
1111110110001001
1111000111101101
1111011100010110
1111111110010000
1111000100101110
1111010000001111
1111001101111001
0000100111110101
0000010111000100
0001111000010001
1110111110101100
1101111000000100
0000111110010011
0000100111000100
1111011011011101
1110111110101010
1111001111000101
0010000100111001
0000101101110101
0001010011000101
1111101011100111
1111100110110111
0000010101101111
0001111111101100
0000011101001110
0000011010000110
1110011110001000
0000100011011010
0000001101000110
0000011000011000
1111101101011101
1111111000100100
1111000100001001
1111101101011111
1111110101010111
1110100001000011
1111011111110111
0000111101011111
1110101100001000
1111000010101101
1111101001110101
1110011110100100
0000011100001110
0000001001011010
1110101101000111
1111110010001010
0000110011101101
1111100001001100
0000100010101100
0000110011100011
1111000110111100
1111111101111101
0000101000001100
1111101100100111
1111001101000101
1111000010010100
0000011001001011
0000001100111110
1110100110000001
1111100111001010
1111100001101101
1111010011110010
1110001010110011
0000101100100100
0000000111101110
1110010101110100
0000101100111011
1111010001100100
1111011111011110
1111010010001101
0000010111001100
0000010110001001
1111010111001011
0000011010001010
1110101000000011
1101111011010100
1111101101011111
0000000000001110
0001010001110101
1110111100001100
0000011011000110
0000111111010010
0001100001101000
0000100101100010
1111011101011000
0000000011000011
0000011000101001
0000110001110100
1111110000011000
1111101110001011
1110011110011111
1110011001100110
1111111010001001
0000110111000000
1111100000001101
0001000111110101
0000000000001010
1111000100100100
1110100011000001
0000010101010101
1111010101111011
1111011101010110
1111000100111111
1111110111111100
0000101110001010
1110110100100100
0001010101000000
0000101011111001
1110100011001110
0000101110101111
1111011011101101
1111011111110010
1111000010101000
0001011010000111
0010011100010011
0000001000100100
1111111110110000
0000111000110101
1111011001001100
1110010011110001
1111110101110101
0000010111101111
0000101010100011
1111011011110000
0001000000010010
0001001001010111
0000010111110110
0010001101001011
0010000110001001
0000001001000001
1111001100100010
0000001110011001
1111111011010000
1111111001101010
1110011110100000
0000000010100001
0000000101111100
1111000110110101
0010000001111100
0000000100101001
0000111001110101
0000011011010001
0000100010101100
0010011010101101
1111000001010101
1110101101100111
1111111100010010
0000010110111011
0000111000011010
1111000001100010
1111111001111001
1110011100101000
0001010111101111
1111110011111100
0010010011011110
0000000001101101
0000000110100100
0001000010001000
1111111100011100
0000001110001111
0000111010100111
1101000001011000
1111110101101010
0000001100010111
0000010000001001
0001000000011101
1111001011001011
0000011001011000
0000110100001010
0001001011000110
0000001000100010
1111101100001101
0010001010010000
0001000001010101
1111001001110101
1111101111111011
1111010101011111
1111110001100010
0000101001001101
0001100010111110
0000001110001001
1111101000110011
0000000101000011
0001100101110001
0000010111100110
1111110100000001
0001001101000110
1111011110010011
1111100010101010
1111011101011111
0000011011101110
1110000101100001
0001011100000011
0000100110111000
1111010000110100
1101101001011110
0001011110101011
1110001101101010
0000000101101011
0000101101000001
1110011101000011
0000000111001101
1111111001100000
1111101001010100
1110101010101011
0000110001111101
0010000001001000
0001001011001011
1111111000111000
0001100010001111
1111001010110011
1111100101101101
0001111111001000
1111100100100100
0001010001010011
0000100001100100
0000011010010110
0000000110010111
1111100011010011
0010011101010010
1110101001001001
0000010011101111
1110111111001110
0001110110110001
0000111001000111
0000000101011010
1111000111000010
0000011010101110
0000011001111001
1110100111101000
1110101111111110
1110000111000100
0000000111001111
1111110011011001
0000011010001101
0000000110001000
1110101111101100
1111101011011101
1110001100110111
1110101101110001
0000010100001110
1110111000011010
0001001000111100
0001000011101001
1110111001011100
1111110001010001
1111100011100101
0000011101100101
0001011101011101
1111100110001101
0001010010111111
0000100000011111
0000111110110010
0000000111100101
0000010101101101
0000001111001101
0000100001011010
1111011011000001
1110000001100011
0000011010111110
0000000100101000
1110110101100010
0000101010100010
1111010000000000
0000010110101000
1111001101001001
0000101010100000
1110100011000110
1110101010110011
1111111101111100
0000100100000101
0001011011101001
1111000111010110
0000010000110010
0000101110100101
1111100010111001
1101100011000111
1110101010100001
1111111101010100
0000001101110000
0001011010001101
0010001011100110
0000111111000111
0000011100011110
0000011000011101
1111111100010101
0010000001000100
0000110110000100
1110100100010001
0001010010010111
1110110001100010
0000101111100110
0000001010001100
0000100000010010
1110011110111110
0000011101010011
0001000101101110
1101111101010010
1111101100100001
1111110101101011
0001100100010001
1110111111110001
0000001110000010
1111111010101000
0001110110001000
0000011010000100
1111111011110111
0000101101000010
1111101101011010
1111011110000010
0001010110011000
1110000100000010
0000111110001010
1111101101010111
1110100111111111
1111010110011101
1111110011111111
1110110100110101
1110101111101100
0000100110100001
1111011111110100
1111101101110011
1110011100010001
0000111100110001
0001110100111001
1111111011001100
0001001100001010
0010001010001000
0000111101011101
0000010001001100
1111111110001101
0000001111111101
0000111110011101
1110001000110011
0000001011110001
1110111010010000
1110111011010110
0001011001001100
0000110110001111
0010100001111101
0010001101001100
0001010100100101
1111101001001111
0000010010011000
1111100111101111
1111101100011101
0000111111100100
0001100010010000
0000000011000000
1110110010100000
0000010111110001
0001100011001011
1111110010101010
1111000011000011
1111001100011010
1110111001110011
1111011101111000
1111100110110010
1110010111001000
0000010001010111
0000000111001110
1111100100000001
0000000010101010
0000110010010011
0001000011101100
0000111011000110
0001100001111101
0001010111000011
1110111110011101
1110001001011001
0001000000101100
0000011101010001
0000111110011011
1111001110010011
1110110111100011
0001011111001111
0000010101111001
0001000111001111
1111111000111000
0010100111111101
0001101011011101
1111011000001110
1111010110001110
0000100111011100
0000001110111001
0001000011010111
0000011100110111
0001101110001110
1111101011001101
1110110101110100
1111110000100000
1101101100000101
1111110011011011
1101101111010001
1111001001101110
0001100001011110
1111110001101011
1111101111010110
