0000111100100110
0000011101000101
0000110110100100
1111011011001000
0000111101000100
1111011010110101
0010000010000010
1111001000111010
0000010000011110
0000010010111110
0000111101011111
0000111001100100
1111101101000011
1111011000100100
1111101000100100
1111000000100111
1110111111110101
1110011010010001
1111010000100110
1111111001001101
1110100111001000
1111010001110001
0000101110101010
1110000110000011
0001111100101001
0000011110011110
1110111111111111
1110110101100001
0000100111111000
0001101010000000
1111011101111011
0001011100011110
1111011000010001
1111011010111011
0000010010101111
1110001101001111
1111000010011111
0001000101101011
0001000010101001
0000011011011100
1110110111111111
0000000000010110
1111100000101111
1110110010011111
1111110000111001
0000100000111101
1101111100001001
0001110111010010
0001001100001101
0001000101100010
0001010011001000
0000110111010100
0000100100000011
1110100101010111
0001011001000101
1111110100000000
1111010111000001
0000000111101011
1111010001011011
1110001000110101
1111110111000100
0001011001000101
0000100101010000
1111011110011010
0000111101110000
1111110101000111
1110111010001010
1101110111111000
0000010101101000
0001000100100000
0000110011101100
1111001001100110
0000111000000101
0000001111111100
0010010011100001
1111001110000010
1111111110111000
1111011111110000
0001010001011001
0001000110110110
0000100100111100
1111100011110011
0001010010010001
1111011100000100
0000001001110110
1111001010110011
1111110000011000
1111000100010111
0001001111110011
1110101010010000
0000101001001011
1111010011111100
1110100001011001
0000000000001100
0000111111001111
1111110101010110
0010001100111011
1110010110110000
1110001100001000
0000000000100011
0000010100110001
1110110101011001
1111010010010110
1110110000001000
1110110010101001
1110111100011011
0000001101110111
0011001011010000
1111011010001010
1101100010100100
0000000101110011
1101111101000101
1111101000001100
0000001011001101
1110011111010011
0000000000101111
1111011011110110
1111111111101111
1111111101011011
0000110001011000
0000101100000000
1110110101111110
1111100001011000
1111110011000001
0000000001011001
1111011111101010
0000100001110011
1111001001011000
1111111111011111
1111100100001111
0000000001010000
0000100100011111
0000100010001101
1111101010100011
1111101100111000
0000011101110110
1111100100110000
1111010011111000
0001011110010011
0000101001000110
1110110101101000
1111001000010111
1111100110101011
1111001111011000
1110101100111101
1110111110000010
1110000110101000
0001001011010111
1110101101111111
1110110110101100
0000100011010001
0000011011111011
0000110101011111
1111100001011000
1111010100110101
0000111110000001
0001100111001010
1110101010000101
1110100010010011
0000010011110011
1111010001110111
0000111011000010
1111100001001111
0000011101110101
1111100010000011
1111100001111100
0001100100111100
0000111111010101
1111111100101000
1111110000111111
0001000011110000
0001010111001000
1101101001011111
1111100000010100
1110001100111010
0001000010100110
1110101000011000
0000101100000100
0001010000010100
1110001101110000
0000001000100101
1111110011111001
0000101000101111
0001000110111101
0000010110101100
0000111110000011
1111011001100010
0001010101010111
0011111110110000
1111101100011011
1110111000011000
0001101011010100
1111110001010111
0000111011001011
0001101001010100
1111100010000000
0000001110101001
1110001000011011
0000101111001010
0001111000101011
0000110101111111
1111010001101010
0000100011111001
0001101000011010
1111101110110111
1111011111011001
0000000101001101
1101110000011110
0000000111011100
0000100100001001
1111011100010010
1110011110011010
0010110101001001
0001000001101100
0001101010011001
0000000100101110
1111110111010110
0000011010010011
0000100010001010
1111111110011011
0000100000011000
0000111001101101
1111110110001110
1111111110011111
0000011101101011
1111101100101011
1110110100001000
0000010010101101
0000011010100111
0000011111101101
1101111110100011
1111000111010100
1111011100100101
1110100001001110
0000110110000000
1110000110101000
1111011101100001
0000011111010101
0000100111001110
1110110000101111
0000110101101010
0000010000101010
1110001110010000
1111011101001111
0010010010000010
0000110001100111
1110100010010110
1111011100011001
0000101100000110
0001101010000100
0000000111101100
0001000011000111
0000011011001110
1111101000110101
1101111000011011
1111001011011110
0000100011010111
0010100100010100
1111101111100001
0000010010110010
0000111000010001
0000011010110100
0000100011100110
0000000000001011
0000100010010010
1111010000110111
1111100001110101
1111001011000001
0010000111111111
1111010010011111
1110101011110100
0000101100011011
1111100001001111
1110001010110111
0001100001101001
1111011101100011
0000110001011011
0000110011110110
0000110111101111
1111000100001011
1111100011100010
0001111001111110
1111010100111101
0010011100000000
0000000100000101
1110110101000001
1111010001001001
0001000000000100
1111110110010001
1111110000100001
1101111111010010
0000100101011100
0000000100001010
1111111100110110
0001011010001000
0000111000100101
1111001101100111
0001000011010100
0000100101100110
1111101110011110
1110100011000110
1111110001011111
1111100010010100
1111110110000001
1110110110111011
0000011100100001
1111110010010100
1111011100101001
1111110011000011
1111010000010011
0000000111011110
1111011011101101
1111001001110001
1111000110111000
1111101010011001
0001110111101101
0000100100001111
0000101100011011
1111010011010110
0001101011011100
0000010100101000
0000100110110001
0000100010010010
1111100101000001
0000011011011101
1111001000110001
0000011011111101
1110111000101011
0000011001000010
0000011000010001
1111101001101000
1110111101010110
0001001000011011
1111100010110111
1111001110001111
0010000110110010
0001111110000000
0001010100011001
1111110111000001
0000000111011110
1111101010001000
1110111000110011
1111010000111011
1111010011101010
1111110110010001
1101111011001101
1111100001010000
1110101001010001
0000011110111110
1110011100011111
1110011110111010
0010010001111011
1111010010100110
0000011110100100
1111100010000111
1111001011111110
1111111100111101
0000010101011010
1111011100010100
0001011110100110
0000000111000000
0001100101011101
0000000011000000
1111011100111100
0001011010111011
0000111101100000
1111010100110011
1101011110101001
1111110100000101
1111011011000001
0000100111000011
0001001110010110
1111011010101000
1111111000000001
1110011010111000
1110100110110000
0010001101001100
0000001010100101
1111010101100000
0001000110011110
1110111101011001
0001100010000100
0001010011100000
0000111010101011
1110111100010010
1111101000111001
1110101010010000
0001001010000011
0000011011000111
1110101101011011
1111011110000100
0000110010000001
1111001001000101
1110001101100101
1111110101011000
0000000101110101
0001001011110110
0000000011001111
0001101000001010
1111111110000101
0000000010011010
1110010010010111
0001001110100110
0000001101110111
0000010101111000
0000010100111100
1110001101101010
1111000100101001
0000100000100010
0010001000110101
0001101011100011
0010000000010111
1110110000011010
0000101111001101
1111101000110100
1110001000011000
0001010000100101
1101100111010000
1111011001000011
1111000100010111
1111000011101000
1110001010111000
0000000001101000
0000011000000110
1111001100001111
0000000111011100
1111010000101011
0001010000000111
1111101001100100
0000010111101101
1110101110000010
1111110110010001
1111100011001101
1111100111101001
0000010110001110
0000010011000100
1111010100011001
0001000111000001
1111001010010010
0000011010001111
1111111110110011
1101100000111000
1111010011101100
0000010101000111
1110101010111110
1111100011110010
1111000101100111
1111110111101101
1101100110000101
1110001010100100
1110101110010101
0000001101101011
1111100111111011
1111111101110110
0000110001111010
0001001110110000
0000011010100000
1111101001000000
0001000101100010
0000101000100011
1111110110010100
0001001001101011
0001001110010001
1111100101101110
0000001001010011
0000010001100010
0001001111111101
0001101101101001
1111011000010101
1111010010111010
1111110111001100
0000010011001010
0001000110011100
1111110011100111
1111000010010001
0001001000100010
0000001000101010
1110110111011111
0000001010111011
0000101100011011
1110111110010110
0001011001010111
1110000101110001
0001010010010001
0000001110011011
0001011001101110
0001011110110010
1110110010101001
1111010001110001
1111010001111101
1111011111010100
1110010111011011
0000110000111001
0001001110111011
1111010110011111
1111001011000011
0001101101110001
0000011000111101
1110110010110110
1111011000001111
1111101111001011
0000010100110100
0000010010101000
0000100100010100
0001000101100110
0001011001010001
1111101111011110
1110011101010010
1111000000111001
0000101010000000
0000001110000001
0000000110000011
1110110011111101
0000110000101001
0001101010000110
0000001000101100
0000101101100011
0000011001101100
0000001001001001
0001101000110111
0000000111000001
1111110100101001
0001110101001110
1110101111110101
0000010100111011
1111111101010100
0001101010101110
1110100011101001
0000101000001011
0000010011011111
0000111000111011
1110110100011001
0000100001000010
0000011000001010
0000001110110011
1111111111100110
0000010001101010
1111010001110000
0001000010100100
1111111000100000
1110001100000010
1111011011011001
1111110110111100
0000110101111010
1111111001101010
1111100011110101
0001110010000000
1111010001100010
0000111001111001
1110110100000111
1111101010010100
0000101110110010
0001001101111001
1111111101100000
0010010000101101
0000011010110110
1110111000001010
0000100100100011
1110111010100111
1111111100111010
1110001110110101
1111110001110101
1110101110010000
1110111101101110
1110110001010111
0000010100011000
0000010001001111
1110011001001001
1110011000101001
0000011101110111
1110101001100001
0001111101001100
0001011001000001
0000110000100000
1111111111100010
1110100001100010
0000111111100010
1110100010101001
0000011001101000
0001101001011100
0000101111010010
1111100000101011
1111110001111011
0000010001101110
0001111110011001
1111100011100101
0010000001101101
1111110010101111
1111001100011001
1111110100001010
1111001110111010
1111111000010011
0001110001111101
1111111000111011
1111110100010101
0001100111011001
0001101110000001
0000011001011101
0001110010010111
1111111101000010
1111010110101101
1111010010110111
0000000100101011
0001101001100100
1111111001100010
0000101011101101
0000010110111001
1111111000100110
1111110000010101
0000011110001010
0000001000000111
0010001111010000
1111011000010111
1111101011011100
0000001011010011
0000111110000001
1111100111110110
1111111011100100
1111100011000110
1110000111010110
1111000011011111
1111001110010101
1111100011101000
0000111100011100
0000000111010100
0000110101111010
0000011011000000
1110011111000111
1111101010010110
1110111100011111
0000100111001111
1110101110000001
1111011010001001
0000010110111110
1111100000001001
0000000000011100
0001000101110101
1111111010011010
1110000111111011
0000001001100111
1111001001011011
1111011111010111
1111001001011011
0000011111100001
1111010011110010
1111010000110111
1111001101101011
1111001110100000
0000110100000011
0001111010110000
0000010001110000
0001100001011011
0000010101010110
1110001101100111
1111111110101101
0001101110011010
0000000011001100
0000001110000011
0000100011100111
1111110111111111
1111110110101110
0000011110110010
0000101111010010
1111001010011111
1110100110111111
0000000010110100
0001001000001011
1111100001101110
0001001000110110
1101111110100010
0000101001001010
0000010111101000
1111111001001101
1111011001100000
0000111101000100
1111100011111011
1111110000101110
1111111111010000
0001111100111000
0000010011110100
0000100110101110
0000010110110010
1110110100000010
1110011000011111
1111111011111001
1110111000101010
0000101101000001
0001100000101100
1111010110001011
0001111100110100
0000000110000111
1110011100000001
0000000000010111
0010110110111001
0000000101010001
0000001110100110
1111000011001101
1111110010010000
0010001000010111
1111101011011100
0001011111111011
1111110001010110
0001101110100100
1111100000111110
1110011110000110
1111111101100000
0001001001101110
1110110101111101
1111010000000101
1111111001001110
0000111011110011
0001011100100101
1111100111010101
1111011011100011
0000110111000101
0000100110010001
1101111000011001
0000101100100000
1111110101101100
0000000100001111
1111111011100111
1111100110101110
0000001001100010
1110111011100001
1111011101001011
0000001000010100
1111001000101011
1111110001010000
1111001110011010
1111100110000100
1111100111100111
1111101110110100
1111001011111000
1110010010010010
0010100100000111
0000100010010111
1101110001001111
0000001110001100
0000001100111100
0000000111001001
0000110111000011
1111110010100000
1111011010001011
0000111010000011
1111110110110101
1111111101010100
0001001101011100
0000011100000101
0000111001001100
0000110000111001
0000100010101011
1110100001100001
1111010011101101
1110010001010111
0000111010000110
1111000110110100
1111100110110111
0001011000011111
0000001101111110
1111000100000100
1111010000111100
0000100001010010
0000110000011011
1111010111111100
0001010100100000
0000010010001000
1110110010111101
0000110000110010
0001010000010101
1111011101001101
0000011101111101
1111001110110101
0000110100011001
1111110100000000
0001010110000101
1111100101101001
0001100100100101
1111000011110101
0001000101111110
1110110000100010
1111111011011101
1110101100010011
0000000011011000
0000101011000101
