1110101100100110
0001110101010110
1111011010000100
0000010000001011
1110101000100001
1111001000111101
1110001001011000
1111001110001001
1111011011110110
0000111100100101
0000111011111010
0000000111000101
1111110001111001
1111110110001111
1110110101000111
1111110100101101
1111101011101000
0000001110010101
0000011110000100
0001100101101110
1111111001100000
1110101011100000
0010000001101011
1111001101001101
1111100000111110
1111011110110010
0001011110001101
0001000001100001
1111100100001110
1111101000110101
