1111010011101100
0000001010101010
1111111100011100
1111010101101001
0000000100000011
1110011101110101
1111001001110100
1111111101111010
1111110110000011
0001101000000110
0001010001011101
1110110000110000
1101111111100000
1111001000001110
1111101101000011
0001100001010001
1111101111010010
1111010010111111
0000110001001101
1110111011110001
0001001101110100
0000011100111001
0000010111110111
0000000111010101
1111011011010000
0001000110001110
0000100111000010
0000000010111100
0000110111011111
0000101010011011
0001010010100111
0000010110101100
1111100110110111
0001111011111100
0000110010000011
1111001000111011
1110001000010110
0001100001111010
1110100101101100
1110010110110001
0000101011100101
0000110101111100
0000100010011001
0000000001101101
0001000101110001
1111000110000100
1111111111111011
1111010011111011
0000001111110000
1111100011011100
1111001110101100
0000111011101111
1111011111111001
0000111011110111
1111010001010101
0000001111011011
0000110010110000
1111011111111110
1110000100000010
0000101001010011
0000011111111001
0001011101001100
0000111100011110
0000011001011001
1111101101010110
0001011111000111
1110111101111110
0000111101000110
1111001111110011
0000111100110011
1110001000110100
1110110101101100
1110000101010101
0000011001010000
0001000000010001
0000011111111011
1101110001000011
0001000110000001
1111100010110010
1111101010011000
0000001000010001
0010001101010001
1111111000010000
0000101011010011
0001001111011101
0000101000101110
0000010100111110
0000011001011100
1111001000110110
0001010011111000
1111110110010001
0000101001100110
0001000010110111
1111101011001000
0001011001111000
0000011111110100
0001100010001101
0000101101011000
1111101001100010
1111011100101010
0001101110000110
0000000000011000
1111101110010100
0000010110010101
1110110110000000
0000001100010001
1111010110011011
0000010001010010
1111101101111110
0000110100001000
0001110111000100
1110010010001011
1111110001010100
0000011110011110
0000011111110111
1111010101101111
0000100010010100
1111110101110101
0000011101011000
1110000100001000
0001000001010011
0000101101110001
0001000010111000
1110100110110011
0000010101101000
0000100010001011
1111010100010110
0000001111110110
0001010011110001
0001100010001011
0000000011111001
0000101001010000
1111100100101011
1110110101111101
0000010111101010
0000101101000100
0010000001101001
0000001101101101
1111001101010101
0001010010010000
0001001011011011
0000101001011110
1110101100010110
0000001011010011
0000001010111011
1111011111100010
0000010001011010
0000111111101010
1111110110110111
1111000101101111
0000101100001010
0000000101000100
1111110100111000
0000001000101001
1111001100101010
1110101110111111
0001110110101110
1111111011001010
0000111010101111
0000011011110110
0001011001001101
0000110110100111
0000111001010110
0000001010010001
1111110111000101
1111110010100111
1110001111001010
0001010001011001
0000010101001001
0000011100101110
0001001110000011
0001000101000001
1111011000101001
0000011001011011
1111111110111011
0000010110011001
0000111101001101
1111101011011100
1111111010010010
1111000100111100
0000001100000110
1111000110110010
0000001111000010
0000100011101100
0000101010000011
0001011001110111
1110011011111011
0000011110100000
1111110110101101
1111011111101101
0000000001100101
0000011111110101
0000011000000110
0001110101100111
0000001110001110
1111000111101101
0000010110101010
1111010011100101
1110110111101101
0000111100100010
0000011110101001
1111101111010000
0000011011000000
1111101001111001
1111001111010011
1111100111111111
1111001111001110
1110101001001000
1111000101011111
1111111111110110
1111111011000100
1111110110100111
0000000001111100
0000110001011111
1110101111001101
1111100011001101
1111001101001111
1111001010011011
0001000101101011
1110001001000001
0000111001001011
1110101001001001
1111110001100100
0000101001011101
0000110101000110
1110101101110001
0000001101010110
1111010010101110
0000111010110001
0000111101001100
0001010001100100
1110011110001111
0000001111110110
1111101010001111
1110101101111011
0001100101101000
1110011101100111
1110101000000100
1111011011001000
1110101001100010
0000101000001100
1111101010110001
1111101001001001
1111000110011001
0000011110101110
1111011001101010
0000110011101111
0000011010000001
1101110011010011
1111000011101110
0001110011101010
0000001100100010
1111001110100101
0000000011111110
1111000110110101
1110101100001001
1111000010111010
1101110101010111
1111001001100011
1110101110100010
1111101111100001
1111101000100011
1110101110011011
1111110101000110
0000100001011011
1111100111001001
1111111100000110
1111001000111010
1101110011011001
1111001111011111
1110011001011001
0000010001011011
0000000000001101
1111101001111001
1110110100100111
1101101010110110
1111100010010000
0000000100110010
1111101011100110
0000110111111100
1101110011010000
1111110111110010
0000011111000101
0000000000011111
0000100110110101
1110111110111000
10000000000000000
0000011001100110
0000001110111101
0000100010111001
0000111010111101
1110110011000010
0000010000100001
0000110110001111
1110011101111111
0001000101110100
0000000001001110
1111110100001010
1111001000101111
1111000001111101
1111011000110001
0000100001110101
1111001011010011
1101101011010001
1110010101110010
0000001010111011
0000101110100111
1111100111101010
1111100110000001
0000111100100000
1111110001011010
0000100010000111
1111100110010000
1111101100010101
0000100011000101
0001010111100110
1110110111010101
0000100111011100
0000110011011010
1111110110001110
1101110011010100
0001000110001110
1111100101110101
1111001111000100
1110001101000100
1101111000011001
1110110000100110
0000100001001001
0000111011100110
1110111110110111
1111011111001110
1111000010000110
1111011010101000
0000111010011011
1110111111011110
0001001001111000
1111111100101000
0000010010010101
0000000101010000
0000101010110010
1101100111110100
0000001000100011
1110111100110101
1111011110011000
0000100000000010
1111111100110110
0001011100011111
1111010111100100
1110000000111000
1111111000111010
0000011001100101
0000101000111101
0000010110011101
0000100001010011
1111011110101000
0000000010001111
1110010101100001
0000110110000100
0000011010100100
1111001001001000
0000111010001111
1111011010001101
0001000110011010
1110000000000011
1101110001111111
1110110001100001
0011000110110010
1110110000000111
0000010000111001
0000101000101010
1111101110110001
0000001001101010
0000111111011011
0001000011101111
1111011101011110
0001100100001010
1111110001111111
1110000010010111
1111000110001001
0000001101111111
1111101011110001
1111100001101000
1110110100110001
1111001000111101
1111110111110100
1110110110100100
0000101000100011
0000101101000001
1111111010110011
1111000101000111
0010000101001010
1111001110000110
1111110011000111
1111101000010111
1101101001111011
1111011010000000
0000000011010110
0001100010011111
1111111001010000
1111110100010101
1110111011001001
1110100110010001
0001000101101101
1110111000110111
1111011010111110
1110001011011111
0001001000101011
0000110101010101
1111100001001111
0000011001110001
1111100001110001
0000110010010001
0000101010101001
1111111011110011
0000001100001111
0000110011110110
0010011100110001
0010000110111001
0000011110010110
1111110101010100
0000100001011010
1111011111010010
0011000000101001
0000001011111100
0010101101001001
0000001111000101
1110010101000001
1111001011111110
1101110110110000
1111101100110100
1101110010001011
1110110000010100
1110011101110000
0000100110101010
1111010001111101
0001100110001010
1110010111110100
0000001100111010
0001001011111101
1110010001011111
1111100001111011
1111101001100100
1111001110100001
0000110000001000
0000000000001111
0000111010101000
1111001000100100
0000000101101001
1110110010100001
0010101110111010
1111100110011001
1110000100011100
0000000100011010
1110000110100001
0001100101010101
1111000100101101
0001000111100111
1111100110110110
0000000000011010
1111010000101001
0001001100011110
1111000100000011
0000111010000011
0001001110010010
1111110010010000
1111101111010110
0000111000001111
0000000110010101
1111111010101001
0000001100101011
0001000001010101
1110011000010111
0000000100000001
1110110100111010
1111000100000101
0000010011110111
1110100101110101
1110111110110110
1111010011011111
0001000110001000
0000001100101001
1111000011101011
1110110010101011
0001010000111001
1111101101110000
0001011101010101
1111110000001110
1110111100100101
1111011001110001
1110100001001001
1110111101011001
1111111000010010
1111111111001001
1111001001110010
1111101110101111
1111110000001101
1111011100110100
0000101101110100
0001111011110101
1111110000010110
0001001000010000
0001100111011011
1100110111111100
1110110111110001
0000110011000000
1111101011010010
1111011100111010
0000010011110100
0000001100011011
0001100111110010
1110011111010101
1111111110011001
1110110110101110
0000100101000000
0010011111100101
1110100010101110
1111100100001000
0000001010100011
0001101011111110
1111001100001011
1111101101101011
0000000011001001
0010010011100010
1110111110010101
1111010001001101
0000100010110000
0001001100001000
1111000101011001
1110100101110110
0000100100110001
0001001100001111
0000110011001101
1111010001110101
0000101111101011
0001010111100010
0000101110111010
1111101011111011
1111101000000011
0000101110100000
1110110100111111
0000010001001010
0001001111110110
0000001000100000
1111100111111000
1110011011001100
1111101011110010
0000101101001100
0000100011001001
1111011110011111
0000001111100101
0000001001101001
1110001100001001
0000111010101101
0000011011111000
1110110101011101
0000000100100010
0000110000111101
1111001110000110
0000100111010001
0001000101101100
0000110011001010
0000000111110101
0001101001101001
0001011010100110
1111111110110010
1110110110101111
1111001001000101
0001101011100011
1111100011110000
0001000110100100
0000010111110000
1111111100100011
1111101010010111
1111110010110000
0000100111111011
1111101010100111
1110101110011001
1110111100101010
0000000100011100
0000110000100000
0000011110000111
0000001100111111
1111000011100110
1111110111010100
0000110100000010
0001101100111000
1111111101010001
0000000001001111
0000100011010000
0000101101100011
1110100010110011
0000011101110001
0000011001100011
1111100100011100
1111100101011010
0001011000110011
1111111000010010
0000001000011000
0000010000101101
0000101101010011
1110110011110100
1111011001000111
0001100001111010
0001010101110010
0000010010000011
1110111100010111
0000100110110000
1110111101011110
1111001100011001
1111111110000101
1111111101101101
1110111010101110
1111000110111010
0000100110111001
1111110000110101
1110110010001111
0000110101110011
0000100101101101
1111010101000110
1111111000110001
0000000111000001
0000001001010010
0000100010000001
0001011100001111
1111110111100000
0000001111111000
0000011011111111
1101000111000000
1110111100111101
0001001010010001
1111111011000110
0010001110100100
0000100000110111
0000110000001000
0000011100100000
0000010010001001
0000110010110110
1111100010001110
1111001011101100
1111011100110111
1110110010100101
0001001011110001
1111111011101000
0000001101000111
1111110100100001
0000111100000000
1111010001011101
0000101011110100
1111011110001111
1110011010011100
0000101000101101
1111101111010111
0000000011110100
1111111100111000
0000011001001000
1111101011011101
1110111000101011
1110010110010100
0000011110001100
0000100110010110
1111001110100011
0000001011000001
0000100010011010
1110110001100000
0000100110000101
0000100011101101
0001010110000010
1111111010000110
0000011101010111
0000100000010010
1110001111101101
0000010111000001
1110110110001011
1111010000001100
1111100100100001
1111010101011101
1111110111100001
0000000000110011
1111100001101111
1101000110011000
0000100111111000
0000001110001010
1111100000110011
1110101100110111
0000101100011110
1111011000010011
0000111111001010
0000001100000110
1110111011011110
1111110100100001
0000100100000101
1110011100010100
1111001101010101
1111001011111110
1101111111101001
0000000011001010
1111011111011000
0000011001011111
0000101100101000
0000001100001111
0000011100111110
0000011111101000
0000011111010010
1111001000111100
1111001001000111
1111111001110000
1111100111111000
1111111000010010
1111000111101100
1111110110001010
0001000101110111
0000110100010110
0000010110011001
0001001101110100
0000111011011100
1111010000110111
0000010110111100
0000011000001000
1110111011110101
0000100100000011
1111101110100011
0000001110101010
0000011100110001
0000010101000001
1111110111111101
1111110001001111
1110111111011101
0010000101111111
0000100010110111
0000000010000000
1111100110011101
1111100010101111
0000111001110011
1111100101010010
1110101111011111
1110011000101000
1111101011111111
1111101101110001
0000011001101101
1111011111100100
1110101000011110
0000000111011011
1111010100101010
1110011010000010
0000110111101111
0000101100011100
1110001000001000
0000110011101011
0000011110000110
0000011100010010
1111010010111000
1111011011010101
1111100100111100
1111110011000010
0000101101001110
0000001011000110
1111101100101000
1111011011001011
1111111110101001
1101100100101101
1111110110011100
1110101101011101
1110110100001101
1111110000010110
1111011110011010
1110011110001000
1110110111000100
1110101101011011
1111000001000101
0000011111001000
1111101000111111
0000001110011000
1111000111101010
1111110000011001
0000011000011000
1111011000111110
0000011001010010
0000010011011011
1111010100000000
0001010111011011
1111111011000010
0010010111111010
1110111110001110
0000111011001000
