0000010001111010
1111001100010101
1111111011101010
1111110000110010
1110111110011100
1111111001001101
1111011010000111
1111011001011001
1111100000001111
0010000000101011
0000011011010001
1111000100100110
1110100000000100
1111101011100011
1111000100000000
1111010110100111
0001010000000001
0001010011101111
1111011101010001
0000100111010010
0001011000100101
0000110001100100
0000111101110011
0000111101010010
1100001000110001
1111111001101000
0000111110010111
1111000101110001
0001100001000100
0000000001110011
1110000111001100
1111000000111010
1111001111011010
0000011110111010
0000011001101100
0001001101001001
0000100110000100
1111001111111111
0000100111001001
0000000111100000
0000110000100001
0001001101011001
1110010001111000
0000001001001110
0000010111000110
1110100010101010
0001011111110011
1110001111110101
0000010001110011
1111001010111110
1101111111100001
1111111000000000
1111101011100101
0001110001101011
1111000000111101
1110111101110101
1110111111111001
0000011101111001
1111110110001101
1111010001100011
0001111000110110
0001010100101100
0000000110000101
1111000101111001
0000001010100110
1111000101100101
0000111000011001
0000100100001111
1111011111110010
0000011101111001
0000011110101011
1111000100001111
0000001000110100
0000001001011010
1111010111000001
1110110101011101
0000111111100100
1111101010000010
1110111011001100
0001110011010101
0000001000001101
1111110101111100
1111100000001111
0000110111010100
1111011110100111
1101111111110010
1110010100010100
1111101011000111
1111011110001111
1111010000110011
0001010010111001
1110000000000111
0000100000001010
1111011001011110
0000001101000110
0001000111010111
1111001001101110
1111101011101111
0001010001010110
0000011001000001
0001001010000001
1111101010011111
1101110100001101
0001010011000000
0000000001111110
0000001101110000
1110110101100011
1110111111001000
1111110101001101
0010000001000100
1110100010011110
1111011011111100
0000010001110011
0001111101010001
0000111101101101
0001011011100100
0000001110010001
0000110000111000
0000010101010110
0000100000100010
0000011111001011
1110111001100001
0001111110000111
0001101100001110
0000110111000110
0000110100101011
1111110000111000
0000000000001110
0000110011000001
1111101110011010
0000010101100010
1110000011100011
0000100001110100
1111111100101010
1110111010100101
0000000111000001
1111110011000010
1111111001101010
0000100100110100
0000111101111101
0001100111101010
0001010011111010
0001100011010011
0010011000100001
1111101111001010
1110110001101010
0001110010000110
0001010100000000
1111110100100001
1111110000101001
1111100100011010
1111011110000000
1110110100010011
0001100010100011
1111010101110100
0000001110000111
0000000001100010
1111100010111001
1111101101010110
0000011001110010
0001001111001110
0001000001010101
0000010100001101
1111000111100000
0000000001101110
1110011001010001
1110111001100110
0000011001010110
1110111000110100
0001011100001100
1111111011111110
1110000101111101
0000111101111010
0010011000101011
1111110010000000
0001001111010110
1111100010101000
1111111011100101
0001000110111101
0001000100011100
0000000100111100
1111101000001011
0001101011110101
1111111110110011
1111101010100101
0001000010111111
0001010001111001
1111111000001101
1111001010101001
0000101101111011
0001110000110001
1111111001011000
1111011010000011
0001100001010111
1101111010110000
1111100110000000
1110111010111001
0000001001111010
0000000101010101
0001010011001001
1111010011111100
0001010000100001
1111001000010011
1110101100100011
0000110110100000
1111011101101001
1110111110010111
1111111010101111
1111101101000001
1100111001110110
1110010010101101
0000000010100100
0001111010110100
0000011001111100
1110111100101001
1111110000010111
1111001010101010
0000100010011111
0000110111101011
1111110111011110
1110011111001001
0001001001000101
0001011001000101
0000000001110110
0000000000111101
1111011001110100
0000011010111011
1111001100110110
0000011000010001
0000100000100010
0000100000111101
1111000101011000
1111110000010011
0000101110110010
1110111110110111
1101111011000001
0000010111110010
1111010110101001
1111110110000010
0001110110000101
0000111000111010
1110110011110100
1111110110100011
0000001011000000
1111011101111010
0000010111100000
1111100111011111
0000000010111100
0001011000101101
0001110001000001
0001000100000111
1110010100110011
1111101000100001
1111011011001010
0000010000110101
1111100001101011
1111111110100111
1111011011111110
0000010011000111
0000101000000111
1111011110110110
0001001111101010
1110100111111110
0001100001010100
0000001000000001
1111011001101001
0000000101101001
0000000111000101
1111101101001011
1110111001100000
1110101001000101
1110001110111011
1110110010100010
0000010100111011
0000010011110000
1111011010111010
0000111111001100
1111011001100110
1111010110110111
1111011000110011
0000010100111001
0000000101111110
0001011101001110
0000111110000100
1110100110111100
0000100100101010
1111010101011101
1111111000100010
1111110000000001
0000000000011101
0000010111000100
0001100011100000
0000110011000001
0000010101111000
0000100011100000
0000010100101000
1111010111000100
1111011011101000
0001011110101111
0000100010011001
1111000001100100
1111011011000001
1111101010010110
1111100111111001
0000010111001111
0001010011001010
1111001110000000
1111101010001101
1111111001111000
1110100010110111
0000010000101011
0001010110111001
0000111100011101
0000111000110011
0000110001100100
1111010111000010
1111010010110101
0000110101100010
1111001001011110
0000010000110011
1110111000111010
1101010110000001
0000111111101000
0000011101000101
0001111111000110
1111111100011101
0000100011100111
0000011000010010
1110111110001110
1111110111110101
0001001011110101
0000101000110001
0000100111000000
0000000110110100
0000010110110111
0001101001001001
1111100000001001
1111001001110100
1101011100011100
0000001110000110
1111110110011110
0001000100111010
1111110001001100
1110000000100110
0010000101000010
0000010001110110
0000001010001010
0000000110111000
0010001011000010
1111110000011111
1111010001110100
1111111100110110
1110111101001100
0001000110010110
1111111010111101
1111100011110100
1111101011111000
1111001011010111
0000011101010100
1111011110000101
0000011011111000
0000110111011101
0000101000000100
0000100110111101
1111000011101111
1110111011100111
1111010010110001
1111110010000011
1111111110011100
0000010001000000
0000011000001111
0000000001001001
1101110000011110
0000101100000010
1111111010101011
0000110110111101
1111010011000100
1101111000011101
1110111111011000
1111111011000001
1110011111011011
0001001000010010
0000000100101110
1111111111101000
0001011111110000
0001011110001001
1111000101100100
0000000010100001
0000010110011100
0000101010110000
0000000011100100
1111101011011001
0000010110000111
0010111001011011
1110011011110111
0000101001000011
0000001100111010
0001111110111000
0000010100110101
0001011001011001
0010001000111011
0000100100101011
1111101111011110
0000110001001010
0000000111100101
0000010110100001
0000000010001111
0001010011000000
1111000011011010
0000010111001111
0000010001010111
0000110011101000
0000101101000101
1111100001000110
1111101001110010
0000000011010100
1110010000111110
1111110100010001
0001010111011010
0001010110000001
0001011011010000
1111000011010100
0000011101001001
0000100111011101
1111110111100010
0001100110111011
0001010000110000
1111100010110000
0001010001000100
0000100010100010
1111011100111110
1111011011000001
0001011101000100
1111010000100101
0001000011110010
0000100010101110
0000000011001100
0001000110100001
0001100111100000
0001110000111111
0001001011101100
1111100010011010
1111101101011011
1111010111101100
1111100011110101
0000000110011111
0000100110100111
1111110100101101
1110100001100101
0000110010001110
0010111010111011
1111000000011101
0001001111100000
0000011101011010
1110111100011100
0000010001010110
1111011011011001
1111011011110101
1111101011101101
0001010110000001
0000000100000000
1111101100010101
0001100101110001
0000110000111001
0000110011001100
1110110001110101
1111011011000101
1111000010111110
1110100001000111
0001000110010101
1111011100101110
0000001110110011
0000010000010110
0001101011111101
1111000100101011
0000110100111111
0001011010000010
1111110010100111
0000100111110010
0000110110111011
1111101110100010
1111010010001110
1101101011001111
0000010110110001
1110111000101010
1111011101110001
0000000001100011
0000111001101001
0000100000110100
0000100100101111
1110000010000110
0001001111111100
0000101111010110
0000010110000011
1111011011110011
1110011011000101
1111001011101100
0001000101111101
1110100101110010
1110010001001000
1111011110011010
1111110110111011
1110011100111101
1111110000101111
1111110111001000
0000100110010110
0001010010001101
0000111100101101
0000110010100101
1111111011001101
0001010100101100
0000010111010001
1110110111011010
1111101111111001
0001111110110010
1110101100111111
0000010001101101
0000000011011001
1111010101010011
1110111101011001
1111001011100101
1110111000001111
0000011111111000
1111111011100110
1101000100111101
0000000110011001
1111111001101100
1111000101110101
0000111111011100
0000000010110010
0001101011000011
0001110111011011
0000111111101010
0010000110001000
0000010011101000
0000000111001101
1111100110000111
0000110101001010
0000010101011110
0000110001000001
1111110001110011
1111100001111100
0000100011001100
0001100100101000
1111100000011010
1110000110110101
1111011110011001
1111000001101011
1111010110110101
0000101011100011
0000101001101110
0001001010100101
1110000111110000
0000100001101100
1101110101010101
0000100010010010
0000110101111001
1111110110010101
0000001101001011
1111001101111001
1111000010010000
0000101101001110
0001000000011011
1111011010001000
1110101111111100
0000011101110000
0010111100011000
0001001001010110
0000001011100011
0010010011000001
1111110110010010
0000111100111011
0001000001010110
1110011101100001
0001010110111111
0001000100000111
0001101001111100
1111111010101001
0000001100000110
1110101011111101
1111101000001000
0001000111000010
0010010110111000
0010000100010010
0001001111110001
1111101101000000
1111111110110111
1111111010100111
1111011110000010
0000100001010100
0001010010010101
0000010111001111
1111101000011101
1110101000000000
1110010010011110
1110011110111000
1110111000010100
0000101101000010
0001100010010101
0001110111010011
1111111000110000
0000011111100001
1111110010000010
1111011010100110
0000111101010001
1110101000010111
0000011101010010
1110110011101011
1111111111110111
0001101001110111
0001011000100010
1111100011010100
0000000010011011
0000110101100000
1111011001111110
0001001000101100
1111011100000100
0001011110101011
0000100011110101
0001110001011000
0000001011000100
1110011010010000
1111000010101000
0000111000101001
0000100110000100
1110101101010111
1111010001011111
1110001001110100
0000000100101010
1111000000101110
1110000100111111
1110001100000100
1110111100101000
1110110011000110
0000100011100110
0000111011011101
1111100100011011
1111000110101100
1111111111000101
1101100010110111
1111111111100010
1111000000111111
0001010000111011
0000001010000010
0000101101001110
0001100001101100
1110000110011101
1111100111110000
0001000001101101
1111011101110001
0000000110100001
1111010111101001
0001011011110101
1111000010110010
0000010001010011
0001010110110101
0000101111001101
1110101001111111
0000000100101111
1111111011001111
1111010000001111
0000101111101110
1111010011011011
1110111100101100
1111100010100000
0000010011111001
1101000100110001
0000110101011101
0001111001010100
0000000001010001
0000011111100010
1111011001101001
1111100010111101
1110010011011010
0000000000011001
0001101010110011
0000100000000110
0001100110111111
1111100010000110
0000011111110111
0000000101000001
1111111110111110
0000001111110111
1111100110001001
0001100000000110
0001001110100011
1111111011011010
1101111101111000
1111101100110000
1111110111011001
1111101001010100
1110111000011111
1111111011010100
0000101101111110
0001100111000001
0000001001100110
1111100100011001
0000111101111010
1111001011111101
1111111001110010
0000001101000100
0001000101100110
1111111111001011
1111111000100100
0001110101111001
0001011100001101
0000111101101101
0001011111111000
0000100101010101
1111011000000101
1101110111010100
1111010011000110
1111111011111101
1111001111000000
0001101001011000
0000100101001000
1111101111011001
1111011010100101
0001000000100111
0000100010101001
1110000000000101
1111001000101010
1111111111011100
0000000011110011
0001010110111111
1110101100101000
0001000011011101
1111101100000011
0001011100100100
0000000111010101
1110110011100000
0001000101001010
0000001101111100
0000100111011101
0000100101100001
1111100100010011
1111111000001001
0000101101010010
1111101001011111
0001001001111010
0000100001010100
0000110101110111
1110111010001100
1110010001101101
1111011011000101
1111011101100111
1110010000011100
1110101010110010
0001011001000011
1110111101011100
0000011101011011
1111000011011010
1111101111111101
1110111010001101
1111111110111011
1111010111000111
1111010000000110
1110001000010000
1111001100111001
1111100111001001
0000010001111001
1110011000101011
1111110101111000
1110111000000101
0010001100001010
0000011011100010
0001101111110110
0001000011111111
1110010001000100
1111100101011001
1111010110110000
0000111101000101
1110000100011100
0000101001011100
0001010100001100
0000111011101000
1111110000010011
0000101000011110
1110111111101000
1111000010001011
0010001010010110
0000100010100010
0000110011101111
1111100110001000
