1111010001100111
0000010001110011
1111011011100000
1111110100100100
0010001000101100
1110010011110000
1111010011001100
1111001001101001
1110111111000011
1110111010100001
1111101100111011
1101111101101110
0000100000100000
1110110000111000
0000111011010111
1111110101110010
1110100010001101
1101101010000110
1110100010010100
0010111101110010
0000101011111110
0000011001101001
1110101101111111
1101101100011001
1111001111110101
0000010010110111
0010110001100100
1100110100111100
1110011001101101
1111010100011010
