0000110110001111
0000100001111110
1110011011000011
1111111111000111
1111001010110011
0000111011110111
0000101110110100
0000110010110000
0001101100110111
0000111001110010
1111101101001111
0001010011111001
0000010010100100
1110110111111111
0000011010010111
1111100011101100
1110101001110010
1111011000010110
1111001110111010
1111001110001101
1111111101011010
0000011000100011
0000110111001010
1110001000110101
1111100101001100
0000001100000001
1110110110101100
1111110000010001
1111101110011110
1110110110011110
1111000101111101
0001010000100110
1111111010100000
0001001000000111
0000011101010001
1111000110111100
1110010101100111
1111110011100010
0000001000011001
1101100110000111
1110001100111101
1111001110011100
0000111101101010
1111000100100110
0010000101100000
0000100000100100
1111011010010110
1110100101101110
0001011110110011
1110111111000010
1111001111001111
0000000000111110
1110111001001100
0000000101001010
1101100011010010
1111011010100000
1111100001101111
1111010100011000
1111100110111001
1110110110011010
1111001010110110
0000010011111000
0000100001010101
0000010101101001
0000010001000111
0000110111010010
1111101100101110
0001001110100111
0000001101100100
0000011101010111
1111010111101100
1111101000011111
1111101101111010
1110111101101101
1111000101010001
1110011110111110
1111110010001011
1111110010110011
0000001011000011
1111110000010000
0000011001000101
1111011111001100
1111111101100011
1111110100010111
1111111011001111
1101100001011011
1111101111111000
0001000000001101
0000100111100011
0000000000110110
0001100101100011
1110011000010010
1111101110010000
1111111110110100
1110010100011111
0001100000000000
0001000011010001
0001001100011011
0000010101110101
1111011011100010
1111110001111010
0001010001001101
0001011011010001
1110111111000011
1111110111010100
1111011101010101
1111001011000010
1111001000110011
1111100110101101
1111001010011000
0000101110101011
1111111111010111
0000001000101111
0001000101011010
1111000101010001
1110100101011010
0000000110101110
0001011100110101
0000001011100101
0000011001011110
0001011100010110
1111111011001100
1111001001111010
0001011001000001
1111001001010110
1110011101011110
1101011111110001
0000001101100111
0000101111110011
0001110100100010
1111010100101100
1111011010001000
0000010111001001
0001001100001110
0010000101111110
1110101110011000
0000000111001001
0000001000110010
0000010111001011
1111101111000101
1111000101010101
1110011000101100
0000010100011000
0000010101101100
0001101001111111
1111101110111110
0000100110000110
0000100000000111
1110011101010010
1101100100110001
1110110000010110
0000000001000011
1111001101100011
1110111011011010
1111111110111010
0000011101001111
1111101100010010
0000000010010010
1110101111011010
0000000000001001
0001000100000000
1111100000110001
1110101001000101
0001001000101010
1111101111011100
0000011110100111
1111100110110001
0001001100111101
1110011000010000
0001011011001011
0000100000001001
1111011100010010
1111011100010010
0000101011000101
0000100110010111
1111100011001011
1110111110100100
1111110001110110
0001100111111011
1110100110011100
0000110011011010
0000100011101110
1111110011011010
1110001010010100
1111001100001011
1110111101111100
0001010010110000
0001010001101010
0000111111100010
0001010111001001
0000010001110110
0000000100100110
0001010110110000
0000010111111000
1110011101010100
1111100110100011
0010101010101111
0000010011110010
0000001100111100
0000111101101001
0001001010100101
1111100110011000
0010000011001110
0001000110111101
1111000100000100
1111110111101000
0001010010100110
1111100101101110
1111011000010111
0000010101010000
0001011101100111
0001101110101001
1111111000111001
0000000011011000
1110001110101101
0001100101000100
0000000100101001
1111011010001011
0000010100110100
0000000111000011
1111110101100000
1111100000101110
0000000000000010
1111000011011110
0001100011111101
1111100001000000
0001010110110101
1111011101000001
1110111101110101
0001011000100011
0001101101011011
1111110100001100
0001111000100101
0000011010000000
0001000011110010
1111100111110010
0000011000000110
1111100101011100
1111010010001011
0010011100111001
0001100100111001
1111110000001000
0001101111000001
1110111001001000
1111000101000100
0000010110010001
1110101101011110
1111101000000110
0000111010000011
1111010111001000
0001000110011100
1111111010110101
1111111101010010
0000000101010101
1111110011101101
1111011110010111
1111001000010001
0000110010101111
1111011010111011
1110110011000010
1111010001101011
1101000110110101
1111100111000000
1110110011100110
1111100100111101
1110110011011011
1110010110110010
1111011010001011
0000010001100101
1111110001011111
0000011010000001
1111111110111100
1111101011001111
1110011101000101
0000111101110110
1111101001000101
1110110100100010
0001010100010100
1111101001111100
0000101001011001
0010010100110101
1111100010010101
1111110111101101
0000001101101101
1111011000100010
1110111111011101
1111111101111010
0000010010010111
0000110101111000
0000001110011001
0001001101001101
0000010100000011
1110110110101010
1111100101100101
1110011010111100
1111000011101110
1111111010010000
1111110010110011
1111101011001110
0000011011000011
1111010011001111
1111101011110011
1111111010011100
1111100110111011
0000110101101010
1111101100111001
1111101001001001
0000001010000111
0000001110100010
1111110011111100
1110101011010011
0011001010101100
1110100110010111
0000011100111000
0000010001100001
0000011010101000
1111110011011001
1111111010000111
1111000110000100
1111000110110111
1111100010000010
1111101111011011
0000001100110110
1111101110011000
1111001100010011
0001010010011111
1110111010001000
0001001101001010
0000011100110001
1111001000010000
0000001010101011
0000010110011101
0000010001000111
0000001001000101
1110111011001101
1101001100100011
0001000101111111
0000101011001011
0000001101101101
0000101111100101
1111101110101110
0000110011011011
0000111110111101
0000011110011001
1111111001001000
1111110100110101
0000011111001010
0001000111001001
0001001010111010
0001011100001101
1111111110000101
1111110111001111
0000001001101111
0001001101011011
0000010011010011
1110100110011001
1111001100001001
0000010010100110
1110001100110011
1111000111011000
0000001001100001
0010110101010101
0000101010111010
1111100010001011
0001001000000110
1111110011101010
1111001001000111
0000000000100011
0000100000100001
0000010000001100
0000000000000011
1111011101111010
0010101001101011
0000101111011010
1111010000010100
1111100111010000
0000001110010111
0001001100111100
0000101000010010
0000011111101001
1111100110110110
0000110101010010
0000010110100101
1111001000111001
0000010100110110
1111010001100111
0001001010100001
1110110010111111
1110110110011000
1111010011000110
1111101111111100
1111101100001110
1111010111001011
1111011001010011
1111100001001111
1111000111111010
0000001000100111
1110110011010001
0001000001100000
1111111111111000
1111111111001000
0001000001001010
1110110000100110
1110000000110011
1111000100110101
0000111110101000
0001001101101011
0000010101100000
0000000101010101
1110101001100010
1101111110010100
1110101000100111
0010110000011001
1111100111001111
1110101011001000
1111010100110011
1111010000101111
1111110111100111
0001000101111010
0000010000001000
1111101100110101
0000110000011111
0001100101100001
0000110101110001
0000101101001101
1111000110111000
0010000101011000
1111100100010100
0000100100000011
1110110010100000
0000110010100110
1111001111100110
1111101110110010
1111000110010011
0001001101111111
0000101011000111
1111001011101110
1111010001111111
0001001011000000
1111011010100101
1111001111110111
1110110110010000
1111111100110001
0000000000011001
0001011010100111
0001101000001101
0000110010010100
0000101111000000
0000101101011000
0000001000100101
0000011110000110
0001100111011111
0000001011011011
0000111011100101
1110001011010101
0000110100011110
0000010010000011
1111101101110001
1111101001111101
1111011011010100
0000000110001101
1111111101101010
1111001001010000
0000101011011011
0001001001100111
1110100111001011
1110101001001100
0000000111111110
0000001101111101
0000011100000111
1110101110101100
1111001110111000
1111101010101001
0000011011100000
1110101111110000
1111110110011001
1111011110010101
0000011111001001
0000001011100000
0000111001111111
1111111111110101
1111000101111110
0000101000010010
0000100101111101
0000101010001100
0000100110001010
0001010100101110
1110111011100101
0000101000101101
1111100101010100
1111001011111111
1111100110000101
1111001111100101
1111000011110100
1110111100100100
1111011101001101
0000001010010011
1111000111100110
0000110000000101
1111100011110001
1111110010101010
1110001011101110
1111111011000100
1110111011101000
0000101100001101
0000001011101110
0001001001110110
0010010011011101
0000101011100100
0001100011110101
0001000011001111
0010011100101110
0000101101100101
0000001001001011
1111001011010011
0010011111010101
1111110000111001
1111101101001001
1111101000010110
1111100100101001
0000100110110000
0010010100100010
0000010001000100
0001101110100111
1110101110011011
1111101110110011
1111110100101110
0000000100001001
1111111001000001
0000111100101001
0000010110110001
0001100100011011
0000011100100110
0000010110001001
0000101001100010
1111110101111010
1110110111110011
0001100100100001
1111001100010001
0000110111100100
0000000111011010
1110001000000000
0000111000000011
1111111010100110
0001011011110100
1111000011110001
1111001111100111
0000100110010110
0000001100110001
0000110100001000
1110010011000100
0000111110010010
0000101100110011
1110010100000100
1111010111000000
0001100000010110
0000010101110111
1111100100011011
0000111010010000
0000010010001100
0000110110000011
0000000100011100
1111110000011001
1111010010100001
0000000010010000
1111110011011001
1111001000101101
0000101011001010
0000111100011110
1110110010100000
0001111000101110
1111010111100101
0000000101010011
1111010000001001
0001111110010000
1101101000101011
0000101110110010
0000110011111111
1110110011010100
1111111111001010
1110110100010011
0001110001101001
1110111100111001
1111010001100100
1110111110100011
1110111101111101
0001110111000110
1110111010000101
0000100100111001
0000001000111010
1111110011101101
1110100000011101
1111110001110000
0000101010110111
0001000110110111
0000100000101001
0001001101100010
1111010111100001
0001001011110001
0000010010011001
1111000001011001
1111000110101011
0001010010101010
1111101110100001
1110011111001101
1111111000010110
1111110010011011
0000100001110001
0000000010111010
0000001101011101
0000001111111000
1111001110010101
1111001100011101
0000110101000001
1111111101110000
1111011001111101
1111000110100111
0001000111101100
1111011101011101
0000001111100001
1111110101010001
1111000111010110
0000110011101000
1110010000101010
0000001110110111
0001010011110001
0000000001010111
0001000000111011
0000010001100010
1111010101101101
0000101101011110
0000101001011100
0000101011101010
1111100010000000
0001011011000110
0000001001111110
1111100011101010
0000010010101001
1111001111110001
1110001101001111
0000001111001101
0000111111111101
0000000010111111
0000010100010011
0000001001100101
1101100100111010
0001010000110011
0000001110000010
0000001111110001
0001000101001110
0000001101101111
0001100001111010
1111011110001110
1111110101100001
0000110001111000
1111100100011010
0001100101011100
0001100101110000
0000000111011101
1110011000010111
0000111111100011
0000000001010100
0010010011000111
0001011000010110
1111010000001000
1111000010001010
1111101100110010
0000001011011000
0000011001110110
0001001010100001
0000000000011101
1111101010101100
1110111000010011
1111010101100000
1111011011011011
0000111011010000
1111111111000000
1111101100001101
0000101010010110
0000110100101110
1111100011111010
1111111010111000
1101111101001101
1110111011101000
1111000111111111
0000011110100001
1111001011111110
0000011101111001
0010111111111111
1111101110100111
1111101011101101
1111110010011110
0010000111111010
1111000001011010
0001010101001110
1111101101000111
0001011111010010
0001100010001010
1111111001100101
1111010000100100
1111011001001011
0001000011101010
1111001110000100
1110100001011101
0000101110100111
0000101101001101
1111110100011110
1111010000011011
0001111011100000
1111111101110011
0000110100110011
1111100101001100
0000100110001110
0000010111001011
1110101100001000
0000110011010001
0000110100000100
1110001110100000
1111110100001011
1111010101011011
1111100100000000
0000000011010000
1110011100010011
0001100111101111
0000000011001000
0000011110001100
1111011000001011
0000100100110001
0000010010111001
0001001101000110
1111111110100011
0000000110101110
0000110110100010
1111101001100010
0000000110010100
0001000001111010
1110111100011011
0001000000101110
0000001100000010
0000111000000000
1111111100011110
0000100101101001
0000101110100000
0000010000011001
1111001011010100
1111011001011100
1110100111010101
1111100010000011
1110100000000101
1110110100111110
0001111111110110
0000001010000100
0001001111010111
1110110100011110
1111100011000011
0001111001101111
1111111001110110
1101111000000010
0001000100101010
0000111101111011
0000111001000011
1110000011110100
0010000010010010
1111000101000100
0000010100101001
0000001100010011
1110000100110101
1111111110010010
0000000001000010
1111000110001000
1111010101011111
0001111000010000
0000010100001110
1110110100010010
0001100111100101
0000011110100111
1110001101110000
0000110110011111
0001101001100000
1110110011000011
1111111010010101
1111000011111010
0001110010011010
0001011001110011
