1110011011101101
0000001011111010
0000011110101110
0000111010101000
0001100101110101
1110111000000001
0000000011111110
0000100101000111
1111001001001110
1110100010001011
0000110111111110
0001110011001111
1111011000000110
0000111011010111
1111011101100101
1110010110010011
0000001000111110
1101111101100000
1110111000101010
1111111110000111
1101000011100011
1111101110110010
1111001011101001
0001001111101110
0000111011110101
1101011100111100
0001111111100100
1110101110001000
1111001010110100
1101100011001010
