0000110110111011
1111011001011101
1111011010010010
1111100100010011
1111011100000001
1111000011100011
1111010100011111
0001101101010011
0001101110001000
0001000010101011
1110001001001101
1111110011100001
1111111011100000
1111110101101001
0000000011100011
0000011110100111
1110100001111010
0001110100000101
1111000100001001
1111010111011010
1111111000000101
0001010000011100
1110100000110011
1111111000000001
1111100011010001
1111010001001111
0000010111010111
0000001110110101
0000011100101101
1111011100000111
0010000010101010
1111010011001101
0001110011011011
0001111010001101
0001100110100100
1111111000001001
1111101011010001
1110111100111000
0001000110010000
0000000010111000
0000101000000110
0000000001100001
0000100001101011
0001100011001011
1111010111000011
1111101110000000
1111011001101001
0001010101100010
1110000110011101
0000001010111010
0001101001100010
0001000001011010
0000110001001111
0000010011110101
0000000111001010
0000111101100101
0001011110001100
0001001010111111
0001001011100010
0000111100000111
1111100111111110
1111011111111100
0001101101111111
0001011101110010
1111111101101110
1111100111101010
0000010011001100
0000001101010001
1111101000110000
1101111001110110
0000011111010011
0000111010110100
0000100000000101
1111101010010000
0001011011101111
0000000110000110
1111011000110100
1111101101001001
1111000111101010
0000000100001111
1110100000000001
0000010011000101
1111110100000011
1111111110001000
0000001110110101
0000110111111000
1110000110101001
0000101001011111
1111010011100000
0000101010101110
0000101011101011
0000110000010100
0000010110001011
0000010101010001
0000010010010011
0000001010101010
0000101101011001
1101111000010000
0000000111110010
0000010000100000
0000010101111110
0001000100011111
0001110001110000
0000010100101101
1110111001001101
0001011001010001
1111010001010111
0000111110010010
1111100100010101
1111010011100010
0000001010010110
1101110110101101
0000011011000110
1111111110001111
1110000101111000
0000010111110010
1111101000001001
0000001110001110
1111111011100110
1100101001101001
1111101111110011
0001001011101101
0000110110101101
1110100100010100
0000011110110111
0000000101110100
1111110011111001
0001010000011111
0000001010100100
0000011100100010
0000111101010010
0000011000101011
0001010100000010
0000001011111100
1111110000011110
1111011111101100
1110111010001001
0000001011100011
1111001010001010
1110100000011001
1111110110001000
0000111100111100
1111101111010110
0000011111011101
0000010000111000
0000101011010010
0001101000011010
0000011111001111
1111111000101000
0010011100100010
1111101000010111
1111000010010000
0001001111000111
1111101011001110
1111101100100001
1111100111001011
1101100011111010
1110111010011001
0001110101000111
0000110000010100
0000101100100001
1111100001010000
1111101001100111
0000001101111110
1111000011001010
1101100001101111
0000010000000011
0000011001011000
1110100101001001
1111110111010101
0001000111010100
0000010110000000
0001001100010101
1111001111000001
1111011111001011
1111110001011110
0000001101101000
0000011001011000
1111011111011101
1111100000110001
1110100100000111
1111111000101000
0000111011011001
0000111111011100
0000101010101100
1110111110011100
1110100011100111
0001010111110000
0000111010010011
0000011111111100
0000101001011011
1111000110010000
0000011000111001
1101110100110101
0000101101011001
1101110001000010
0001000100001100
0000010010101101
0000101110010011
0010010100101010
0000010110011011
1111000101011110
0001110011001111
0000011101100100
0000010110110100
1110000010011001
1110011001110100
1111111110101111
1110010011100001
0000000001000111
1111000101001101
1111100100000100
0000001110101110
1111001101110001
0000010000000110
1111110101111110
1111100100011100
1111000000001111
1111101110011110
0001111101011101
0000001010001011
0000101001100100
1111000001000000
0000001010101101
1110101110000010
0001100000000100
0000110010111001
0010000000001111
1111011111010011
0000101111110001
1110111010110001
0000001111011011
1111011001000100
1111001110001110
0001100110011000
0000011011101110
0000011111100100
0001010111111101
0000001010110010
0000001010011100
0000110011010101
0000101110101100
0000010100000110
1111110110010000
1101110101101011
1110111000111000
0001001111000111
0001001100001111
1111100100011000
1111111001101001
1111001001101110
0010000010010110
0000001001011110
1110111110011010
1111101110000001
1111010110100010
0000011010010110
1110100001011111
0001110000000011
0000101000110101
0000111110000101
1111111100010110
1110111000011111
1110000100000101
1111111011111110
1111111110001011
0000000010000010
1110111111101000
1111011010010110
1101000100101111
0000010010010000
0010010101011101
1111110000011101
1110011001010101
0001001000100111
0000100111011100
0001000110011100
0000110110000010
1101110010101000
1111111000011101
0000101110110100
0000010101010100
1111010110011010
1111111010100110
0000011101100101
1111110100011111
1111110100000000
0000111100101011
0001110100101110
0001000111010010
1110001001110110
0000010010100001
0000000011101001
0001011110111010
1111101111100011
0001001101010001
1111110110001010
0001100001110010
0000101001101110
0000011110010111
1111110011101011
0000000100111001
1111110111101010
0000011001000010
0001110011001100
0000010001011011
0001001010100001
1110011011111100
1111000110001011
1111010001000001
1111001001110001
0001000010111111
1111101000001110
0000101110100101
1111101011111101
0000001010101101
0001010110001000
0000111111001010
0000111100101010
0000100011001011
0000011011001101
0000010110111011
1110101100110010
0000011001010000
0001010101111110
1111001110101001
0000110011101100
1110001111100100
1111110000111100
0000010011110101
0001111101000001
1111100100100011
1110111101110111
0000011111010110
1111100000011111
1111000111011010
0000011001111011
0000110101111001
1111111111100111
0000111011010101
1111001010001000
1110111001110000
1111111000111111
0000011110101010
1111000001001011
0000101001011010
0001100100011010
0000101110101100
1110011100001000
0001110101000000
1110001101010001
0000010010101000
0000011110111111
0001011001011101
1110100000001000
0000110111101000
0000110000110110
0000011001010001
0000111100110101
0000011101001011
1111110011011110
1111010010010100
0000101001111111
1111111011010111
1111001100001000
0001011110000011
0000110111011010
1101111011001110
0000110001101011
0001001111100011
0000010000010001
1110110100000010
0001001011110111
0000011101110110
0000000011100101
1110010011000110
0000111101000000
0001101001000000
0001011001111001
0000110101011111
0000001000101101
0001001010110110
1111110011110101
0010101111100010
0000100100001100
0001000011111110
1111100001101101
1101110000001110
1111111100101101
1110111111100100
0000011010100010
1111011110110011
0001100101100100
0001000110000100
0000110100100101
1110101001000000
1110111010110000
0000111111000110
1111100111101111
1111011101011011
1111001101011011
0000111111111110
1111100000111011
1110111111000101
1111011001000111
1111010011111110
0000001111101110
1110110010111010
1111010001000001
1111111111110111
0001000100100110
1111001101101011
0000101110010110
1111110001000101
1111111111010110
0000000000100000
1110010111100010
1111001101011101
0001001110001100
0001011101101111
0000110010001010
1111101010111111
1101111111001110
1111011000101111
0000100011001000
1110011101100010
0001000000000101
0000110010010010
1111111010111100
1111100101000100
0000111111000111
0000111001001111
1111100111010101
1110100110011001
1111000110010001
0001101101001000
1111111101111000
0010101001101100
1111011101011100
1111100101011011
1111011111001011
1111111110001110
1111001001010001
0000111101101101
1111101110111101
0000011100011110
0011001101100110
0001000001111001
1111010000011001
0000110100001100
1111100001100110
1111111100101101
0001011111000110
0000110010001101
0000011001001101
0000000001100001
0001001100011001
1111110111100000
1111101011010001
1110001101000111
1111010101000100
0000101011111000
1110100001100111
0000011111110000
1110110100010011
0000110101001110
1111001001001100
0000011011100010
1111110010001010
0000011011101101
0000011010001101
0000101110011001
0000110011000011
1110100001101111
0000110110101001
0000001100010010
0000010011000000
1110111000000010
1111110100100011
1101111101110010
1110110011010001
0001011000100001
1111101001101010
1111111000001010
0000100101101111
0000000001110111
1110100010000010
1111110110100010
1110001001101110
1111110110111100
0000011101000010
1111011011001101
1111010000001101
0000010011111101
0000100010100100
1111100010100110
1111101110110011
0000011001000000
1101010101011011
0000001111010101
1111110101011110
1111001000100000
0000000100111011
0000000011000000
0000001101111110
0000101101100110
0001101100110001
1111110001001010
0000011101100101
1110100101111100
1111010111011000
1111100001111010
0000010000111111
0001100011110000
1111001101110001
0000000000001000
1111110100100111
0000110010101101
0000101010111000
0000000001111110
0000111001101110
0000001101101000
1111000010000010
1110110111001101
1110110010111000
1111010100000101
1110111111111000
0000110110100001
0000101110000011
0000000001101100
0000011111000100
0000000100101110
0000010110101000
1111011001111011
1111011110000000
1101000001101000
0000010000001110
0000100011001000
1111000001011010
0000011111000011
1110100110010111
1110111100101111
1110100011000001
1111101000100001
0001100100101011
0000000101111101
0000001000011001
1111101110010111
0010010101101111
0001100100001101
0001001011111011
0001111000011000
1110101000001111
1111000010111001
1101010001111110
0000011101101000
1111011011011110
0001001011111101
1110100000011001
1111111011001101
1111000101000001
1111110010001101
1111101010101011
0001011101010101
0000100100111101
0000010000011110
0000010111100110
0001001111000111
1110110010100000
1111011001001101
1111100101010110
0000101110110110
1110010011001011
1111001001000101
1110010111111011
0000000100001100
0000110110001101
1110110100010100
0000000001001101
0010010010100001
1111011011111000
1111111001000010
1110111011001111
1110111101111010
0000111110000000
1110100100110001
0000110001000101
0001001011010001
1110111110010110
0001001111010110
1110100111101001
0001101011101010
0000000000100000
0000001111000010
1111000110011001
0000100100110100
1111000100100011
0000100001011000
1111011010110101
1111100101000111
0000000101011110
1111101000111001
0000000000011010
1110110010110010
1111011100100001
1110001110100011
0001100110111101
1111101010000010
0000001010001000
1111011110111100
0000001110001000
1111110010111110
0001000011011001
1101101001001000
1101100110101110
0000001101001000
1101111101001001
1111111011011001
1111111000100101
0001010010001010
1111111011100010
1111111011100000
0001001111000011
1110010000111111
1111011010110100
1111100101110010
1111100001110010
0000110010100100
0000000101101100
1111110010011111
0001001001110010
0001110101111000
1111111010011100
0010001111110110
1111010000110101
0000000010011101
1111010001011001
0000101010010001
0001010000001001
0000101010000101
1111100110101100
1111001010011010
1110000100010101
1110000100001001
1101001001110101
1111111100111110
0010110101011010
0000010001100000
1110100001101101
1110011011011110
0001101100110110
0000101010010100
0000000011001111
0000010011010010
1111011111001000
0000100001100011
0000000110011110
1111101000101100
0001000110111001
0001010111011111
0000011001111101
0001000011000101
0001100000101111
0000010101111100
1110000100101101
1111000010011100
1111110101000001
1111010111100101
1110110111101011
1110001000001110
0000010110110001
1111111111011011
1110111010000010
1111000001110111
1110101011001001
1110101001001100
0000101001010100
0000010010000001
1110010000000111
1111001010000100
1101111100110011
1111000100101011
1111110111111110
1110110000011010
0000000110110001
1101001100011001
1110101001011110
0001001111110001
0000010001011111
1111101001001101
0000010000111101
1101111101011011
1111101011100000
1111011101111000
1110100011000110
1111000000111111
1111110101101100
0000010010001110
1111101000110000
1110111011001001
0000001110011110
1111101111110011
0000011001100000
0000101101100100
0000001010100001
0000100100110001
1111110011110000
0000001010101011
1111001111010011
1111000000010100
1111010010011101
1111110011010100
0001001010100110
1111101110001111
0001100011001010
0001001101000100
1110110111001011
0000101001110011
0000001011001110
1111011011000010
1111011101011100
0001001110000101
1110001101100111
0000110101001111
0000110111000111
1111000010111011
0000011010001111
1110111010110100
1111011101001000
1110011000111011
1111011110100010
1111110000010100
0000110101010001
1111001011101100
0000111010100111
1111001101110000
1111110000111101
1111111001100100
0010011100111010
1110111011001101
1111100000001101
0000111010011000
1111011000001011
0000111000010101
0000000001101111
1110010001110011
0000010011110001
1110101110010111
0000010000100111
0000111010011001
1111000001000011
1111100010111001
1111100000001001
1111111001010111
0000111010101101
0000011000110001
0000011100011000
1111110110001111
0001010011001111
1111100101010011
0000110100111111
0001110001011000
1111110100100010
0000000111000011
0000000001001010
1111111100101000
1111001101010101
0000100111000101
1111111101101100
0000011001100110
1111110001010000
0000101010110111
0000111010010100
0000111111010010
1110111010110110
1101100111100111
0001111100000111
1111100000101110
1111101011000101
0000000100000011
0011101010011011
0000100111110000
1111101000101100
0001110010100001
