1110011000110101
1101101010001110
0001000111010010
0001010010010111
1110101111110100
1101111101000000
1101011010111000
0010010110101001
0000101100000111
1101110000110100
1110011100100000
1111100011100100
1110111101000010
1110100011101001
1110000001010100
1111100001101000
1011001011011010
0000001110110001
0001100101111001
1010111010101010
0010001000100011
0011100101000011
1110001101011011
1111111010001111
1011101101111010
0000001100110010
0000101001101110
0101111111010001
0000000100100101
1100011011001010
