0000110001110001
1111001000001101
1111001110010100
0000010100011110
0000011001001111
1101100101101000
1111101010101111
0000110100000001
1111101010110101
0001000100111011
0001001100011010
1111001010001100
1110111001011011
1101011010011011
1110101011000111
0000101111110101
1111010110010010
1101101010010101
1111010100011111
0001000010100111
0000111011100001
1111111001011100
1110111000110110
0000101010111000
0000010010101111
0001000100010110
0000100100111010
0000010111110111
1111100100001111
0011001001001010
0000101001110011
0000001001000101
0000000010000000
0000111110010101
1111100110100100
1111001011111100
1110111010110100
0000011111000101
1111010010010011
1111110101000001
0000100000111011
0001001010101000
0001010011000011
1110011011110000
0000111011110101
1111100111100000
0001000100110110
0010010011100110
1111001001101011
0000101010010000
0000001011000011
1111101111001100
1111101010111010
0000100101011000
0001001011011000
0000110100100111
1111110111010001
0000010010101010
1111011111110011
0010100010010111
0000011100110011
0000011101111011
0000000011000011
1111111000010011
0010011111100001
1111111110101000
0000010111001010
1110110001011011
0000000001001110
0000000011011100
1110000000101110
1110101110011011
1111001000000011
0000100101111101
0000010101011111
0001000111110000
1111111100100110
1111011011100110
1111011001100111
1111100011110010
1111110000110101
1110110110010000
1101110011011000
0001010110101101
1111101010100001
1111111110110011
1111000010111100
0000111010110111
1111100111010001
1111101100011101
1111001011011100
0001010011110001
1111001100000101
1110010110101110
0000110101111101
0000000101100111
1111110110000000
1111011101111110
0000010111110001
0001010111101111
0001100111111000
0000011001110011
1110001101111001
1111101101010010
1111100110101000
1110101100011110
0001100101011011
1111010010001111
0000100001111000
0000010000011010
1111010000111100
0001010100011000
1110101010100100
0000101110111110
0000011111011011
1111111000111101
0001100111011000
1110110011111000
0001110101110111
1111111110100101
0000001000111010
0001011101010001
0001110010101011
1111011010100011
1111000111001011
1111010101100110
0000010101100101
1111111011011011
0000000000100111
0001001100000110
0000000000011000
1111001111010100
1101001010100011
0000110111110111
1110001011010110
0000100001110000
1111001101010101
0010010011101110
1110000010001100
0000101111000011
1111001100011001
1111101000011001
0001000000111001
1111100011111000
0000111101000001
0000000011100111
0010000001101100
1111110101000100
1111101111000100
0000010101001011
1111110010000010
1111100001110000
0000001111011101
1110000000010000
1111110100111101
1111001100001100
1111101000001000
1110010100100010
1110110001110000
1111011000100100
1110110111010011
1111011110110011
0001110100001110
1110001111111000
1110101000111000
0000000010011001
0000001011111100
1110111100001111
0000010110100000
1110000011100011
1111011100001100
0000001110111110
1111111101001011
1110101111100111
0000000101101110
1111000011101010
1111100111101001
1111010011001010
0000011100000101
0001001101011111
0001000010010100
0001011110001010
1111100111100010
0001010110100010
0000110100111111
0000111100011001
1111110111000111
0000010010100010
0000010110111101
0000001001101110
0000110001000100
1110010110011001
0000100111001001
0000100011101011
1110110011110101
0001011110011011
0000100010110111
1111001111001101
1111100101011110
0000001111100110
1111110001110110
0000000000111011
1111101100100001
1110001010110100
1111001100111111
1110110110111001
0000000010001011
1111111010001010
1111111100010011
0000000010101001
0000001010111110
1111000111110001
1111001111011110
0001001101010101
0000111001000100
1111110111110011
1111100110011010
1111000110011001
0000100000010000
0000100011010001
0000100001001100
1111101111011010
0000011101011000
1111000011011010
1110100110000011
1111111000100000
0000010110100011
1111110101100001
1111111111110111
1111111110000110
0001001110000101
1111001000010011
0010101010101101
1111111110100110
1101000101111011
0000010001110111
0000100101010001
1111001110101110
0000100110011100
1110101111000010
1111110001100000
1111101010000000
0000011100000011
0000101001100011
0000001000001101
1111001101101001
1111101101000110
1111111010001101
1111001110100100
1110010111101110
0000101011001111
0000010011010001
0000101111010001
1111000000010100
0010110100101111
1111110111011010
1111111100000001
0001001101011001
0000010010001010
1111011000000110
1110101011100011
1111100110111011
0000010001000001
1111010001101101
0000001000110010
0000111111111101
1111011110100001
0000100111000100
0000001100011011
0000100111010110
1101101010010010
1111101110011100
1110111111101010
1111001001111111
0000000101001010
1111100111110010
0001011101100010
0001000100101010
1111001011011000
0000010100111111
0001000110010010
0000111010010110
0000011000001100
0000001011101000
0000111111111101
0000000101101000
1110100010110101
1111101000010001
1110101110010000
1101100001010000
0000011101010000
0001011110010111
1111011001110010
1110010111010101
1111011001011100
0001100111100001
0001100010000010
0000010001111110
1111101111111100
0011010110100111
1111111000000011
0000110000111101
1111001111111111
1110100000000101
0000011001101101
0000100111011111
1110011100100010
1111000100000111
0001000001010101
1111010010110001
0000000110010011
1111111000010010
0000000001100001
1110101111001110
0010000000110100
1111111010110001
1110110111100100
0000000010101111
1110011110101101
0000000011101111
0000000001011011
0000000100000101
1111111011101101
1111111000110001
1110011000100001
1111011100001100
1111010100000001
0000000111010110
1111101111110001
0000010011001010
1110100111100000
0001010011000100
0001100000001110
1111100100010111
1111111010000010
1111101110001001
0000000000100110
1110100011001000
0000011001100100
1111111100010110
0000001111011010
0000111110010011
1111100111010111
1111101000111111
1111001111100111
0000010101111100
1111001101010011
0000111010011111
0000001100000111
0001100100011100
1101001100101101
1101010110110100
1111000000000000
0000101101001101
1110101101101101
1111100010111011
0001001000000101
0010010001001110
1110000100101011
1111111000101111
1111000001111011
1111111010011111
0000010101010101
0000101001011001
0001101000010001
0001010111100000
1111001010010101
1111011110100001
1110101011000010
1111010100111001
0000110001011110
1101110111100001
0001001101000001
0000000001010010
1111100000101111
1111010011010110
0000100101100111
0001000010110110
1111110101110110
0000010101000111
0000000000010110
1111000101000010
1111001000000011
1110100111010111
0010011110110011
1111000100100100
0010001001001001
0000100000001110
0000011101010000
1111010101000110
1111101111011011
0000100111010101
1110011101011101
1111111011101110
0000111101011111
1111010100000100
1101111010000011
0001000111010100
0001000000100011
1110011111111010
0000000101010001
1111011001100101
1110100010111011
0000001111001010
1111101110100110
0010010101000000
0001000110010101
0000001111011001
1111100010110001
1110101011010101
0000101000101100
1111000100000101
0000111100010110
1110100111001000
0001100101100111
0000110110000010
0011000110010011
1111100001110111
0000100110000111
1111111101100001
0001011110100011
1111110111010000
0001000011100100
0000010111000101
0000101110100100
1111110101001001
1111010001001110
0000111110000010
1110101100111110
1110111011010011
1111010110000000
1111001000101011
0000001100100001
1100011111110010
1111010011111101
0001000100111001
1111000000000100
0001011101111011
1111010110101011
1110110111010001
0000010110001111
1111110000100100
1111001110000011
1111100011100011
1111010010111011
1110111110111000
1101010001111110
1110011001111011
0011000001011100
0001111000011100
0000110110110110
0001000011000000
0010010001110110
1111101001100000
0000010101101110
1111101111100110
1111011011010110
0000101100011111
1110110111100001
1111111001011111
1111010000011110
1111000100010100
1111111100101101
0000011001001110
1111011010010001
0000111110011000
1111100011100111
1111111101110100
0000010000001110
1111100001100000
1111101000000011
0000111101001010
1111011110100010
0001000010101110
1110001001010001
1111100010101111
1111000000000100
1111101010011000
1111001011001111
0000010110110101
0001001010000111
0000010001011000
1110101111010111
1110101011111101
0001001110010001
1111001100101101
0010001101011011
0000100100100111
0001110010011011
0000101110100000
1111111100011100
1111010110001010
0000000111110100
1111110110111001
0000101100100001
0001010010010011
0000000100000111
0000111010011100
1111111100010111
1111010100100011
1111100111001010
0000010001011011
1111100100101111
0000101011101101
0000110111011000
0000100010101110
1111001110110010
0001010000111101
0000001110111101
0000000010110000
0000101101011101
0000011000000110
0001001011110010
0001011010010011
0001011101011100
0001010000100100
1110101110110001
1111101110000101
0001110101001010
1111100101011010
0001100001010010
0001100011000011
0000010111100111
1101100000001101
1111111010111111
0000110010101010
1111110111111110
0001001111010011
1110000100001000
1111001100000011
1111110101011101
1111111111011110
1111001011011110
0001011010010000
0000100111110100
0000000100010001
1111001011011110
0000100000010001
1101101011011110
1111101000011100
1111110010111100
0000001010010000
1110111000101100
1110001101001000
1101110101110101
0000011100011000
0000000111010000
0001000111100111
0000011100100000
1110101101111001
1101111011001000
0001010111111001
0001000111101001
1111011111000010
1110010000100011
1110000100100101
0000001011111111
0001001111010111
0000110100001011
1111111010010001
1110000110101000
1111100101100111
0000011111101101
0001010111111001
1111100110000010
1111010010111011
0000000111111100
1101111101011000
1111101001000001
1111101100101010
0000011111111100
1111110001000101
0000000111110001
1111000101000111
1111001001111110
1101111001100001
0000101001101000
1110011111110100
1111010110101111
1110010100100101
1111000111000110
0000010011110101
0001010110100100
0000100001011100
1110101011111101
0000100110101000
0010000110101101
0000010100001011
0001110110011001
0000111011000010
1111101111001100
1111111011000110
1111110000110001
1111100111110110
1111000010101111
0000000101111110
0000101110111001
1110110011100001
0010010000010001
0000101000011000
0000101101010111
0000000110010111
1111110101111100
1110111100011110
1111010110111010
1110001001101011
1111101000010111
0001010001001101
1110000110101000
1111101110010110
1111101100111001
0001101010001001
1111010001100100
1111001110110010
0000110101010000
1111011111110001
1111100010101100
1111110110110111
0001101100011001
1111100111010010
1111101000100001
1111101110011101
1111011011110110
0000001000001100
1111100101000100
1111000001001111
0010001101101101
0000010010101000
0001000000000100
1111000010101111
1111110011110010
1111110111101111
0000001111001001
1111001110111011
1111010100110100
0000010010010000
1111110111000101
1110100111011110
0000010000100011
1111100101010010
1111011011111111
0000001001011101
1111111001110101
1110101000001001
1110011110111010
1111010101000010
1110111100100010
0000000001111110
1110110100101001
0000111110101011
1111011001101100
1111111011111100
1111100111010001
0001111010100010
1111110111110010
0000111101110111
0000011011011111
1110011001100000
1111011110010000
0000100010010010
1110011000011110
1111100110001101
1101100011000111
0000111100010111
1111101011111010
0000000101011100
1111010110111101
1111001110100110
0000000110010011
1111000111000000
1111111001010110
0000111001101101
0000000111001010
1111101001011101
1110000111011010
1111110111011110
0000010010001011
1111111111111101
0000000000110101
1111010100001010
1111100101101001
1110001011011011
1111100100010010
1111011000110111
0000101001000000
0001000000001100
0001000011000100
0001000101011101
1111000001001010
0001111001010101
0001100101111001
1111101101110111
0001000100000100
0000110110101010
0000011101010110
1111111010000111
0001011000000010
1111101100111010
1110111100110001
0001011101010110
1110011111101001
0000010101110000
1110010000100001
1110101101101110
1110110011001010
1111011101000010
1111110011110100
1111100100000101
0001010100111101
0001101000101101
1111001110010100
0000011101100010
0000111111010011
0000100000001111
0000110001011100
1110111110100011
1111101110100101
1111011011000101
0000111001001101
0001000001001110
0001001101000000
0001010110111000
0001010101000011
0000111011000010
1111101101010100
1111110001010110
0000100010100010
0000100011111110
0010001101010011
0000000111011110
1111100010010110
1111011110011110
0000001010010101
0000011100011001
1111011011101110
1111110110101000
1111110110101101
1110001010000011
1110001011001010
0001001001100101
1110101001100111
0001000110011101
1110000100111001
1110011001011111
0000010110001101
1110010111101111
0000110010001011
1111000001010111
0000000001010010
1111001000100010
1111000001010010
1110110100111101
0000011000111010
0000000101000110
1110110111001111
0000001011111000
1111010001101001
1111001000101011
0000011100100101
1111001111100001
0000011110011100
1111100101101001
1111110111001000
0000110100110100
0001101010010101
0000111000110110
0001001000100000
0000010000011100
0000001101010101
0001011100101110
1111001101100001
0000010001100010
0000101011000010
0000000011011111
0000000100011100
1111010111100010
0001000100111010
0000101011110010
0001000000101010
0001010111111111
0001010101110011
0000101011010001
1111111110001000
0000000010010000
