0000101000101110
1111100100100010
0000110011001011
1110011100011010
0000011001101110
0000011111100001
0000000111000001
1111110011001001
0000011011011011
0001101110100011
1101111110101010
1111000100000110
1111101110101111
1111011110001110
0000110011010010
1111101101100010
1111101111110010
1111011100100000
1110101110110011
1111111111011110
1111110000110100
0000011001011010
0000010111000111
0001000110110101
0001111011011100
1111110010100110
1110011000110001
1110111111000110
1111110000110011
1111011110101101
1111110001011111
1111011000001010
1111001111000001
0000010110111000
1111110011010111
0000001000111011
0000101110111110
0000000111011000
1111100001100111
0000101101101100
1111111010111011
1101110111111110
0000100000011100
0001011010010011
0001010101110000
1111101101101001
1101100110001101
0001001001000100
1111000001111100
1111011101100011
0000111110001111
1111111100000111
0000011011111001
1111000101110100
0001011110001010
1111001001011001
0000010110101010
1111011100011010
0000000100011101
0000100010111011
0000110000100011
0000100111111011
0000010110101010
0000000001000111
1110110100010011
1111110100101100
0000010000001101
1111110010011111
1111011100110100
1111110110000010
0000000100101010
0000001000011100
1101010000111101
1111000101100010
1111010101011100
1110111111111101
1111111000000010
1111010110110100
1111111011110010
1111101001101100
1110010111001000
1110110110001010
0000110011010110
1110100100100110
0000100100111010
0000101111010001
0000011001110011
0000001011011110
0000110111011011
1101111000101101
1111011101101110
0000001111101100
1111100100010101
1110111101001001
1111101111100111
1111101011010010
0000100111001100
1111100110101111
1110001101101101
0000100100010100
0000101110110010
1110111111011100
0000000100010011
1101111001000010
1110111101001110
1111011000100101
0000100000011101
1110101011110011
1110101100111011
0000011101110101
0001001000100000
1111101010001110
0000111001111110
1111110110010100
0000110010001101
0001100000100001
1111101011010100
0000101000000100
1111100010000011
0000001111100100
0001010111010010
0000010011110000
0000111000001110
0000110011110000
0000111100101011
0001100001100111
0000100100011001
0000110001010000
0000000000111001
1110110111111100
0000000001011000
0000000011001100
0001110110110011
1110101100111101
1111100100010010
1111011011001101
0010010001000011
1111110010000111
1111101101101100
1111111111100011
1111011001100111
0001000100101011
0000100001110110
1111111010011111
0000011101001010
1110110111111011
0000010110001010
0001100100001100
0010000111101101
0000000001000000
0001111001011010
0000011011010111
0000001100101101
1111110001110101
0000111001010001
1111100000101010
0000110001101110
0001001011110000
0000110010011111
1111111000011000
1111000111000100
1111011111110001
0000000100010101
0001001001101110
1111110100010110
0000000000000100
0000001001101101
1110011111100101
1110001110110101
1111110110100110
1110111011101111
0000101101000110
0000110001000110
0001110111111000
1111100000100001
0000111111110001
1111100101111110
0000011100010110
1111100010110100
0001100000000100
1111110011001010
1111011110101111
1111010000101000
0000001110100011
0000000000001001
1111000001110100
0001000111011000
1111011001000101
0000100000110101
1111100101101011
1110100100001110
0000000100000010
1111110100100000
1111010010010010
0000001000001100
0000011000100100
1111011101100111
0000011110010000
0001000100110010
0000001001110011
0001011000000011
0001000111101000
0000111011101100
1111010010110001
0001101001100001
1111110011111010
1111110001010101
1110110001001101
0000000000001001
1111010000110111
1111111001001110
1111100000001000
1111111111101100
0000010010000000
1110010010111110
1111010111100100
0000101110111110
1111101101011010
1110111001010101
0000010110111010
0000011101011010
1111110000110000
1101100000101000
1110100100101101
1111000110001011
0001011100101001
1111100110000111
1110000000001101
1111101011101011
1111001110100101
1110011111111111
0000110100011100
1111101010110010
0000001101011100
0000011111010110
1111101011011111
1111101101010100
0010000101010011
0000000101100011
0001000001011100
1110101011100010
1111110100101000
1111001001011001
0000011101001100
1111100001000110
0000001001011101
0000001111111000
1111000111000001
0000110110111110
0000000000110000
1111101010110010
1110101110000010
0000101001100110
0001000111110011
1111100000111010
1111000001010001
0000110101010100
0000010000011001
0000001111101111
1111101011101001
1111000110110110
0000010101110000
1110010010110000
1111011001111111
1111100101100000
1111000011011000
1111110001001011
0000000101110101
0000110000101011
0001000111001010
0000101010011111
1111001100000101
1111101001110011
1111111011001110
1111011101111111
1111111001001101
1111001010000011
1111111011000111
0000000010000101
1111111101011100
1111000101101111
0011001010111011
1111010101101001
0000011010010010
0001001100010111
0000111010101100
1111101110110011
1111011010001001
1110101011101011
1110001010010010
0000011110010101
1111011010010010
1110000000000111
1111001110111010
1111101111100000
1110110010000000
0000101100000000
0000000001011101
1111001111011001
1111100111110010
1110010101111111
1111010111110111
1111010101001011
0001000000100011
0000000101011101
0001010101011101
1110110110111101
0000011001111101
1111010111111101
0000111001101101
1111001110011100
0001000111001001
1111001101101001
1110100010100101
1111011100011111
1101111111001110
1101111111100101
1100111110111100
1110101010111010
1111001101100111
0000101110100001
1111101111011101
0000101000100111
0000100111110101
1111101010000101
0001100010111100
1111110011110011
0001011001010110
0000100000100001
1111000100010110
1101100110101111
1110111010100000
0001010101000110
0000111001110001
0000110100111101
1110111010000010
0000101000101001
1101010111101100
1111101001110001
1110101000001001
1110000110001000
1110011011000100
1111010111001111
1110010001111010
1111100000100100
0000110101111101
1111000001110010
1111111110110100
0000001110111111
0000110010110100
1111110101111011
0001010011001101
1111101101010010
0000000101100000
1111101011110111
0000110111011111
1110110000101001
1111100000010110
1111000101010101
1101101100110001
1111110010111101
1111010100100101
0000011010001100
0000100001000101
1111101110111111
1111101001111001
1111000110011001
1111001110010110
1111000001111101
1110010001100110
1101001101111110
1110001101010100
1111110000000001
0000001010000001
0001001101000110
0000001000010000
1111100001001111
0000111101011101
1111110000100100
1111110111010000
1111000111110000
1111110010111000
1110111101000100
1110111100100000
1111010111010110
1110101001100010
0000010001111000
1110111100001100
0000100100000110
1110010001001100
0000110111001100
1111000111011100
1111001110100111
1101000110111001
1111111001101001
0001000010111000
0001000010100101
1110011010011001
1101101010111010
1110111111011010
1110000010011110
1111010010010010
1111011101001011
1111111000000100
0000010011101101
0001100110110011
1111100001111000
0001010011000110
0000010001010011
1111110110101101
0000111001000100
0000011111110101
1111011101111000
1111000001010011
1110100011110011
1101110011001011
1111001001111011
1111100000011111
0000111000110100
1110110110111000
0000001000001000
1110110101001101
0000110111101110
0010000110000010
1111001010011111
0001010101100111
0000000111000110
1111010110000100
1101110110001000
1111001101000010
1101000001010010
0000010111000001
0000000110000100
0000100101100001
0000110011000110
1111001011110111
0000010110000001
1111101001111111
1111111110110000
0001100111110000
0000001101001101
0000001111010000
1110101110010111
1111111000010001
1110010100001111
1111011100101000
0000010110111110
0000000100010011
1110111101011110
0000101010000101
0001010001010010
1111111001010101
1111101101101101
0000010101001011
0000011100011011
1110111010011011
1111011010111101
1101111100111000
1101111011110100
1110110000001110
1111001010010100
0001001101110011
1111100110111010
1111100100000110
0000010110101100
1110110000000010
0001100010010000
1111001111010011
0000001001101011
0000010001010011
1111101110011010
0000000010001010
0001000001110110
0000101100001101
0001011110001001
1111010010111011
0001000111000101
1111100010110001
0001011101110101
1111100100000000
0000010111111011
0010111001110011
0000111001110000
1111011001001100
1111111010000011
1111000001010001
1110000000001011
1100110010110100
1110110000100011
1110100100111110
0001101001110000
1111101010101101
1111101110100110
0010110000101000
0000001110101111
0001001101110100
0000100000111100
0001101001111101
0001101010010101
1111110101110001
0001011101001111
0001010000100101
0000010100111001
1111111011010111
0001111111010001
0000010001100011
0001010100110011
0000111001100010
1111110010010010
0000010000010101
0010010001010110
1111110111101001
0000100101100111
1111111111110011
0001110111110010
1111011110101000
1111101100010111
1111001000001101
0000011011100010
0000100000000101
1111111101010100
1110110001111011
0001000010011000
0000001010000101
0000101001110000
1111111001100011
0001111010101101
0010110001000110
0001100011111011
0001001001101110
1110001111111000
1111110001001101
1111110110010111
1111001111000101
0001101110001111
0001010001011010
0000101111000011
0000011000001001
0001110000111110
0000011010001011
0000101001100110
1111101011100110
0001110000111110
1111101011011001
1111111110011000
0000101111100001
1110100110101000
1111010110111010
0000101010100110
0001001010100010
0000001100100010
0010000101001100
0010001110000110
0001010100001110
0001011111110001
0000001100100011
0000001011101111
1111101011010101
1111101101011110
1111111110100110
0000001110001111
0000010110001000
1110000010111100
0000110011000000
0001111101010010
0000101000010110
0000001011101011
0000100100110001
0001110000101101
0000100111011111
0000010000010001
0010011000000110
0000000001111110
1111101100100010
1111111000110100
1111110110111111
0000101100011110
0001001110000001
0000110011100101
0000100100111001
0001111011111111
0000011110001011
0010010101011001
0001101110000110
0000000010110101
0000100010101100
1110100011001110
1101111100110100
1111101110001001
0001101010110101
1110000110101000
1111111100111000
0000101111000100
0001101000101101
0000011101011000
0000011111010011
0001001101001100
0000001001001101
1111111110001110
0000011110000101
1110111111111011
1111101110111010
1111101110111001
1111001101001111
1110001010110000
1110101001010101
0000101010011000
0000111110111011
0000011101001111
0001000101000100
1111001111100000
0001101010100010
1110011100100110
1111110001101111
0001111110010010
1111101011111000
0010011010101100
0000111111010111
0001000101001000
0000000100101001
0001001001011011
0000010001100110
1111100110110000
0000111101001100
1111011111100001
0000110101100100
1111101110100110
0000100100010011
0000000110101000
1110110011110000
0000001010110001
1111101101101100
0000101011101011
0000010001110101
0000001000100101
1110101000000100
1110000011110010
0000100110100111
0001111001101110
1111011100001111
0001011100010000
0000001000001110
1101111011101101
1110111001001001
1110100110110100
1111111000100001
0000111010000001
1111110100000000
0001001111110111
1111110100110010
0000001000111101
1110010011101011
1111101101001000
0000011111110011
0000011110000011
1110101000100100
1111001111100100
1111000001001011
1111010000001011
1111010001000110
1110111101110001
0000101011011100
0000110111001100
0001011110001110
1111000111110100
0001101011011111
0000110010000100
0001100110011111
1111101000000000
1110001101111011
0000010000100000
1111110011001101
0001000101111010
0000100101100100
1111110001000110
0000001100011101
1111101101100100
0000010001011110
0000011101111110
1111101101010110
1111010101000111
1110111001001001
1111111101100100
1111010010000001
1111000101000111
0000001100010111
0001000011011100
1110010111100100
1111110001010111
1111001011100101
1110011010011000
1110101000111111
1111011000000111
0001100000111100
0001010000000001
1110100100011010
0000111110110100
0001001100101011
0000010001010000
1111101100010000
1111001010110111
0000011011101101
1111011100001011
1111100110101011
0000110111000100
1111101100011011
1110101100110001
1111011011001010
0001001011101000
1111011011100001
1111100010110010
1110010100000011
0001100000000101
1110011010001001
1111100100111001
1110101001100111
0001101100001011
1110110000000010
1110011011110110
1111100101001110
1111100100101000
0000110001110011
0000000001000000
1111000110100100
0000100100011111
0000000111010100
1111110101110011
1111001101010011
0001000001001001
0000001010001011
0000101100101001
1111110101000110
0001111111001000
1111011111101110
0000111011000110
0000000011000101
1110101001111110
1111101100000000
0001110101010000
0000010111011110
1111000111010110
1111000001101011
0000101011111010
0000000100101001
1110111011101010
1111010100010111
0000000100111011
1111111100100010
1111000000111000
1110110010010001
1111111010111000
1110001100011000
1111111100001110
1110100100011111
0000011000111011
1111010101010000
0000010100011000
0000111111100010
1111001101111000
0000000111110010
0000110001100001
1111010010011001
1111111101001001
0010001000010010
0001100100001011
0000010001010100
0000111010000110
0000000101000010
0001101111111110
0001111010110111
0001000110101000
0000000000010101
0000000111000001
1111001001110001
1111101101010111
1110110000111001
0001001100100001
0001101101100100
0000001100000011
1101100100100101
0001010111100111
0001010001111110
1111100111001110
1111000101100001
