1111100110010010
1111011001111000
1111110101111010
0000001011000110
1111100100100000
0000010100100101
1111110110000110
0000011010110110
1111100001001001
0000101001000011
0000010100111010
1111100001101000
1111110010111001
0000000100111110
0000100100101000
0000010011101011
0000000001110101
1111101111100110
1111011111110011
0000010110010011
0000000111100011
0000100110011011
0000000011111011
0000010011111110
0000010101100011
0000111001111000
0000011011000001
0000010011010001
1111110101110101
0000000000110110
1111101001100011
1111100111101101
1111111010100100
0000111110001011
1111110100111001
1111010010100110
1111111000011110
0000010111101100
1111100011111000
0000011101111100
1111100001000101
1111100011101110
0000000110011110
0000000110111010
0000010101100001
0000111010010111
0000000111010001
0000011001011011
1111000111101011
1111111001010100
0000000111010101
0000100001000010
0000000001111101
1111101011100001
1111111110100001
1111011001111110
1111110011100011
0000100011010111
1111101111101000
1111000111101011
1111001011111010
1111000001010010
0000100101001011
0000110110111110
1111000000110000
0000100000011001
0000101100011111
0000000110100000
0000010100001011
1111111000010010
0000110101110110
1111000000001000
0000001001111100
1111101111010111
1111010001111011
0000001101010100
0000010000000101
1111100111110101
0000010010011001
1111111000101000
0000100001101110
0000010110011110
1111011001110011
1111111000010010
1111011001111000
0001010010011101
0000000111011101
0000010100100011
0000010000111100
0000000001111011
1111000110000001
0000000011001000
1111110000000100
1111111011100000
1111010101011001
1111101010111101
0000101100101101
0000100111010010
0000000100100011
0000000001110100
0000110110011100
0000101001001111
1111010110101101
1111011100010000
1111011001100010
0000000000111011
1111101010110011
1111011111000000
1111111111101100
1111010100111111
1111111100001010
0000011101100101
1111111110101111
1111111001110100
1110101001000010
1111010100000010
0000000011010100
1111110010100111
0000010111001101
0000011101000010
0000100011111110
0000100100010110
0001001011000011
0000110000110011
1111110110110011
0001001000101000
0000000111100011
0001001101010100
0000011111101001
1111111010100010
0000010011111010
0000011000010000
1111011111000111
1111110111101011
1111000111000100
1111000000110101
0000100001101110
1111100010101011
1111011001000100
1111111100011011
1111011001001010
0000010110101111
1111110000111011
0000001000001111
0000010010110101
1111110001000100
0000010111010101
0000101011110100
0000000011101110
0001001001110011
0000100110100011
1111111001110011
0000010111111010
1111110010011010
0000011101100010
1111111101100011
0000111101101011
1111110100111110
0000101001101000
0000001100110101
1111101000100101
1111100011001011
1111101100101010
1111010011100011
0000000100101001
1111011011011111
0000010001011001
1111101010010101
1111100110101011
1111110110111100
1111110110110010
1111111000110100
0000001001000100
1111111100101111
0000100110110010
0000011001101001
0000010000011101
0000010011001011
0000110000000101
0000001110100110
0000011100000011
0000100100010010
0000011101110011
1111111110000100
0000011010011011
0000001001011011
0000010100110111
0000001001111111
1111100111101110
0000111101111000
1111010011101100
1111010110110001
0000000101111001
0000011011010010
0000100000110001
0000001011011001
1110111110001111
1111111001110111
1111101111000100
1111101000001001
1111101001100000
0000011011101101
0001010100011010
1111110110001010
0000011011000001
0000000110100011
0000010101111111
0000100000001010
0000101011111000
0000101100000011
1111110100000010
0000101000010100
0000011001010100
0000000111111001
1111111101111100
0000101011011101
0000000110011110
1111010101001001
0000001111110100
1111100000010100
1111010110010011
1111101101101000
1111011010001101
1111010000111010
1111111110101111
1111100010111101
1111111011111010
0000001011110101
1111111101001100
0000110000011101
0000001110011110
1111110111011111
0000001011010100
0000001001011110
0000000101100000
0000000011110101
0000010000000000
0000011101001001
0001100111001001
0000011010010001
0001000001001000
1111110001000101
1111111010011100
0000000110011000
0000111000110110
0000010100010101
0000010010010010
0000010011010110
1111010000010100
0000001101011001
1111101001100101
1111110000111000
0000000001101110
1111100111101101
1111110101001011
0000000010100101
0000010110111100
1111101000000010
0001010100001111
0000001111000000
0000011010111011
1111111101000010
0000010111011001
1111001111001100
1111011001000010
1110111111000011
0000101010010000
0001101000100110
0000111110110110
0000111101111110
0001000011001101
0000000001000001
0000000000110100
1111101111110100
0000000110110001
1111101000000010
0000000001001111
1111111010100101
0000011010111110
1111011010111000
1111111101110001
1111010111101111
0000000010101100
1111101111011111
0000011110110010
1111101101110010
1111010010110101
1111000110100000
1111011101001110
1110101001000001
1110100010100011
1110111000000011
1101111011010001
1110001011000000
1111000111010110
0000100111101011
0000110000100111
0001000100001000
0000100010110010
0000011011011111
0001000100101101
0000000100010001
0000000000111010
0000001000000000
1111010100100101
1111100001101110
0001000011001010
0000000011000011
0000001011101101
1111111101011111
1111101100100010
0000011000010010
1111010111101100
1110100010100111
1110111010000101
1110011111001101
1110110000000110
1110001010010011
1110100111000010
1110010000001001
1110111110001100
1111010101011000
1110100110011010
0000000000100111
0000000000110110
0000110000101100
1111110110100111
0000100011101100
0000010010110100
1111111010011110
0000000100110010
0000010000101011
0000101000111101
1111100101000010
1111011101000000
0000000101000100
0000010100011110
0000000101110011
0000011101001110
1111101010001110
1111110010011000
1111110101110011
1110010010000101
1101010010011111
1101111010110101
1101111000110011
1111010101110010
1111111100110011
1111101110111010
1110110100001101
1111010110010100
1111000011101010
1111110011000000
1111100100011110
0000010010111001
0000100100000001
0000010000101101
0000100101010101
1111010101010110
1111010101011011
1111111101100100
1111000001010010
1111111111011011
1111110010100011
1111100101111011
1111100111000110
0000010000010101
1111011111110111
0000000010000111
1101101111011100
1110010110000011
1110111111101011
1111001010101011
1111110000100011
0000010000111011
1111100001010010
1111101110110111
1111111010001110
1111010011100111
1111000100011000
1111010100011111
0000100101011110
1111101000110100
1111110011101000
1111011111001100
0000110000101000
1111111100101110
1111001010011111
1111111000001011
0000000001110110
1111001011010100
1111101000000111
1111111110001111
0000101001001100
0000001110000111
1111111010000100
1111011101111110
1110111011100001
1110111111110101
0000001010000111
0000011100011101
0000001111111111
0000011110111011
1111101111110101
1111011100011110
1111010100010100
1111000000011001
1111100100000101
1111110000001011
1111111111101001
1111101000111010
0000011101101100
1111111010111001
1111011100101000
1111010001110100
1111100000100000
1111011111101111
0000000010000001
0000000011101111
0000101011110011
0000100111011000
1111010010101011
1111111101011000
0000001001010100
0000101010100110
0000010110010111
1111111000011100
0000010111110000
1111111101111000
0000001010111111
1111101000101111
1111101010010101
1111011010100100
1111001000000100
0000000000010001
1111101010100000
0000000011010111
0000000000111000
0000011110000111
0000100010100000
1111011001001111
1111111011110001
0000000100101101
0000010010011010
1111101010111100
0000111001110101
0000010101000101
1111010001011110
0000001111011001
1111110010100100
1111100011110011
0000000101000111
0001000100010100
0000100010101100
1111111101000101
1111101011110000
1111110101010100
0000001001101010
0000010110001111
1111001111110000
1111111100111110
1111011000101000
1111100110010010
1111010011011011
0000011011110110
0000001111010110
0000100000101010
0000001011010000
0000011011000110
0000010110010100
0000000000001011
0000010001111110
0000100100000010
0000000000010001
0000001011000010
1111001010011111
1110111101010111
1111111001111011
0000010010111000
0000100110010010
0000111010111111
0000110000101111
0000001110101100
1111101100000000
1111110100011101
1111101100010101
1111100001100001
1111101110110011
0000010000010000
1111110110110110
1111010110111000
0000010110010110
1111111110000010
0000000000100011
0000001001010111
1111101000010100
1111011111100101
1111100100010100
1111001110010010
1111111111001011
0000100110110101
0000010111111000
1111101011011110
0000100010111110
1111000010001010
0000110000110101
1111110010001111
0000001011101100
0000101101100001
1111111001001110
1111101001111100
0000011010101001
1111000010000101
1111011111000100
1111010010111000
1111111001001100
1111111011111101
1110111011010110
1111100000110000
0000100111011010
0000011001100101
0000110000110100
0000101101111011
1111111011000000
0000000000010101
0000011101000010
0000001110011101
0000000010011001
1111010100100101
0000111101011110
0000110011011110
0000001111111010
1111010000010000
1111100110011011
0000001101000110
0000111111111101
0000010011101111
0000010110000111
0000001010001100
1111111011101111
0000000000111000
0000001000101111
1111101011011101
1111100001110110
0000010001101001
0000111001101101
0000010001001011
1111111110111001
1111101111101111
0000011000000011
1111110010001100
0000101010011111
0000011000011111
1111011000111110
0000010110000101
0000101100001110
0000000100100101
1111111010001011
1111111110011011
0000000101011000
0000000011001001
0000001001011011
0001001000011111
1111001101101001
0000101010000010
0000010111000001
0000011000100100
1111110100101101
1111111111110001
0000000101101101
0000010110001001
0000011100110001
0000010001000001
0000001111110111
0000000101100111
0000001100001000
0000010101100010
1111101101101001
1111100000000111
0000011000011000
0000101000110111
0000001101000000
0000001010010100
1111010011100101
0000100101010010
1111011111001100
0000110000100101
0000000011001010
0000011100101010
0000010111001001
1111111101010101
0000011010001001
0000001101110101
0000100011100111
1111111100110011
0000001101001010
0000000111111011
1111110100010110
1111101111110100
1111101101100110
1111101111111100
0000011110111001
1111111010110010
1111101001010111
1111111011010010
1111111110111000
0000001101000111
0000000110010110
0000010010001010
0000011101101100
0000101011101101
0000100111000100
1111101110001100
1111110010011000
0000001101000110
1111100101010100
0000000010001100
1111101000101011
0000000111011100
0000110110110110
0000000001110010
0000010110001001
1111111000011111
0000101001101011
0000000011100001
0000001000000010
0000100110101000
1111100011110001
0000100000001100
1111110010100111
0000001011010101
0000010000011110
1111101110111100
0000101100110111
1111110010100011
0000001110100100
0000010111000010
1111011100100011
0000010000100110
1111000001000000
0000000111011011
0000100101010111
0000011111011010
1111100010100011
1111100000001101
1111111110111111
1111100111111000
1111011110010010
0000111001011011
0000110101000001
0000011111110101
0000011011100010
0000000000001011
1111100000001100
0000001110011001
0000000011010111
1111111101000111
0000000010000100
1111110000011000
1111111001011001
1111111000011000
1110100001111110
0000010000000111
0000000110001000
0000000001011110
0000010000000011
0000011011000011
1111100111110100
1111100110100101
0000111011100010
1111111110010000
1111111001101010
1111010000000001
0000010101010010
0000110011111100
1111101001011010
0000010001010101
0000101011101010
0000010100011011
1111101111111110
1111101111111000
1111010100010010
0000010110110010
0000000010100101
0000001011001110
0000001001100110
1111101000100000
0000110001100100
1111110000100010
1111101001011110
1111011110100110
1111011000010000
1111111100111000
0000000100111100
0000111010100101
1111110000010111
0000001110000100
1111100011000000
0000010111110100
1111101110010000
1111110101001111
1111110110101011
0000101010100110
1110111110101111
0000001101000001
0000010011010110
0000001111011001
0000010000101000
1111100100100000
0000010100101011
0000011001110101
0000100110011001
1111111110010111
0000111010111101
1111110010001011
1111111011010001
1111100011001011
1111101011100001
1111010111010001
1111001110010010
1111010010000000
1111011100011111
1110101100010011
0000010001011000
1111110111011010
1111101000000101
1111111011110101
0000110100100100
0000001000011010
1111110001111010
0000000111011011
1111110101010011
1111011100001101
1111100111011101
0000011110111010
1111110001100111
0000000100100001
0000110001111101
0000011000001011
0000101101011010
0000111100001010
1111011110110010
1111111101111001
1111111100100001
0000011110100111
1111010110000110
1111111001010000
1111101111010001
1111011000101100
1111100101110101
0000011010001101
1111101110001101
1111111101010100
1111011011111100
0000110001001100
1111110100001101
1111011011001010
0000101100011001
1111001110010111
0000101001100011
1111110111001010
0000000000000111
1111011110111101
0000000000011110
0000100100100110
1111100001000100
0000111011010010
1111011110111101
1111101111010011
0000010111101111
1111110101111100
0000000111111001
1111000000001010
1111110111111010
0001011110100110
0000101111000000
0000011110011010
1111110011011100
0000000101100000
1111101111110001
0000100100010111
1111110010111011
0000010100101000
1111101101110001
