1111111110001000
1111001011000010
0000110101111100
0000100000011001
1111101111100001
1110101011010100
0001000101010010
0001010000110011
0001100111110011
1111010011010010
0001001101111000
0000011001010110
0000001010101011
0000000110110101
1111100000010001
1101011111101001
0001000100101010
1111100101011111
0000010111010001
0001000010000111
0000100000100100
1111000111101001
0001001111111110
1111011110010010
1111000001111111
0000011100000000
0000110101110100
1111011101101100
0000101010101110
0001001001100000
