1111011011011010
0000000111001010
1111000001100101
1110111011101000
0000100010000111
1110101000011100
1110101000100010
1111101110111101
1110010011000010
1111110100011001
1111110010110101
0001101011110111
1111000010100111
0000010010000000
1111100000001011
1110010111111011
1110010101011111
0001110110100001
0000101111001110
0000010100001010
1110101010110011
0001111010010010
1111001011010100
0000001100111001
0001001100011111
0001110011011100
1111111000111110
0000110101011010
1111010100010000
0000110101111101
0001100010000001
1111001100010010
1111001101110111
0001100001110001
0000100011101110
0011011101100100
0010011100000010
0000010111100001
1110110001100000
1111001010100100
1110111101010111
1110110000010111
0000000011100001
1111011111010100
0000000011110111
0000111001100101
1110010101010001
1111011000100101
1111100001010101
1111101010101001
0010011000001111
0000110100000101
1111111110110011
1110010010001100
0000001101011010
0001101110000000
1111001111101011
0000010000001001
0000001111110111
0000100101110011
0010100101111101
0001000100001010
1110000110101101
0000111111010101
1111011011111010
1111101011010100
0010000100110010
1111001101001010
0000011010111111
1110000111101111
0000011001110010
0000001101000111
0000101101111100
0010001010101000
0000011001000110
0000000010000011
0001100110011111
0001000010110111
1101101110101110
0000010101001001
1111100000111011
0000010100101100
1111110110000001
1111101101100001
1111101011111011
1111110111011101
1111001110101000
1110101000001110
0001011001011011
1111101000111010
1111111001111101
0001000101000100
1111010010110011
0001100111000101
1111111100000010
1111100110011101
1111011110000101
1111110010100001
1111101110001100
1111110001010110
0000101111100011
0001110001100001
1111000100011000
0000100001101101
1111111110001111
1111101000001000
1110010101100100
1110011101110101
1110011111111011
0000010011101110
1111111101011010
1111111010010010
0000111011110101
1111101101001111
1111001000010100
0001010011001111
0001101010110010
0000101011101000
0000100011111011
0000000110111000
0000001111011010
0000100101111111
1111011111011001
0000111100011010
1111000111011100
0000001000111101
0000001110010010
0001101100100000
1111001010001011
0000101011011110
1111111001011001
1110100111000100
1110000000011000
0000110001100100
1110011010111011
1111100001010100
1110101111110101
0000000100100010
0000001100001101
0001000000001101
1111110110111100
1111100100011011
1110111101010100
1111010001101000
1111101010000000
1111100010101001
0000101001111111
0000110100100101
0000100100010010
0010000011001110
1110011100111101
0000011101110010
1110111000100110
1111000010010011
0000000010101010
1111101001011011
0000011001100010
1111010011101001
1111111101000100
1111111011101011
1110010111111110
1111111111100000
0001101100110000
0000110011101000
0000010010001011
1111110011110011
1111111110000000
0001101010010111
1110110111100000
1111000000100111
1111011101001111
1111010001110010
0001100001011111
1111001011110000
0001011100000110
1111011001110100
1111000011010010
0000001101110001
0000100000111000
1111100010110111
0000111000110011
0000000010101100
1111010100001110
1110111000110100
0000011010000011
1111110010100010
1111010010011111
1111001011010011
1111100101100101
1110111100110101
1111101001101000
1111000101111001
1110010101101011
1111011100010000
1111100011010010
1110011111001101
1111111011111101
1111111001101100
0001001010101000
0000010110001111
1111000111101100
0010100100101011
0000001100111011
0000110011011010
0000110100011000
1101111010011011
0001001110111100
0000111000011001
1111110101001011
0000101110110001
0000101010100010
1110100111101110
0001010100010000
1111010000001000
0000001011011100
0000010010000110
1110100010011000
1111110100011111
1111110011101100
0001101011110101
0000010110000011
0001000100110011
1111000010111100
0001000011101101
0001001000011011
0000110010000111
0000000000110111
1111100011110010
1111000111111110
0001010011000010
1111101101111100
0000111000110111
0000111001010110
1111000011111011
0000001101111100
0000010101110101
1111100110110010
0000100100010011
1111110001101101
1111011010110101
1111110000011010
0000000100001100
0000000000000101
1111110111011110
0000010100101000
0001010001100011
1111010010001101
0000000110000110
1111010110111100
0000000111100101
0010010101011001
1111101000100000
1110011111101110
0000111100100101
0000110001100111
1111111101110110
0001011100101010
0001000101111000
0001000000110111
1111011010111101
0001100101001100
0000101010101000
1110101011111111
1111111111000110
0000110101110000
1111000101110000
0000011110100101
0010010010110101
0000000010010110
0001001111011000
0001000001100100
0001001010000110
0000100111001101
0001000100000000
0000100010110100
1111010110111110
0000101101100111
0010001010111100
0000010001110010
1110010100110110
0000100100101110
1111010101010000
1111110110110110
0001101001011101
0001000011010011
1111101111111010
0000111101100100
1111111011011101
1111110101010111
1111110010001011
0000100011011001
0000111101101110
1111111011101010
0010101001001100
0010001101110011
0001100011100111
0000111111001101
0001111100110010
0000000010011100
0000100110101110
0001001010010011
0000110001001100
0000101100110100
0000100110100001
1110101101110110
0000100110110000
0000101110111011
1111001011110111
1111010000110001
1111011010110101
1111010110110101
0010100101110011
0001100101001001
1111110001001100
0000100001110001
0000001100111011
0000100010011000
0011011010010111
0000001110010011
0001110010111110
0001101000110110
0001011101101110
1111100000010101
0001000011111001
0001000011011101
0000010100011110
0000010011101111
0000110110011101
0000001001011001
1111111101010110
0000001010001100
0000100110010110
0000100100011010
1111011101111110
0001101000111010
1111000010000000
1111010010110101
1111000011001001
0001100001000111
0000000101100001
0001010011111000
0000010101011110
1111110100110101
0001000110001010
1111111000101000
1111100001110010
1110111011110110
0000000001101011
1110111011110100
1101101111100001
1011110100000100
1110111111110111
0001000100001111
1111101100000011
0010001000100010
1110101001011000
1111101010101011
0000000011000000
1111010001101000
0001101100000101
1110100010010011
0001000101110111
0000001101101101
1110111100011010
1111101001111101
1111100011100110
0010000001101000
0000001010000001
1111111111110100
1110110110010111
1110111100110111
1111000110001100
1111001011100001
1111001010111001
1111100001111101
1110010000001000
1100011110000100
1011111001110000
1110001001101110
1101101111101000
1101010101010000
1111111001110101
1101101111001110
1110111111011000
1111001111010100
0000010000000010
0001000111010101
1111110111110111
0001000010101000
1111111111110100
1111111001011001
1101000111100111
0000001011010111
1111110011000111
1111001100011010
0000001001100100
1110111001100010
0000100110001111
1110111100100001
1111101100111111
1111000010001000
0000000110100000
0000110011001001
1110101010110100
1101110001010001
1100000110000110
1110001100001010
1110011010111011
1100111111100011
1110100110101100
1110000001001001
1110110111101110
1110111011001110
0001010001000100
1111111011000001
0000100010101111
1111111100011010
1111100110111010
1111101010011101
0000100110110110
0001111111010100
1111110001011101
1111101101000000
0000000111111100
1110001001100011
0000000101101001
1111011100000001
0000111111001011
1111011110011110
1111011000101111
1111011111001000
1101101011001100
1101011000110001
1110000011110011
1111000111010010
1110001111101111
1110111110011011
1101111001100100
0000010111111011
1110011111000100
1111111101110111
1111110101111010
1111101010111110
0000010001110001
0000110011101100
1111101100111001
0000111111000100
0000001001000101
0000010110011000
1111101000010110
0000000100100110
0000010100011011
1111100111001011
1110111101000000
1110010000110001
1111100010101101
1111010010100110
1110101100001110
1110010100010000
1101101011110010
1110100010000110
1100111111101000
0000111110000110
1111110100010011
1110011011010110
1111101010100000
1111110110001010
1111110111010000
0000100101001010
0010011110011110
0001101010111100
0000111111010011
1110111110011001
1111000000000100
0000001000110101
0000010011001110
1111010111011101
1110101110001000
1111111100101110
0000010100001101
1111101000111111
1111111110000110
0000101001100000
1111011011001110
1110001010010111
1101111001011010
1110111001100111
1110101111110011
1110000011100000
0000000001111101
1110010100001101
0000000011111010
1110111110110011
0000111110101100
0000001001101100
0001000011011100
1110111110001110
0000101111111011
1111111000101111
0000111010010101
0000100000110001
0000000110101111
0000010011011000
0000001101010000
1110111100100100
0000011100100010
1111010111110111
0000010011110000
0000001100101000
0001111001000110
1111010011110111
1111010000011110
0000001001101110
1110010100000001
1101101000000110
1110100111000110
1110010101110110
1111001110110001
0000000000010110
0000110001011111
1110111100110010
0010000111001110
0001101101110000
0000110111110100
1111011011011001
1111001100111110
0000110111010100
0001001010101010
0000101011001100
0000110110011001
1111011000010010
1110010000010011
0010001110000001
1111101011111011
0000001000001111
1110110111111101
0000100001100000
0000011111111011
0001001010100010
0001001111001000
1111111011101001
0000010101000101
0001001001111010
1111100011010010
1111111010001111
0001100000110100
1111111001010000
0001110100011110
0000000011101110
0000000111111000
1111101111010100
0001000000110011
1110001100110110
0000000101110100
0000010101000111
0000111001001001
0000110100000000
0000101011111011
0000110010111111
1111011001011000
0000000101010010
1110011011111110
0000100001101011
1111010111010011
0000111000111010
1111001000011010
0000101111111011
0001100001100111
0011011111111100
0010001010110001
0011101110000011
0011010011100110
0001110101101100
0010101001001010
0001110101001000
0000001000000111
1110110000111110
0000000111111001
1111100110101110
1111100011111000
0000101101001000
1111011000010000
1111111000111011
0001000110001100
0000000101101000
1111110000001111
1110010110001010
0000001111010110
0000011010000100
1111101000011101
1111110000000100
1111100101111001
0001100011111000
1111101100011011
0000001010001011
0001111101100101
0001010011101010
0001011010101000
0001000000101111
0001000011111010
0000001010100011
0000111110110010
1111011010001000
0000101011001001
0001101110110000
0000010110010110
0000000000011100
0000011001011000
0000011011001001
1111010110100010
0000001011010011
1111000111000101
1110110001011000
1111111100110001
0001010101100100
0010010101000000
1111001100001111
0000011010011011
1111000101110111
0000110010001001
0000001100101111
0000011100111111
1111011010100110
0000100101011100
1111100001111000
0000110000111111
1111011101101010
1111001000001100
0001000011010101
1111111111101000
0000011011101011
0001001010000110
1111001111101000
0001001011011011
1110111100111110
1111110010101100
1111110111011001
1111111000110110
0001001011010011
1111111101011110
0001110011101111
1111100011011111
1111001000001111
1110100100011110
0001011100001001
1101110110101100
0001011101001001
0000011001011111
1110111000101110
1111110010111000
0001000010111000
0001010000111010
1111111000101000
0000000010000110
0000100010100010
1111101110101101
1110001010101001
0000000011011010
0000011000001011
0000010001100100
1111011011110010
1111111001110001
0000000001101000
0000110010001100
1111101010101111
1110110011000000
0000011101101001
1110001110110111
0000000101001011
1111110010010100
1111111000001100
1110100011010101
1111110101010001
1111111011101001
1101110101000001
1111001100101101
1111001000010000
0000100001010001
0000011101010010
0000100001001101
1110000010011100
1111010010100100
1110111011111100
1111101110011011
1110010101110011
1111011011101001
0000010110100000
0000110001001110
1111110011111001
1111101010111101
1110110011100001
1110100001111001
1111001101000101
1110001100000100
1111011000111110
1110111000011001
0000101010100011
0001100111101000
1111111011010111
0000100111110010
0000010101110101
1111000110101111
0000110111110000
0000001010011111
0000100000001110
0000100001100111
1111110111100011
0000100000110100
0001010010010010
1111111111100010
1110011110111001
0000110111000110
0000110010101100
1110011101000000
0000011011001001
1111011101011000
0001100100011100
0000010111000001
0000010110001010
0000010110000000
0000010101010001
1110111110010010
1111100000111010
1111101101000001
0000011010111100
1111000011010111
0001100001000011
1111011011101010
1111000001011111
0000011001001001
0000100100100100
1111011111001110
1111001110001011
0000101001111110
0000110101000110
1111001011110101
1111001110001101
1111110101010101
0001011000111001
0000000111100000
1111010000011111
0000011100000011
0000111011110000
0000100010101010
0000011100111101
1111101110010101
0001001110000110
0000011101101001
0000100000011011
0000000111011101
0000000110100111
1110111110011001
0000001001011011
0001000001001101
1111000001011111
0000111001101100
0000010100011100
1111101110100010
1111010100001001
1111010001101110
0001010010011000
1111100101100000
0000000111100100
1110100110001011
0000000011110011
1111111101110000
0001100101110111
1111101010010110
1111110011111010
0000010101010000
1110011010010111
0000100001010101
1111000100101010
0000101100001001
1111111111010001
0000000000110001
1110101011011000
1110010100001100
1111100000010001
1110000000111110
1111000011010011
0000010101000010
0000001010100111
1111001111001100
