1111011001011011
1111100010100000
0000000011000100
0000110101101010
1111111010011100
1110001001110111
1110010001101100
1110110001010110
1110110100001110
1111100000100111
0001001000110000
0000001011101110
1111101100000100
1111000100000100
1111101101001000
0001001011001110
1111001110111000
1111001111101100
1111111011000101
1111100010010000
1111010001111001
1111001001010001
0000100011011111
0000101000101111
0000011000110011
0000101010010111
1110010110010110
0000101010011111
0001010110101110
0000000110000000
