1111000001101101
1110110110011011
0010010010010000
1111001000000101
1110010001110110
1110100111110111
0000010110010101
0001111011100010
1111011111001011
1110010110010001
1111000011000100
0001010001011110
1111001011000011
1111111011100111
0000011110100010
0010010001011011
0000000000001111
1110001000100101
1110110001011000
1111101011000001
1111010001111011
0001010110001001
0000001111110100
1111110000010010
1111100110000011
0000011100011100
0000001100111000
1110011110011000
1110100111110110
0001011011100000
