1111101101010100
0001100000001010
1111000111111011
1101100100010101
0001001111100011
1111000101110101
1111111111111101
0001001010010011
1110111011011110
0000011110100011
1111000010111111
0001000100001011
0000010011111000
1111001111010011
1111011001110111
0001001100001100
1110101111011110
1110101010110110
0001010011101011
1110000000111010
1111101011100000
1111100100010100
0001011101110011
0000111000110001
0010100000011111
0000111010111101
1111010110100011
1110111001011100
0000101101111001
1110110101000110
