0000000010000000
1110100010011001
0000110011111011
1111000000010100
1110101110101011
0000000111111001
0000101011001101
1111000001100000
1111111101111000
0000000000000011
0000110111001000
1111000111011001
1111100101110010
1111000001110111
0001010011110100
0001000111110000
0000101101111011
0000010111111011
0001000110010111
0000000101010101
0000110000110001
0001000100000110
0000110001010110
1111001100010000
1101001111110101
1111110100010101
1111101011101010
0000000110010101
0000111000101000
1111101101000100
1111011010000011
1111000111011101
0001000101000111
1111101111010110
0000100011000000
1111100011100010
1111111110101101
1110100111011110
1111100110100100
0000000010010111
1111110110111011
1111100000110101
0001011100011000
1111011001000101
0000101011101001
1111110000110111
0001000000000011
1110100100001001
1110111100011011
1110010110101111
1110010001000101
0001110110010000
1111100100011110
0000001001101000
0000000100111100
0001100101001001
0000010010111100
1111111011111111
1110011010010001
1111100100011000
1111110011110001
1110011111001011
0000010011010000
1110001010010111
0000110001110100
0000111110111111
1111001010000001
0000001100100010
0001111101000110
1110101110011010
1111011001100011
1111111100011000
1110111011101001
0000001010001011
0000100111001100
1111000111011101
0001100011001000
1111001010111110
0010011100100001
0001100000101000
1111000111111011
0000000100001100
0001011110011000
0000110000010111
0000001100001001
1110100010010101
1110111110111101
0000110011010011
1111011110010000
1111010001101010
1111011010001011
0000100101001000
0000001001101010
0000010111000110
1111001010101001
1111100000001110
0000110000101011
1110111110110101
0000100110011011
0000011110101011
0000101111001110
0001011111101110
1111111011001111
1111110111110111
0000111100010101
0000010001001100
1111101101110110
0000000101111010
1111111011010010
0000011011000010
0000010001001100
1111111100000000
0000010011010101
0001100001100001
1111001010001100
0000100101010000
0000110001000000
1111100011111001
0000111011000101
1111100000001110
1101011011111010
0000001000110001
0001001010111110
1111001110010110
1111001101001011
0000100000111110
1111111111100010
0001011001110100
1111110100010000
1111011011100101
0000101000111101
0000000001100101
0001110101001111
1111001001000001
0000011000111010
0000110011010101
0000110110110001
0001000110011010
0000110001000000
1111111100111111
1111110010110111
1110011110101011
0000010010010010
0001000101111101
0000001011001000
1111110010100010
1110111001101100
1111101110100010
0000100010000110
1110110001110100
1111011111101100
0000110000011100
0000000001111011
0001011101010101
0000010010111000
1111101101000110
1111001101000110
0000100100110100
1110110101011001
0000101110000100
0000100010010010
0000110111001000
0001100100001011
0000110111110000
0001011000100000
1110100110101000
1111110111000010
1111110010101111
0000001110100111
1110010110111001
1111001011010011
0000101001110100
0010000010001000
0000001010110100
0000001100111000
1110011001101010
0000110000101101
1111011101100000
0000010100101110
0000011111101001
0000001111010001
1111000101101011
1110001011101001
1111100101111111
0000000010110000
0001000000110010
1111001000001101
1110100001000111
1110110000010011
1110110101011001
1110101001001100
0000101011100011
1110110011000001
0001100000010000
0000111001100101
0000100111110000
0001011111001010
1110101011001111
1111110111100001
0010000000010110
0000111001100011
1111100100001101
1110101100001011
0000010111101000
1110111010101010
1110111010100001
0000001001010101
1110011101011100
0000000011100000
1110101001000101
1110010000011111
0001110111001100
0000101100111001
0000000100001110
0000101111100110
0001000100000110
0010001100010000
1110111011111101
1110001101001111
0000100101110010
0000011011000101
0001110001110111
0000100000100101
1111011011010110
0000111111001000
0000001000011101
1110110010000010
1110111110100001
1101110110110011
0000100011000010
1111101111010001
0000001001101110
1110110111110111
1111100011001011
1111100010110011
1111010101001110
0000011000011111
1111101011010101
0000101111100010
1110110010111110
0001010100011111
0000110010010110
1101111001010001
1111010101010011
0000010100000001
1110110001000010
0000100110111101
1111100010101010
1111101110001011
0001000011010010
0001000101111111
0001011001001011
1110101101100101
0000001111111001
0001001011010001
1111010100111011
1101111100100011
1111010111101011
1110110000011000
0000100110010000
1111010111110010
1111010111110110
0000110101010101
1111001110011111
1111111101101001
1111000000101001
0000001010110100
0000101000101101
0000000010011100
0000011110111100
0000101001100100
1110100011101110
0000110000010101
0000101011101001
1110110101101010
0001100111110101
1110100011010010
0000110111111011
0000011000100010
0001001001101000
0000100110001011
1111100001010111
0000010010110110
0001110110100101
1111001001000010
0000011011101001
1111101111010101
1111100100010010
0000111100011010
1110101111100111
1110111010111001
0000000000000111
0000011111010011
0001110111001011
0000010101011110
1111011111011111
0000111110110000
0000110000101101
0001101010101111
1110100010011011
1110010111011100
1111100101011101
0001001101000111
1111010101000001
1111110010101001
0001000110001000
1111010010000010
0000100111100110
1111001101111000
1110110000000000
1110001100000100
1110011101000110
1111100110101011
1111000100001110
0000001101101100
0001100110011001
0000010111011010
1111000111001100
1111001001101111
1111011001100100
0000101101111000
0001101000011100
0001101011100110
1111110001001000
0000001101011110
1110101001011101
1111011101111011
0000000111100111
1111100000110000
1111100110111111
0000010011101000
1110000000001101
1111011000101010
0000101110100111
1110101011111011
1110101011010100
1111000100110111
0001000110110000
0000001101101010
1111011110111100
0000011110011011
0000110000000000
1111101101000110
1111001101001100
1111111101010001
0001000000111100
1111011101100000
1111111101111010
1110110001110000
1111100100011010
0000111001010000
0001000111001100
1110010011101101
0000111110000011
0001000010011101
0000010101111000
1110110101111101
1110010011011100
1111101110111100
0000011110010110
1110101101111110
1101011100011010
0000011110010000
0000010001000100
0000010111100100
1111101000000101
0001000001011010
0000110010001010
1110111001101010
0000000010010110
1110111010010110
0000000100100001
1111101111110010
0000101001001010
1111111111110100
1110100010100000
0000000011111001
0001110110111111
1110110011011101
0001100100010001
1111110111111010
0000011000111111
0000010110001011
0000110010111110
1111010100001101
0000100011100111
1101011011011100
0000011100001001
0001001110001001
0000001011101110
0001100001101101
0000110111110010
1110010010110110
1111011110001010
1111111011110111
1111010111100101
0001001010101100
0001000011001001
0001110100111101
0000100111010111
1111001011110101
0001110000010010
1111111010101001
0000010110111110
0000010110101111
1111111110111000
1111101110100110
1110100000011000
0000000010100001
1111110111101001
0000000101001111
1110110010010010
0000100100111011
1111110111101100
0010101001000101
0000100010110100
0001000001100001
0001100010001101
0001000101000010
1110101010001101
1101111100111101
1111111001111000
1111001101111010
1111110111101000
1111001101100000
1111101010111000
1110111010111100
0000110100100111
0000001010010011
1110110011001000
0000000111011010
1110011111100110
1111001001101000
0001111010100100
0000001011000001
1111100100001011
0001011000010101
0000001000111111
1111011010011111
1110100101110111
0000000110010011
0000011101100010
0000001011010100
1111101111101011
0000100000000100
0001000110100110
0000101111000010
0000101100010001
0000000100001010
0000000011100100
1110110000111011
0000111111110000
0000001100100011
0001010000100100
0000110010001000
0000010010001101
1110101111101010
1111010000101111
1111101001100001
0000101001111001
1110010101110011
1101010101000110
1111010000000011
1111110101010110
0010000000010111
0001010001100011
0001011001010011
1110000000111111
0000011101110111
1110111111001111
0000111010000010
0010000100101000
1111001110000010
0001001111010010
1110001011010111
1111000111111001
0000010000111100
0001010010111000
0001110010011001
1110110110110101
1111001100100101
0000110011111111
0000000011000110
0000010001111101
1110101100001111
1111010100011011
0001011100000101
0001101100010001
0000100000100101
0000100111011011
0000011001101001
1110010110101010
0000010001101110
1110000110010101
0000000011000101
1111010000001011
0000010010000101
0000100101110011
0000110000011101
0000010110000111
0001000011011010
1111111000101010
0001000000101000
1111110010000011
1111100100110110
0000001001101000
1110110001110001
0000101111000001
0000101001100001
1111100011000001
0001001000010011
0000111001111100
0000001010100100
0001111110110111
1101010101010110
0000000000001001
1110110011100110
1110010100111011
1110111101101100
0000000010000000
1110111110110111
1111100110110100
0000010010111110
0001011000110100
1111111010010110
0000010011010000
1110011000000101
0000010111001010
1111001001110010
0000110001100000
1111100011100000
1111110111011011
0000000001001111
1111101000100101
1111001011110010
0000100111101011
1111010010101001
0000010110000100
0000001000101111
1111000110011000
1111100001010011
1111111100000101
1111010010110101
0000001010001010
1111011000001011
0001101010000110
1111010001101011
0000000010100010
0000001010011101
0010001000010010
1110111001100001
0000101111011000
0000111110100110
0000111001111011
0010011111100100
0000001011010010
1101100111000101
0001001011111111
0000110110101010
1110100101010001
1110101101110001
1111010110010011
1111110110010111
0000010000110010
1111111000100001
0000110001101110
0000100101010110
0001111000011101
1111100000100100
0001110100110111
1110111101110110
1111000010011111
0001001111111101
1111010111111001
0000110100001000
1111001111110010
1111101111010100
0000011000010000
1111110001001001
0001011010111011
1110111110000100
1111101110110100
1110101100000101
1111101110100011
1101111101011111
0000110111111000
0010001001110011
1111000110100100
1111110010000010
0001011110011001
1110000001111110
0000011001011100
1110111011111011
0001100001110101
0000011111100100
1111100010100010
0001001010010100
1111111110110101
0000111110100000
1110110001100101
0000011011111111
0000011010010000
0000001000100001
0000111011000111
1111111001011010
1111101111100001
1111110000110000
0000100111011110
0010011110111000
0000011011100000
0001010001101100
0000000111011110
0000101000101100
0000001110111010
0000110010110100
0001000111111100
1111101100010010
1111010011001110
1110101011101001
0010101110001110
1110101101001011
0000101100111001
0000001000010111
1101110101110111
1111001100100000
0001011001000101
1101110100000011
0000010100100011
1110110101111110
1110110110110110
1111101111100101
1111111010110001
1111000000110100
1111100101110000
1111011100001001
1111001111110011
0000000000100101
1111010011110110
0000110010100110
0000010001010100
0001111111111111
1110110001010101
1110110111000110
1111110001101110
0001101010011000
1111111111100010
0000111111111101
1111110110100001
0000100000000001
1111100010100100
0000101100101100
1111101001011000
1111110101010111
0000001000100001
0000001000010011
0001101000110111
1111010110011011
0000101001001110
1111101011101000
0000010100001001
0000101000101101
1101101010110101
0000110101011011
0000101010111010
1111011111110010
1111110111111001
1111111001111110
1111110011011011
1101110111111000
0000001011010101
0000111100011000
1101111100101111
0000010101001100
1111011110010110
0001011011001100
1111000011111101
1111001000001110
0000000111111111
1110111100101101
1111100000001111
1111101011011000
1111100111011100
0000001001101011
1110011110000101
0000001001111011
0000001000101100
1110111010010100
1111101001000011
0010110010011000
1111001001101011
0001001010111101
1111010111000011
1111100111110001
1111011111111111
1110110010110101
1111101011000001
1111001111000110
0010111101000100
1101111110000110
0000101010011101
1110100101011110
1110100010101010
1110000111001001
1111101100011110
0000110111101001
1110110101111101
0000000000001000
0000000011001111
0000010011110100
0000101011011011
1111011001001100
0000000000101011
1111011110010111
0001011011000101
0001110110001001
0000011111011110
0000001100111000
0001001110100110
1111011111111001
0000101101010101
1111010011101100
1111001110001100
1111110000001100
1110001100101001
1111000110101000
0000000000011010
0000100000110101
1110100101010111
0001100100011000
1111110111000010
0000110101010000
0001000100110101
1110011110010010
1110001101101001
1110110001001011
1111001101111100
0000000100110000
0001101100000101
1111011010011011
1111010101101111
0000100111100010
1101111011110001
1111100011101001
1111001011000110
1111110110011001
1111001111101110
0000100011000010
1111010010111001
0000000000111110
0001011110111011
1111100110000011
1111001001100011
0000000111011011
1111110110000000
1111110101000111
1111111010000111
0000010101000101
1111001000000100
1110000101110010
1111011000001101
1110100000001110
0000110010001010
0010000011111000
0000010001110010
0000010101011000
1110111111000000
1111111101010011
1111110001001110
1111100001110001
1111000010001011
1110110001000101
0000010100001000
0001111000110000
1111110111000000
1111101110110101
1111101011101001
0000101010100100
0000010111100101
0000110111001101
1111110111100010
1110111111110110
0000001010100011
0000111011010001
0001001101000001
