0001001000001110
0000110000111100
0000000011100100
1111111011000000
1111101001011000
0001001011010101
0000100110001001
1111101001110000
0000010010100011
1111110111110001
1111011101110101
0000000001010101
1111010010001111
1110111101000111
0000000100000010
0000110111010000
0000111001000010
0010000010110011
1111101011011110
0000000101011100
1111100010100001
1111010101011011
0001011001010111
0001011010110101
1111101000111110
0001100011101010
1111110011100001
0000100010001111
0000111001111111
0001001001111000
