0000010111001101
0000010011011001
1111011110000010
1111111100010010
1111101000100110
1111010111011011
0000000110011010
0000010010001001
1111000001001101
0000011101111010
0000110111111011
0000101110100000
1111110000010000
1111101100100011
0000001011001101
0000100011000001
0000100001000010
1111111010011111
1111110100100101
1111100010011001
1111100000000010
0000101010011101
0000001010100110
0000001010011010
1111000101010011
0000001010111001
0000000100000000
1111101011000100
0000011100001010
0000000111111111
0000101111111111
1111111100000000
0000011001101101
1111101011111111
1111111110110100
0000001110111110
0000001110110110
0000011010100101
1111001111011101
1111100101100001
1111111001100100
1111111100100110
1111101110000100
1111100100010100
1111101011010100
1111010010011011
1111101100100100
0000011000100111
0000100100111100
1111110001111011
1111100110010110
0000000000101001
0000011110110111
1111110011100000
0000000101111101
0000010001010011
0000000101100011
0001001000100100
1111011100111010
0000110010101001
1111001010110110
0000000101100011
1111001000110100
0000010001000011
0000010100111100
1111001111010011
1111101000010100
0000000011000110
0000100101100011
0000111000101011
1111010110011010
1111110001011110
0000011100101111
0000010010000011
1111101100111101
1111011100000101
1111100010101001
0000101100110001
1111111000001011
1111001101110011
0000001011011010
0000010100010000
0000010100110001
1111100100000000
0000011000100101
1111110010010001
0000001001111110
0000100011011010
1111111111011110
1111101111011100
1111100100110111
0000000100001110
1111110001100110
0000011000010010
0000010111010010
0000000001101100
1111010111001101
0000010111101100
0000000000001100
0000000101101010
1111011100001010
0000011001100001
1111011000111111
1110110010010101
1111100011101001
1111101000101101
1111101101100111
1111011101100100
0000010010010100
0000001000110100
1111111110011010
1110101000010110
0000001100100110
1111011110011011
0000001110001000
0000010110000101
0000011101101101
1111010011101101
1111111100010001
1111110010001111
1111010001001110
0000000001010101
0000001100101010
1111111010010110
0000001111110110
0000101000100100
1111111101011111
1111100010100100
0000001010010001
1111111100111000
1111011000110110
1111100011001000
1111111111010010
0000000101001101
1111101101010000
1111110101010000
1111011001011001
1111110111100000
0000001011110010
1111101011001101
0000000101001011
1111010101100110
0000111001010101
1111101100100100
0000111000111101
1110110101100000
1111010111001011
0000000100110101
1111100101010110
1111101001010110
0000000110001010
1111111100101110
0000111100100011
0000011110011010
0000011011010010
0001000010100001
0000011110011001
0000010100111000
0000000100110110
0000000100011000
0000000010010011
0000000001010101
1111010101111000
1111100111000011
1110111111000111
1111110010000111
1111111101100110
0000110101111101
1111100001011110
0000010100000101
1111111000101110
0000110011101001
0000101011111001
0000000011100011
0000000010111110
1111001111000011
0000001110111100
1111011001011111
1111010110001111
1111101011110000
1111000000011000
0000011111101011
0000100111111011
1111000101111110
1111111001011100
0000000010010011
1111110000000010
0000011101011010
0000000111110001
0000010001100100
1111110101111101
0000000111010111
1111110111011100
0000001000000101
0000101011100110
0000100010000111
0000111001001100
1111011100111111
0000000011010000
0001000001110011
0000111011011000
0000001001010100
1110110110011100
1111101000010001
1111010000100001
0000101101001100
1111110011000011
1111111010010010
1111101101111011
0000000010000000
1111100101000110
1111110011011011
1111110010010001
1110111111010111
0000100010110101
1111100110000100
0000111010001010
1111111010100011
0000011000100000
1111010000011110
1111110010111001
1111011000100111
1111111010110000
1111111110001000
0000111001011100
1111101110100101
1111010010001111
0000010000000111
0000001101111101
0001000011000110
0000011111010000
1111110111011001
0000011000110010
1111101111010000
1110110111100010
1111001011011011
1111001010101111
1111101000010110
1111101101101111
0000100100101110
1111101111010011
0000000000001111
0000110010010101
0000101101010010
0000001110011110
1111111110110110
0000011011001110
1111101110111001
0000101110000100
1110111101101010
1111101000111011
1111111000001011
0000100100010011
0000001110000101
0000011101010100
1111110011000011
0000011011000101
1111011100100111
0000010101111011
0000101001011000
1111001110111101
0000010000000000
0000110100001100
0000001010001100
1111100111101000
1111100100110111
1111001011111001
0000010011101001
0000010010111000
0000100110010011
0000110011011101
1111100100111001
0000010000111011
0000001100011100
0001000101101011
0000100001110011
1111101110001010
1111101011101101
0000100111000100
0000010111011001
1111101100100110
1111010101000010
1110111101010011
1111110100101111
0000001001100001
0000111011111111
1111101010010111
1111100010101101
1111100101111101
0000011001010111
0000010100000111
0000010000000101
0000001000100111
1111110011010110
0000101110011010
0000111101001100
0000110101101110
0000111111101010
0001000000100010
0000101001111011
0000110110110101
0000010100110000
0000100000111100
0001011110110011
0000000111111100
1111100001100011
0000011111011100
1111111110010101
1111101111100011
1111101011101011
1111110110100110
1111011101101110
0000110000011111
0000001101110110
1111011100010111
1111010000111100
1111111001110110
1111011111010001
0000001111011010
1111100100101100
0000001100100011
1111001101011110
1111000000000101
0000100001101100
1111001111111111
0001000100111001
0000001111101110
0000110010101100
0000111110001010
0000001010011101
0000101000001010
1111111010000000
0000101011010011
0000010000100011
0000000001010010
1111110110010001
0000100101100011
1111100001111100
1111100111001000
1111111011000101
1111010100100101
1111110000010010
0000011000100010
0000000101000001
1111100011100011
1111111101110000
1111101101010101
0000010000111000
0000001100011100
1111110011110010
0000010100100110
1111101000011000
1111111100001110
1111010100011110
0000111100001100
0000001011100100
0000101001111110
1111110011001110
1111111010000111
1111110011001000
0000001100110100
0000000000111001
0000001100000011
0000001010110010
1111101100111010
1111011001100110
1111110100111110
1111111110110111
1111010001101011
1111001001110000
1111000100111011
0000001101011101
1111110101010010
1111110111100110
1111110101110111
0000010100100011
0000000000001101
0000110001001001
1111101101001001
0000001100110100
1111001101110111
0000000111101101
1111001010110101
1111101010010001
1111111000011101
1111111111101111
1111100101110100
0000101101101111
1111111100011001
1111101001100001
0000100000011000
1111100000000110
0000000011110000
0001011001011110
1111110101100000
0000110101000000
1111010001100110
0000000010000110
0000001101101001
1111110101100110
0000010101101010
0000000100001010
1111011001000110
0000010000000101
0000010101100001
1111100110001111
1111100011011000
1111111011101001
0000010000110100
1111110101111110
0000010000111000
1111001111111001
1111111101001111
0000000000001100
1111110110000101
1111110111101000
1111111011001101
1110111110000100
1111101000010100
0000010000101110
1111110001010000
1111101010111110
1111110111110001
1111111100111011
1111011111001001
0000101111000011
1111111010101100
0000101101100001
1111010010010100
1111101001111100
0000100110101110
1111101100110001
0000001001101011
0000001110111011
1111110011001101
0000001000110101
1111101000111110
1111101010000000
1111010000001100
0000001110110000
0000100001100111
1111010111100111
1111100111000110
0000000101000110
1111111011110100
1111111010101010
0001010110100000
0000010001000111
0000011111000011
1111011000100000
1111101010010111
1111110011010110
0000010011000111
0000111110100111
0000001101100000
0000010000010100
1111110001101000
1111111111011001
0000000101101001
0000001000010010
0000000101011111
0000101001110100
1111110000110111
1111101111111110
0000011001110100
0000111001011111
1111101001010010
0000001100110001
1111011001100010
1111111000010101
0000110001110100
1111111000100011
0000101101101001
0001000011011110
1111111011110011
0000000000110110
0000011000101011
0000100001110000
1111111010000110
1111000110011011
1111101001011000
1111111011001100
0000011011010001
1111011111001101
0000001111000011
0000111101011010
1111100110011011
0000010100000010
0000010111010110
1111100110001101
1111101100100010
0001011001100000
0000001110101110
0000011000110100
1111110010001111
1111001010001011
0000010101110011
1111110010100000
1111001010000010
1111101010111010
0000110110101001
0000100011010100
1111011111101101
1111110110101111
0000001111111110
0000001001001001
0000000011000100
1111011110111010
0001000111111101
0000110101001100
1111101110001110
0000100011111110
0000101111101110
1111111001001010
0000001110110110
0000101101100111
0000110001111100
0000111000001001
1111010101101000
1111001110010001
1111100101111111
1111100010110111
1111000011100001
0000000001100101
1111110111011111
1111110011000110
0000100011011001
0000111100100111
1111111101111010
0000010010011000
1111101101101001
0000000000001010
1111111000100010
1111001001101001
0000000010000101
1111001000010110
0000000000011011
0000000100100111
1111111001100100
0000000101100011
0000011011011111
1111011011110101
0000111101101101
0000001000101010
0000011011101110
0000000001101100
1111110000110000
1111011100001100
1111100010101011
1111011110101111
1111111011110011
1111100000010100
1110111010000000
1111111010000101
1111100110011101
0000001100100010
1111111111000111
1111100011110011
1111110101000111
1111100111110110
1111110001100110
1111101001110100
1111101101001100
0000000000000010
0000010101010010
0000100101000101
0000001100001111
1111111101100001
0000011001101111
1111111001011110
0000010110111100
0000001100010101
0000010110100001
1111100101110110
1111111011011110
0000000111100001
1111011111100111
1111101101100100
1111101110111101
1111011110111111
1111111010101100
0000000011111100
0000110110010011
1111011011011001
1111110111011110
1111000011100010
1111110110111101
0000010000010110
1111011001011010
1111010010111010
0001000010110100
0000010010010111
0000001011111101
1111110101000010
0000100000000100
1111110101101111
1111110000101110
1111100000110110
1111111010111011
0000011110000100
1111011011110100
0000010000101101
0000000001011101
1111000111011010
1111010010010101
1111000110011010
1111111010110100
1111110100110000
1111100011010101
1111111101111011
0000010110101000
1111000000110000
1111111000100000
0000101111000100
0000100011111111
0000001010010010
0000011100101100
0001000001110110
0000000000101010
0000011001001110
0000000111010111
0000000111001011
1111101111110010
0000000111110101
0000010001010000
0000100001001100
0000101011010100
0000101010100101
0000101011010000
1111110011010100
0001000001011011
1111101100101111
1111011110100000
1111011110101000
0000010001011010
0000000111101110
1111110010100001
0000010110100111
1111110011110011
0000101100000001
1111111111010010
1111110011100111
1111111000100100
1111011100001111
1111100110011110
1111100111011010
0000010010111111
0000011101111110
1111111011000101
0000001100101111
0000001000111100
0000011000111101
0000000001001000
0000110100000101
1111100110010001
1111110111101000
0000101110111111
1111100010101110
0000110010001111
1111111111100111
0000010001011000
0000010010101100
1111010111100111
1111110111101101
0000010001001100
1111001001010011
0000101110101001
1111110101001011
0001011100011101
0000000011000001
0000010101110001
0000010011010010
1111101110000100
0000001101100111
1110010111010111
1111010011101010
1111100111101110
1111110100110110
1111010011111110
1111111000001101
1111111100111011
1111110111001000
0000010001111000
0000001100010001
1111011000111100
1111110001001011
0000100001100000
1111000000011000
0000100000110111
1111111100000010
1111010101010111
1111011100111111
0000000100110101
0000011100101110
0000010110111100
1111110011010000
0000100001010101
0000001011111100
0000011010000011
1111101001001011
0000000000111101
1111110101011010
0000000001100101
0000001100110111
1111011101010001
1111100000111111
0000011011110011
0000001110101101
0000001101010101
0000001001111100
1111010000011000
0000001111110000
1111000000011100
1111110110111001
1111110010000110
1111101011110010
1111000011100110
1111110110101010
0000000100010101
1111000011011100
1111111011011110
0000001110010000
1111111110011010
0000000010011001
0000001111000011
1111100000101100
1111001100111110
0000110111001010
1111110010101100
1111011110011101
0000000000110100
1111001011100011
0000111001000101
1111111101010001
0000011111000010
1111001000011000
0000001000110000
0000001011001100
1111010000010110
1111011101001100
0000001101111101
1111011111011111
1110111101011010
0000001100100010
0000010111101011
1111111001110101
1111110011110000
0000011001001000
1111111111011110
1111100111100010
1111111000011001
1111111010111110
1111111110001101
0000000000001100
1111110000110110
0000000000111101
1111000101110000
0000000011011000
0000011001111111
0000101110011001
0000000111001101
1111110000011000
0000100010100001
1111100000001011
0000100001000100
0000001101001010
0000001000101100
1111100101010100
1111001010111110
0000010111011000
0001000000001100
1111100000001011
1111011011010011
1111000011000001
1111011010001101
1111011111110111
0000011000101011
1111010011101010
0000100100001101
1111101111010110
0000001000011110
0000100011001101
1111100011101111
1110111100100000
