0001001000001100
1100100000101001
1111001111010010
0000010101111111
1111000011101110
0000000101011000
0010111001100011
0001111110000101
0000111111001000
0010000010011110
1011001101010001
1111000100111010
1110110010101101
1110000001010011
1101100111011000
1110111111011001
1010111100011001
1100000010111001
0000000101000010
0011100001111010
0000010110111101
1111101100000110
0001001101100111
0000000111010100
0011100000110100
0000001011000111
0001001010001111
1011110111010010
1110010100100010
1111100000100011
