0000110110101111
1111010011100101
0000111111001000
1110010111000000
1111010001000010
0000011000100000
1111111110011110
0000101011011110
0000001011010000
0001010010111010
1110101110000010
1111100000001111
1111001000110010
0000100101010111
0000101011101000
1110010110000111
0000000100010111
1110111010101001
1111111000111100
0000111010110010
1110111110100110
0001101010011001
0000101100011010
0000100010011010
0000011100000000
1111110000011011
0000101111011001
1111111110111110
1111101101111010
1111100100010001
1111010110101111
1111101111001110
0000010010010110
1111011101000011
1110000100110111
1111001010100001
1111000111010010
0000001100111110
1110110011011100
0000000100011000
0000000100010000
0000000001101110
0000011001001010
1111011000011001
1111100010111111
0000000111010111
0001110000011111
0000101000011001
0000100011011111
1111111011111000
0000000010110011
0000001000010001
0001100110111100
1110101100011011
0000010101011010
1111110101100110
1111001100100101
1111000001100110
1111000100000000
1111100001110100
0001001101110011
1111111001001010
1111011101111101
0000010010011110
1110110110001110
1110110111101011
1111100110000110
1110111011000111
0000000000100101
0000000011001101
1111010010011001
1111001011000100
1111001010010001
1101101100000001
1111111111000111
1111110100000110
1111101110110100
1110001001001101
0000001001001111
1111010100100110
0001100001100011
1110101011000110
1111100100000000
1111111001101011
0000010100101110
1110110011001001
0000010111100001
1111100111110010
1110101000111000
1111010110111001
1110000001110101
1110101111011001
1111111100100111
1111000101001101
1101110100101000
1111000100111011
1110010010000110
1110011001000111
1101101101001011
1101011010110110
1110000011100101
0000010011001001
0000010111101101
1111000110000011
1110001001111110
1111011100000111
1111110110101001
0000001110010100
1111010000111000
0000110000101010
1111000011011110
1101111010000001
0010011001111100
1110110011010110
0000100000010100
1111011001011111
1111100010110010
0001001111010010
1110110011100111
1111111010110001
1111100010010101
0001000110110100
1111000000011000
1110000111100101
1111011000000001
1111011000101000
1111011100100100
1110110011010010
1110001000100111
0000001011110010
1111000010100001
0000100001101101
1110100011001011
1111100111001001
1110000110010011
0001010111111001
0000100101100111
0000111111101110
1110110110111110
0000111110000110
0000000101010010
0000010010010010
1111001001110100
0001001100100111
1110010111110100
0001101101000010
1101111010001111
0000111011111100
1111001111100001
1110001010110111
1110111001001100
1111101000001000
1111110111000111
1111110001100001
1101101111101010
0000111000100111
1111100110010101
1111010100001111
1111101011110111
1101011111100000
0000001100010111
1101001100000101
0001010001110111
0000101011110101
1111100001111001
1111100110011011
0000110010110100
0000011100010010
1111101000110111
1111101000101010
0001010001101100
0000101110011000
1111001010011010
0001111010101011
1111001110011000
1111011110100000
1110110001001111
1110111111110010
0000001011111010
1110110011010010
1101010010011110
1110000110101001
1110010011110000
1101101111001100
1101011000101001
1101010110011101
1110101010011110
1110101000100110
1111010010100110
1110101110011010
0000000011110001
0000011000011001
0000011110011111
0010001011010101
0000000010111010
1110100101000110
0000101100101111
1111111011101110
1110100110100001
0000010011010011
0000000010010010
0001110011100100
1111111110110000
1110111000110011
0000101111001111
1111001100010101
1111100110100111
1111100101011111
1110000011000111
1111010010010101
1101110111100110
1100101011111010
1110100110101101
1111010100101101
1110110110100011
0000101111111000
1110100111111101
0000101011011111
0000101001010000
0001110011001000
0001100011010110
1111010010011010
0001000010011110
1111111011011101
1111011110110001
1111010011100100
1111001110101011
0000000111100010
1111010010010000
1111000011111101
0000010110111011
1111110001000111
1110010011110111
0001101111011001
1110101011000000
1111111011110011
1111011010111100
0000001010101110
1111010010010010
0000011110110100
0000011001011101
0000010010111111
0000010011100001
0001000110000101
0001100111001001
0011011110000110
0000000010000101
1110111011111001
1111111000100110
0000100110110101
1110101110000010
1111010011111000
0000011111111101
0000011010000100
0001010001001111
1111101101001000
0000010100100110
1111100010101110
1111000100110000
1111111010111010
1111110001000110
1110010100011000
1111010111001101
1111101011110111
0000011110000001
0000101001110110
1111010101110110
0000001000110000
0001010010111011
0000011111101100
0001100101000111
0000100011101110
0000100101001110
0000000001000010
0001011010000001
0001111001000111
1110110111101001
0010100000000001
1111001110011110
1111110001000000
1111001010010101
0001000010011111
1111000100111111
0001011010001011
1101011010011010
0000000011101011
1111101111001101
0000001101111100
1111001001101011
0000111110100101
0000101111111101
0000001100001110
0001100110110000
0001101101001110
0001000111111111
0001011101011001
0001001111010101
0001100101011101
0001000010011111
1111111100111110
0000000101010010
0000001101110010
0001100001101100
0000111000101011
0000111001111010
0001000010000101
0000111000011011
1111100111101000
0000000101000000
1110111100111010
0001011000000011
1110110101111001
1111110000100101
0000100010101011
1111100101000101
0010010001001100
0001000010011100
0000110100100000
0010001001000110
0001011111100010
0001000101101110
0000000110010011
1111001101000111
0010010100011100
0001001000100110
0000110111101101
1111001000111101
0000001110111110
1111101101000110
1111001110100010
1110101011110111
0000011000100001
0000011111001011
1111000101011001
0000011101000110
1110110011111111
1111100011010110
0000010010111100
0001110110110000
1111001001010111
0000001100000011
1110010001011010
0000001111010101
1111001111011101
0001001010011100
0001011001100101
0010000101001011
0001000101110011
0001011101010010
0000010101011111
1111000110000100
1111011110101001
1111111100000000
1110100101111101
1111101110111010
0000111100110011
1110001010001000
1110000111110110
0000001110110111
1100100111011101
1111010001111001
0000011111011000
0000011111011011
1111101110110110
0000100101110000
1111111010010010
0010111001101110
1111001010110111
0001101100000111
0000111010010000
0001001111110100
0001000111010001
0001101100011001
0000001111110011
0000001000110010
0010110000000111
0001010010111011
1111001100100001
1111110000000111
0000001000110001
1110011000101111
0000110101010100
1111000110001101
0000010010001101
1111100111101111
1111101011111001
1111100100100010
1110001011101001
1111011111100010
1111011101000010
0010000100010001
1111111100000101
1111001111110000
0000101100110110
0010010001100100
0001001011001110
0000100101010011
1111010001011101
0001100000101111
0000111100110010
0000101110000110
0000010101001011
0000110100000100
0001100100111001
0000100000101000
1110010011100001
1101100010100111
0000000100111111
0001101100001100
1111101000000100
0001000001111001
0001100011010011
0001101010110101
0000110110110100
1111111101101000
1110011010100011
1111111111111110
1110101011000011
1110101011010111
0000000000110011
0000111110000000
1111011000110010
1110101011000001
1110000110111101
0000000111011001
0000110111111001
0000011011011101
0001011000100001
0001010111010110
0001101000100111
0000111000000111
1111000001110000
0000111001100111
1111001110000100
1111100010001101
0000011010110111
1111110010001001
0010001111001111
0000001110001100
0000010100100110
1111111101111101
0000001100110111
1110111000010011
1110110110010100
1111010111110000
0000011000010001
1111101110100110
1110111000011000
0000101110100111
0000101000011010
1110011111110000
1111000001111101
0001011000100111
0001110101111001
0000000110110000
0001101101000101
0001100101001011
0000011001001100
1111100111100100
0000001010101000
0000000001010100
1111111001010010
0000101100111001
1111011001100000
0000100100110101
0000110110101110
0000000111111110
0000010001010000
1111011010011001
0001000101101010
1110110100100100
1111001011011101
1110110111110110
0000001101000100
1100111111001111
0001001001100010
1111001001100111
1101111110110110
0000011010000010
1111111000101110
1111000011111101
0000000100010110
1111110111010010
0000010110110010
1111010001110010
1111110011001010
0000000000001111
0000010010011101
0000100000100010
0000100100010010
0000110010001100
0000001010011001
0001100110110010
0001001011000000
0000000100011110
0000100110110001
0000111011011001
1111111011001011
1111011111011111
0000110011010001
0000011110111010
0000001000110010
1111111000111100
0000001100001101
0001110101110111
0000110111110110
0000001011100101
1111111011011111
1111010101001011
0000001100001010
0001101001101010
1111001101110011
0001011110010101
1110000110010101
0000011011010111
1110100001101010
1111001010101111
1111110110110001
0001101000111101
0000010000100101
0000010010011100
1111100101110101
1111000000100100
0000000010010001
1101100010011001
1111010010110101
1111011011101111
1101110000010010
1111111111000011
0000001101000100
1111111011011101
0001010101101110
1111100000001011
1110110001101110
1111111010101101
0000001010101101
0000001110010010
1111111011111000
1111000000000000
1111100000011111
0000101001000011
1110011001000111
1111010101110100
1101010100001011
1110111110011101
1111010111010100
1111101101000000
1111110000110110
1111110011110000
0000000000001100
1110110110100010
0000111111000100
1110111001110111
1111111000010111
1111111011101011
1111010100110110
1110110001101101
0000001001011001
1111110010100001
1111001000001101
1111111000101100
1111111101100001
1110011011100000
1111101011011011
1111111100010000
1111100000100010
0000000001010100
1111101000100111
1101000010000001
1111101100110111
1110110110011110
1110000100110111
1111010100110010
1110000000010010
1110101101111001
1111110111100010
1111010011000001
1110110010011110
0000000110100011
1111000000100111
1111001001110111
0000000110000101
1111001101110110
0001000100100011
1110001010001111
1111111010111011
0000011001001001
0000001010111000
1110101010111100
0001011110001000
0000011101000101
0001011000100011
0000110000000111
1110111011101000
1111010111111110
1101101011001001
1111001100101110
1111011111111001
1101011100001001
1110011001110001
1111100011111110
1111011011101110
1111010011101110
1111000110110111
1111001111111011
0000000110000101
1110110101110001
1111000001010011
1111010110010001
0000010101001110
1101111000111110
0000010111111011
1111011000111001
1111010010100001
1110010100111011
0010000111110100
0000110110000011
0000010001100100
1111111011000111
0000110001111110
1111000010010011
1101110110100101
1110110000110001
1110011010100110
1110100111010111
1111011101110101
1111000100100001
0000010101011100
1110110011000001
1111110101110100
1110111110111111
1111001100010100
1111100000011010
1111000110100101
1111101100011011
1111110101111100
1110111101010000
1111100101100001
0001010010110001
0001101101101010
0000001111101111
1111101101011100
1111110010000111
1110011110101010
0000100101011101
0001110010101001
0000000001010100
1111100111110110
1111100011101010
1110100100011101
1111001000011011
1111111001101011
0000101001101110
0001000010100100
1111100011011001
1111100111111001
1111111110100001
1111000001001010
1111110100101010
0000100100110011
0000001111101011
1110010010010010
0001011111110100
1110110111001111
0010100101100000
0001001111000010
1111000111100001
1101111000110110
1111011100110101
0001010000000100
1111100011001001
1111010000010000
0001001111111000
1111010001001111
1111111110110110
1111110000011000
0000110001110010
0000101010000111
0000101011000101
1111110001010010
0000111111111100
0000100111110011
1111101100001100
0000010000011101
0000010010100011
1111101110101110
1111100101001011
1111000100011101
0000100001101100
1111100011010000
0000010101110010
0000000011100100
1111010111011010
1111011111100001
0000011000000100
1111100111000101
0001110110110000
0001100001000100
1111110001111111
1111111101011111
1111100100110000
1111100011001100
1111011111101101
1111010010001001
1111110111010001
0000010110101000
0000111011111011
1111010110111101
1110010000000010
0001010110101000
1111010110100000
1111101111101000
1110010001111101
0000111000001010
0000000111001100
1110101010000010
1111000110000110
1111110011000001
1111111010011110
1111100011000010
1111011011101010
0001101011100110
1111110111000101
0000110001001010
1111101100101011
1111111110000010
0000010101111110
1111101101010010
0000100000011111
1111011100110111
0001011000100101
1111000111101001
0000110101011011
1111100101110011
0010001011010111
1110011101100011
1111000100110100
1110111011110011
1111010111111010
0000100101000110
1111101010001110
1110011011001000
1111011000010111
0001000101111010
1111010100101110
0010000010110011
0001110000111101
0000001101010011
1111100110000101
0000001011001111
1110110010100111
0000001001111110
1111100110100111
1111011000001111
1111000101111001
0000100010011111
0001000011010011
0001111000101000
1110111010011100
0000000111101011
1110001010111010
1111010010110100
0010110101010111
1110101111100000
0000111010010010
0000010110111010
0000101001010100
1111000001001001
1111011100100010
1111011010010001
0000001011100101
0001000001101100
1111100100001110
1111110010000011
0001010101010010
0001010000110010
1111110011000000
0000000000001101
0000010011111011
0000110011011000
0000011111110101
0000000110101000
0000001101100101
0000101010001110
