0000101001011100
0000110100111010
1111100001110010
1110101100101010
0001100010001101
0000011101000100
0000010100111100
1111110000100111
0000011111100100
0000000100000000
0000001001011111
0001010010000111
0001001001100011
0001110000010000
0000100100010101
0000011100101001
0000011011011001
0000000111000011
1110110011010001
1110010011000011
0001100111100001
1111011000010111
1110001101001011
1111001101100111
1110101011101111
0001110110111001
0000101010110101
0001000111011001
1110001000000011
0000000000000101
0000011101000001
1111111010111110
0000100000010100
0000010000110011
0010011010011010
0000100101111101
0001101000111111
1111100011111100
0001100010110000
0000000110001010
0000011010110000
0000001011010110
1111000101011011
1110010101101000
0000000111010000
1111100000010001
1110111110100010
0000000100001011
0000001011100101
0000001011011111
1111011110011110
0000011111010101
0000010001100000
1110001101000101
0000111011111011
0001100010011011
0000111111011011
1110110100000101
1111100011011001
0000100111110000
0000000000111001
0000110011001000
0000110101101110
1111111011011100
0000000111110000
0001010100111001
1111110010110011
1111001010001000
0001010011010101
0000011000011101
0001010100011101
0000110000000100
1111111110001010
1111101010110110
0000011010010000
0000110111111101
1111000100001100
0010000001010111
0000110100101001
1111101110000100
0010010110001101
0010000001110101
1111100110010001
1111000110011100
0000000101111010
1111110011110011
1111110000001001
1111000111111001
0000001111000100
0000001111101010
1111101101001110
0000000011100101
1111100110001000
1111110110001011
0001101010100011
1110101010110100
0010101001011101
0001000111110101
0000110111100011
0000000100100100
0000001100000110
1111000110011001
0000110110110010
0000110100010101
1101111110011111
0000000100110111
1110110111001100
1110110100000001
0000000010000001
1111100111100001
1110011001000101
0000111000100101
0000000001101110
0001001010100000
0001001001001001
0000010001000010
0000011001000111
1110001111100110
0001110110011010
0000000010110010
1110000010111011
1111110100000010
0000101001011010
0001101001101101
1111110111010001
1111011111011011
0000010000100111
1111101100110100
1111001011111111
1111110101010101
1110111101010101
1111110110101001
1111111100101000
1111000010000011
1111010101110001
0000000100010001
0000100101110010
1111101010110010
1111110100100000
1110110001101110
1110001001110011
1110010010100111
0000001110001001
0001000010010011
0000111100001100
1111101110110011
0000011000010110
1111010100001111
1110110100101011
0001011100100011
1111100010010101
0000110000100000
1110011000101111
1101000111011001
1101110000011111
1110011000100111
1110001000000101
1101110100100100
1111011010101011
1111011010111111
1111010101010000
0000101000011010
1111011010011000
0000101000111100
0000110011111110
1110110001000010
1110110001000110
1110110101001010
0000010101001000
1111110000110101
1110110101001000
0000101100011110
1110111111101100
1110010000110010
1111010111001100
1111010001110111
1111100000111000
1111011101111100
1110010101001100
0001111000101000
1110110010010011
0000101110100011
0000000011101001
0000011110010011
1110111010010001
0000100001101011
0001101000011011
1111001011011001
1110110101010011
0000101110101111
1110110100111011
1100110100111000
1111001010110011
0000001010100010
0000101001001110
0000101010010000
1111111010110000
0000110110111100
0000101101101110
1111010100001110
0001011100001011
0000110001001001
1111001100011111
1111101000101010
1110111111011010
1111111101110111
1111111110110001
0001010110000100
0000011111000101
0001010001101001
0010101011010000
0000111000010010
0001100100101111
1111100110101000
1111111011100001
1111011101011110
1111110000001000
0000111011110100
1100101111101110
1101001011011000
0000011101100001
1111001110100000
1110001101010011
1111101010001111
0000100010000011
1111101101111111
1111000100111111
1111001011010011
1111011000110001
1111110100100011
0000011100010010
0000100110101101
0001001010110001
0001000001101110
0000100110011100
0000011000101110
0001011100011010
1111010011010110
0010011011100010
1111111110111000
0000010000011000
1111111101110111
0000110000001111
0000001001000000
1110101111010010
0001100110100100
1110111011001101
1101111111000100
1111100010110100
1111101111011010
1110011010110110
1111100011011001
0001000010111001
0001000011011000
1111000000010101
1111101111101010
1111101111011111
0000001000110111
0000111110010101
0000010000110000
1110100110000101
0000001111001111
0001001011010100
0000010010100101
0000011000011111
0001110010000011
0010100111111010
0000100111110001
1111001100101010
1111101000100110
1111010010011110
1111001100011101
1111000000001111
1111011100000000
1110110110000010
1111011111110111
1111011001011011
1111011110000001
1111110100000000
1111110101001001
0010001100010100
0001000111011011
1111111111010100
0001000110100111
0000001011100100
1110110010111110
0000110010100001
1111001111111110
0001000101111110
1111011011101000
1111100000110101
0000010111101100
0010000010001011
0001100101101111
0010000111000101
0001001110101010
1111010100011100
1111100100001011
0000001000110111
1111110011100101
0000011101101101
0000000111100111
0001101110010011
1111110011101011
1111011111100000
1111110000001101
0001001101011010
1111001100100010
1111001101101100
0000111110010001
0001100101000101
0000100101111010
0001000110011101
0000111011110010
0001010111101010
1111010101100101
0001000010100111
0000011101000000
0000010111001101
0001100010011100
0000100110011111
0010010111000100
0000111110001111
1111001111000000
0000110111110000
0000111000010000
0000101101111101
0000000000000000
0010101001000110
1111101010001100
0000000011000111
1111111011111000
0001001101111110
1110010010111100
1111110110101011
0000001010100111
1110110010111001
0000000001100100
0000000110011001
0000101110101111
1111111110111100
0000101001110010
0010001111100011
0000110000001101
1111101011110010
1111010110100001
1111010001010101
1111000010100010
1111011010001000
1111000110010110
0010011101000001
1111111010001110
1111011000001011
1111010110011110
0001001111000000
0000100101010010
0010000011001010
1110110101101111
1111010001101111
1110111001101101
1111101111011010
1110000101111111
0001110001001000
1111001101010010
0001011111010010
0000100001011010
0001010000111111
0010000111001000
0011011001001111
1111010100110000
1111111011111111
1111011010110001
0000001010101000
1111010000101001
1110000011101010
1101100111000101
1110000101010101
1111110000101111
1111110010110001
0000111100000010
0000100100010100
0001000110001010
0000101000101100
0000000110110100
1111101100110000
0001010101011111
1110110011110101
1111111111111111
1110110011110010
1111110101000101
1101111000100101
1111011111010100
0000110111110101
0000001000011100
0000000101001101
1111100100000100
0001000110001101
1110001001010101
0000100111001011
0000001110001011
1110010100111011
1111100100000000
1110110010100101
1101111101111100
1110011010110111
0000000001000011
1111101001010001
0000000001101110
1111101001000110
0000100001011011
0000001110011111
0000001010100000
1111111101001001
0000010111011110
1111010010111010
0000001010101110
1111010111100010
0000110001001010
0000011000011000
1110100001100111
1110110000111100
1110010101001010
1111100010010011
0000001001001010
0000100101000101
1111000010001001
1111101111001000
1110100100000010
0000101110101010
1111001011110010
1111001111110110
0001010001001000
1111000000110011
1110011100001111
0000101101101000
0000010101111111
1111011011100001
1111011010011000
0000111101000110
0000001011001001
0000011011110111
0000101111001001
1111011101001001
1101111011100011
1111000111110101
0000011110010001
0000111010010110
1110101011110000
0000011110100000
1111001001000111
0000110110000000
0010100100100011
1111011001111101
1111010111011000
0000001010000111
1110101001011110
1111101100011101
1111000010011010
1110111111111100
0000000100010001
1111101010110000
1110000010000111
1110100111101010
1110111001001000
0000100101100011
1110101001011111
0000001000110001
0000101010000111
1110111001110010
1111000100110001
1111101001001101
1111101011111110
0000100111010110
0000101010111100
1111000101000111
0000011101010001
0001000001000011
0001101001000011
0011010001001011
0000010001001110
1101001011111101
0000011010011010
1111000010101111
0001001110000101
1111110000111100
1111100111010000
0000111010100110
0000011111110001
0000111011010111
0000000111001101
1111100110010000
1110110010100101
1110110111100001
1111100011010101
0000111001101101
1110100010100101
1111010110111010
1111101101000101
0000110111101011
1111010001000010
1111110111100011
1111111001100010
1111010101000000
0000011111111001
1111110011010001
0000110011100101
1110110011111110
0000010001000111
0000111100010111
0000010111011110
1110101011010100
1111111000010110
0000101001111100
1101011111110000
0000110100001111
1110101001111111
1110011111000011
0000101100101100
0000101110111000
1111110111100011
0000101101000111
0000000001100011
1111000110101011
1111110010101110
0000110001100100
1111111000000000
1111010000001111
1111001001010111
1111101101111110
0001011010111001
1111111111110000
0001100100000010
0000001110100010
0000100010011001
1111011010011001
0000000011110011
1111010000101110
1111001101110010
1111110110010010
1110101010101001
1111010001000110
1110001111111100
1111011111001000
1101010111000110
1111111011011000
1111110100011010
0001000100111001
0000100111001000
1111110001111000
0000101101000010
1111111000100111
0001100011111000
1111001000011101
1111100110111100
1111010101011100
1110111111010100
1111000111100011
1111011000001011
0001010011110000
1111011101011101
0000100111010011
0000111010001111
1110101001111110
0000001101001011
1111110010111001
0001000000111110
1110101111010111
1110000011011001
1110101111110111
1111010110000010
1101111110010111
1110010000110111
0000000101101010
0000111101100001
0001001011000001
0000010100101011
0000010001101000
0000111100000000
0001000001000001
0000111101111100
1111100110100010
0000001001011001
1110001100101010
0000010011100001
1111111011010001
0000100001110011
0000010000110101
0000101100000010
0000100011100100
1110110110110111
0000100110101100
1111100110011001
0001001101111001
1111001000001110
1110001000110110
0000011110110101
1110010010100101
1101100011101011
1111100000011010
1110001101110110
0001010010010010
1110110100001100
1110110000111111
0000111000000011
0000000000110111
0001001100100000
1110101000010011
0000110011100001
0000001000000101
1111100001111000
0000010110110010
0010000010110011
0000011010011011
0000010010010010
0001010010110110
1111010011010000
1111100101000110
0000100000011010
0000011110110000
1111000011010000
0000110011101010
1110110001110001
1111110100111100
1111100000101110
1110001011110001
1111010000010110
0000000110101000
1110011011001101
1111010111101011
1110111010001101
1111011000100110
1110111101101000
1111000011110100
0000000001100001
0000001000111001
1101111001001011
1110101110000110
1111101000010110
0000010000100000
1110101101101000
0000110110100110
0000001110110000
1111000111111101
0001011010000000
1110001101111010
1111001110000011
0001001100110000
1111001001001111
1111010101111001
0000010110010111
1110111011100000
1110100001110100
1110000111001001
1111010111101001
0000110010100100
1111111110100000
1111101001001100
1111011111101010
1111011010010001
1101111100111101
1111100010110100
1110010100001011
1101011100011010
0001101111111011
1111000000001001
1111111111100110
1111010000110111
0000011010110100
1111011010010101
0001011011000110
1111110111011000
0001001011000010
1111010110000100
1111010100011111
0000010101110001
1101111111000100
0000011110001010
1111101000100111
0000001111011100
1101010110101100
0010010001011010
0001011011100000
0010010100111111
1111111011110111
1111001010011011
1111110001001110
0001100010111101
1111111011101001
1111010000100010
0000000111000000
1111010011100100
0000000001110001
0000100110101010
1111010000111110
0000110100001111
1110111011101001
0000001111111100
0001010010010010
0001101000010000
1111011101011000
0001101011010001
0000010110011111
0000010101001111
1111011100101000
0001001000010011
0001101001110000
1111001000111100
1101011011010000
0001010100100011
0010010101011110
0000101100101010
0001010111001101
0010010111100000
0000111011100111
0000110101000011
0001000001011000
0001000110000000
0000110010001011
0010101011110101
0001000010011100
0000000000000100
0000001100101110
0001100011100110
1111100001000101
0000110011111111
0010010111100111
0001001001100111
1110111011110001
1111011000000001
0000000110110100
0000100110010001
0000110001001101
0001101101001110
1110110011111101
1111000010111000
1111100101000011
0001000011010001
0000001101101111
0001101111010011
1111111000011011
0010011000010011
0000001000110111
0000001111011001
0001011011010010
0010000100111101
0000111101111100
1111110101101101
0001000100100000
1111111010111011
0000101010010111
0001000101101000
1111110001001100
1111011000001111
0001011001001010
0001011011010011
1111111000001111
1111101100100010
0000111001001101
1111110111001101
1111100010101101
0001110111101101
0000001010101000
1110110110011001
0000010011010011
0000100000010100
1111000100000101
0000100100101000
0001010110111100
0000110001100001
0000100011111001
1111010111101111
1110011011101000
0001101110000111
0000010000110000
1111101011010110
1111110000110000
1111110111111110
1111100000111001
0001000111101100
1111100011000100
0001001001011001
1110101110110110
1110101101011000
1111110111010011
