0000001101111010
1111011000110010
0000001101001110
1111010001101111
1101111100001101
1111001010101110
1111011111011100
1110101111101001
1111001100101100
0000100001111001
0000110111010010
1110011001100100
0000101111011100
0000111110100010
1111001010101001
0000010110011000
1110101010111100
0000011110110001
1111010111000010
1111111100011010
0001101110000011
0001100110100101
0001110101101111
0000011100010011
1111101111100001
0000000001010100
1111010001111011
1101111101010110
0001100111100101
0001010010011000
1111101001101110
1111111110111001
0000000110011000
1111000110001100
0000011010001011
1110100100001001
0000110010001010
1110010111001110
0000000111011111
0000001110101101
1101101010101001
1111110011011000
0000010001011100
0001000000010000
0000101101101011
1111110011000100
1111111001100001
0000100100010101
0000010110001001
1110001010000011
0000110111111111
1111101100011000
0000010100011110
0001100000000001
0000001100000010
0000110100010101
0000111000010100
1111011010100100
1111001011000110
1110010110101001
1111010111001110
1111011010001100
0000110100000011
0000000001000010
1111011011111000
0000011001000100
1110100100111101
0001001010111010
0000110000110011
1111000100100000
1111011111100010
1111000111000011
0000011111011111
1111010010110110
0000010111000110
1111010011110101
1111110000010010
0000000001001000
1110111111101010
0000100011111011
0000000110101010
1111111000001101
0001001101010101
1111011010011111
1111110000001010
0001101011101001
0000001010010111
1111011110011000
0000111101101001
1110000000001000
1111110001101011
1111000110100001
0000110110111100
1101111011010011
1101101001111001
0001100000110000
1110011101010011
1111111101001011
0010011010010000
1110110101100001
1111100001000111
1101101110101011
1111000010101001
1110110010010010
1110001000010110
1111011101110011
1101110101000110
0000100010110110
1111001101000100
1111100010001001
0000011110111011
0000010111001101
0000110111101111
1110111000111110
0001100100010001
1111110011100011
0001001100010010
1111111111100001
0000110110001000
1111111010010010
1111000100101000
0000011110000101
0000001100111001
1111110101100011
0000000100100111
1111110100000001
0000001001111111
1110010111110001
1111100101110001
0001101000001000
1110111000101101
0000000100101110
0000100010101011
0000110111001101
0000100011111001
1110011111111011
1111101001011100
1111010101010101
0010100110111101
0000011100101110
1111011111011000
0000100001110110
1111010111001101
0000011000100011
1111100111111011
0001100110011101
0010001111011000
0000001000011110
1111111100110110
0000000101100000
1110110001100000
0010110100011011
0000110000010101
0000010100100101
1111100111110110
1101001110010101
1111000011011100
1111001101100101
0000101010001101
1111010000010000
1111001111101001
0001010110110111
1110010010001010
0010010110101000
0000001100101101
1111000111000010
1111001010000101
1111000010000010
0000000110110011
1111111110000100
1111011000110110
1110110010010110
0000110010011101
1111110001011010
1110010011001101
1111110010000100
0000000000000010
0000100010000101
0001110110000111
1111011111001101
1110010001100001
1110111010101001
0000110110011100
1111111111110011
1110100011101010
0000000110100110
1110110011010000
1111111000100111
1111111000000010
1111000000010101
0000100000010001
0000101011010010
1111101101010000
1111110110000001
1111010011000010
0001010100000111
0000000010100110
0001010010000111
0000001010001100
1111101111101100
0000101110001101
0000011100111100
1110010011011010
0000110101010110
0001011100110101
1111100000000000
0000101111010101
1110111000001000
1111011110100000
1110110111001011
1110101010010111
1110110100101000
1111000001001101
1111011111001000
1111101001000010
0000011110110000
0000011101001011
1111110100000011
1111000100000010
0000101100011110
1111100001100011
1110101010011100
1110101110000101
0000001010100011
0001010010001100
0000011000100101
0001010011100010
1111101100110001
1101110111010001
0000001011010111
1111101001100111
1111110110111000
1111100101010011
1111001111100001
0001000001001111
0000011110101111
0000101101101100
0000100110101000
0000010010111010
1111110110011111
1111110100100001
0000010001011011
0000110001011100
0000110111001010
0001000001011101
0001100000111010
0000100011100001
1111000100110101
1111100010010010
1111011100110000
1111000111101101
0000101100011010
1110010111101111
1110111101001111
0001001110110110
1110111000100100
0000010000011111
0000111010101100
1110100001000011
1111111011100001
0000011001111100
1110000100100000
1111100010000110
1111111010000000
1110111111001010
1111000000011011
0000001110000110
0010001000100011
1111011001010000
0001100000011101
0010111110011000
0000111001001100
1111001111000010
1111110111110001
1111000011000010
1111101100101001
0000101011010000
0000110100100111
0001001000101111
1110101001111111
1111010111110101
0001010100110011
1111100100110010
0000001010011011
1111000001010001
0000101110111010
0001110101000011
0000110110111110
0001000001100001
1111111110100111
1111001011000110
1110011101110111
1111010000111011
0000001010100100
0000101011111011
1111100001101000
1111111011100110
0000001111101101
0000000001001110
1111110000000100
0000011011010011
0001010011100111
0001010000010000
0000010000111000
0000010001000001
0001100001011111
1111110100001101
1110111001111110
1111100011110101
0001110111110001
1111110000100001
0000010000010011
0000110011111000
1110101100110001
1110000001100010
0010001110000111
0000101001011100
1101101000110101
1111100111101011
0000011010000001
0001010110110010
0000000011010110
0000100001011110
0000011011011100
1111001010110111
0000110000011000
0000001101000101
1111110011111110
0000001011001101
0001100111011010
1101111011100011
0000000011101111
1110111111101001
0000110100110010
1111100010110101
1111110011001001
0000011011110011
1110001100111111
0001110110111111
0000111101101111
0000111011010000
0000010100111011
0001110010101110
1111010011100001
0001100110100100
1110111010011010
1110110110001110
0000010011000101
0000100001001111
1110111110110100
0000100000101100
0000001111001001
0000011110111001
0001010111100000
0000110011100111
0001100001001111
1111110111101110
0010000100010011
1110100001110010
1110000110011000
0000101000001000
1110110000100000
1111111101101101
1101110011111000
1110111100110010
0000000100101100
1111000001000000
0000001100100111
0000000110000111
0000010011111010
1101111101011111
1111001000111010
0000001100100111
0000000010011101
1111010111101100
1110000100010001
0000000010110100
0001011110010010
0000101010101100
0000001110100110
0000011111111001
0001010101010101
0001000100000000
0000110000001011
0000101011111101
0000000111100000
0000000000101110
0001001000100011
1111010010010011
1111100101111100
0010100000110101
0000100100110011
0000111000111011
0001010110011100
0000111001111101
0000100100011010
0000010100110111
1110101110111001
0000010101001111
1111101110111101
1111010001100111
1111001111011011
0000001100110010
1111101010001100
1111110011111110
0000000111111101
1111010100101001
0000001010111101
1111001011000111
1111111100000010
1110111001100101
1111011100001000
0000101000001110
1111000110011000
0001000110101011
1111110100100000
1111011011001011
0000010010001110
0000001000000011
0000010011010010
0000101011111001
0000000001100011
1111111010100100
1111100011111000
1111111000110010
1111001011001001
1111010111001001
1111010000100010
1110100000110001
0000100011010101
1111110101011110
0000000010010011
1111110111010111
0000100011011010
1110101100000101
0001111111100110
1111100010000010
0000110101010010
1111100011100111
1111100000111111
1111100000001000
1111011011110001
0000000000100001
0000011101110100
1111100010000101
1110010001111110
1111001010000100
1110000100111001
0001111000111100
0000011110001000
0000010100100100
1111110101001111
1111101111001011
1111011011000010
1110000011010001
0001001101110100
1110011000101001
1111111110000000
0000101010111010
1111010001101001
0001001101100000
0000100110101010
0001110110011111
0000101110010000
0000011010111011
1111111011010110
0010000010011100
0000100111011000
1111111110000101
0001000000101000
1111101011101111
1110100011100100
0001000000100001
1111111001110110
1111111110100010
0000011110100010
0000001100111100
0000110111000001
1110001111011101
0000010011010000
1111000011100010
1111010111000110
0000000000000001
0000011101011000
0000111101100001
0000101111100011
1110100000100110
1111011000100110
0001110111110010
1111100111100011
1111010100111101
1111111001110101
0001010110100000
0001000010110010
1111000001101011
0001110101110111
0000000001100111
0000010011110001
1111100011110100
0001101000010101
0001111101101010
1111100110000100
1111100101110101
0001110000010101
0000110110100100
1110100000101101
1111010001101101
0000000000001100
0000101100001101
1111110001000011
1111110000111010
0000000011101010
1111101100010011
1110110111100100
0001001110010010
0000101001101100
0000001100111100
1110001000101000
0000001011111011
0001100000001101
1111000100001101
1111110111101111
0001010000111101
1111001111011110
0001000010010010
0000011101100001
1111000011011000
0010000011010101
0000010100101011
1111010001110100
1110101101001011
0000001000000010
0000110100101110
0001111110001110
0000011001100001
1111011000011111
0001001011111010
1110010101111100
0000000100111110
1111000011010001
1111001011000000
0001011001011100
0000000010000001
1111111111111101
0001000000011101
0001010010010100
0010011011000011
1111010001000010
1111111011100010
0000100100001100
0000110100001110
0000000010110011
0001010101010101
1110011100001100
0001100100100111
0000001011000110
1111110000110000
1110100011110111
0000000100011000
0000001100110101
1111011111110111
0000000011011010
0000010000111000
1111110010100111
1111111100000111
1111001101110000
1111101000100001
0001000011010111
0001001110000111
0001010110000001
1111001101110111
1111111011000100
1111010111111111
0000110100110110
0000101111100111
0000101011111001
0001100011101111
1101110111011110
1101011101000111
1110101010011000
0010001111001100
1111000111010000
0001001110001111
1111011011001100
1111100001110011
0000011110000000
0000001001101100
1111000011010111
1111000110100000
1111101001110110
1111101010001010
1111100110011011
0001000001110011
0001000111101010
0000001110100000
0001000000011110
1111100100001100
1111100010000010
0001000110111011
1111011000011100
0001111011101011
0000101100010001
0000010000001001
1101001111000110
0000101111010101
0001001111001110
1111011111010101
1110000010001100
1111110110001101
0000010110001010
1110001011010110
1111011110101111
1111110011010010
0000000011100111
1111111010000001
0000010010110011
1111010011010010
0000011100011101
1111101011000100
1111001101011101
0011101101011100
1101101011100000
1110001101011010
0000100100101111
1111110000110111
1111001010011100
1111101000010110
0000001011001011
0001100110100101
1111100000111101
1111110110011100
1111100110101001
0001010011000111
1111010100110011
1111111110011011
1111111000011111
0000001010000010
1111101010101110
1111011001000011
0000011110101111
0001001100100111
0000100000101100
0000110000100111
1111111110010010
1111101010000111
1111100001100100
0000010110110101
0000011010110101
1111110111101100
1110100101001111
1110011101110111
0000001110010001
1111111010011100
1111011111100001
1111010110010010
1101101110011100
0000111111011111
0000111110100101
0000011011110010
0000011111010100
1100111100010010
1111110000000010
0000000100010001
1110001000101000
0000000011110111
1111001100110100
0000101100001111
0000001011111010
0000111011000010
0000000001110001
1111001100011101
0000100011110101
1101101111110010
1111101100110010
1111000110111000
0001000010010110
0000000010111000
0000001100100111
0000111011101110
0000100110010011
0000100100001011
1110101111001010
1110110101000101
0000010011110011
0000110110111111
0001110100111010
1111010001010010
0000101010110001
0001000000001010
1111100011110010
1110010000101011
1111000101111001
0000001111011110
0000111000010000
0010011000011000
1111111110110001
0001111110110101
1110001011001010
0001000001000111
0000111000011010
1111111001100101
1111000000101011
1111101110111111
1111010100111001
0000111001010110
0000001100100001
1110100101010111
1111010011010110
1110100111100000
1110001011001100
0001000011101101
0000000110111100
1101101111101100
0000101110110110
0000011000011111
0001011100000010
0010000001100100
1111111000010100
0000010001010000
0000101111111001
1111110100100010
1111101010101111
1110100101011110
0000010111001000
1111100110000001
1110100101100000
1110111001101000
0000110111111001
1110110010101100
0001000001000010
1111110110001000
1110011010000011
0001001111000010
1111101111010110
0001100011000110
0000000011110101
0000011101010100
1110010111110100
0001001001101001
1111100111010101
0001011101111010
0001010100011001
0001111101101010
0000000010001110
1111101111001001
0000100010011000
1111100101111100
1111110000101000
1110000000001110
0000011000101010
1111010110011100
0000001101010100
0010000111010100
0000101011101110
0001011110101000
1110101110110111
0000110001011011
1101011010101010
1111100001111001
0000010111010010
1111001100011100
1110101100000100
0000010001001111
0001011111010101
0000010101111101
0000110111011001
1111111101001000
0000001000001011
0000001110001110
0010110010101100
0000110010110111
1111111011000001
1101111010101011
0000100000101100
0000011100011101
1110100010110110
0000001100001111
1111011011100101
1110011111000001
0000001011011001
0000001001000010
0001000101110011
1111110000111000
0000011101111101
