1111101111100110
0001110100111110
0000010111000011
0000100001000111
0000100000101101
0000011001000000
1111000100100100
0000001100001101
0001111110101100
0000011110000101
0000010111001110
0000001101011100
1101100111101101
0001100101001101
0001001101001100
0010000010001010
1111101011001100
1111011001000110
1111111110001110
0001010001100001
1110110110101100
1111000100111011
1111110001001001
1111111110110010
1111000000101011
0010011100100011
1111101110011011
1111110111010001
0000001110010101
0000011100110100
