0000100001100111
0010000010100000
0000111000101111
1111111110001101
0001101010001110
0000000000111101
1111100001101100
0000100100000100
1111101110100011
0001101010000111
0000110011000110
0000111001011111
0000100100101001
1111000010111010
0010001011000001
0010101000100111
1111000110101110
1110110010111101
0000010111110001
1110111101010010
1111000111011111
1111000110100001
1111110011000100
0000110000001111
1111100010001110
0001001001101011
1111110111001011
0001100100010001
1111000100111111
0010000010111001
