0000001101010100
0000111101011110
1111111110001110
1111001010011011
1111010000000101
1111010011010001
0001000101011110
1111111101000100
0000101101100111
1111010010111101
0000101010011001
0001010110001001
0000011001101110
1111000100011011
1111110001000010
0000100011110011
1111111011000000
0000111110011010
1110100000110111
1111101010100001
0001000101110110
0000110000111110
0000100100010101
0000001101001000
1111000111001001
1111111000010101
1110111010000100
1111101011011010
0001000001111000
0001010110010111
0000100110110111
1111110011110000
1111000000111100
0000000101100111
0000001010010111
0000100010110001
0000111100111011
0000011110001001
1111100011110101
1111001100010111
1111000011001110
1111001101010000
0001000101001111
0000010111011111
1110000110100010
1110000100100010
1111101000111111
0000100000011010
1111111000100001
1111110111010011
1110111110101110
1110110110100111
1111010001101110
0000010011011110
0010110101001000
0000001011000110
1110111010110010
1111000100110110
1111100101100110
1111001011100100
0000010000110011
1110011101110111
1111010110101100
0000010011001011
0001000111111010
1111000101101100
1111000001101010
1111000110110010
0000101011101110
0000100111001000
1111110010011010
0000110000110110
0001100001110001
0001101000000110
0000010101111111
0000001100111101
1111110010101100
0000010000000110
1111111010001100
1110110011011111
1110101010001011
0000110001100010
1110011000100100
1111011001011100
1110010001101001
1111011101010010
1111010001001000
1111110001001001
1111110111100000
0000100100001000
1111100001000001
0000101100100011
1110110001011010
1111010010101100
0000001110100110
1111010100010100
0000001001010110
1111100111101110
0000100101011110
0000100000001100
1110100011000100
1101000011111001
0000011001000111
1111011011101000
0000000001011100
0000000101000010
0000011001011011
0010010000111100
0000001110001111
1111010011011000
0000011100010010
1111101110101001
0000101000110001
1111011110010100
1111010110001101
1111001101100011
0000000001111001
0000111010011111
0001010000000000
1110101011010000
1111110010101001
0000111100101100
1110001011001001
0000110101000100
0000000000101000
1111100100000010
0000000010101011
1110001000110010
0000101110110101
0000011000110100
1111100000111011
0001010010101100
1111111100101001
1111100010110011
0000110101001111
1111011011000001
1111011100001110
0001011110111010
0000011010011101
1111111111011010
0000011000111110
1110001011101111
0000110001000011
0001010000011010
0000010000000011
1111110010001010
1111111001000110
0001101110001011
1111001011001011
0000000100011111
0000101011001000
1110101010010100
0000000111001001
0000001101011110
0000001011100011
0001000011010110
1110101110101011
0000111110111111
1110010110000110
1111100111011101
0000000101010010
0000000101001111
0000000110110011
0000101001011000
1111110011110110
0000101010000101
1111000100111001
1111100011100101
0000110001110101
1110101000100111
0001110110010110
0000011011111110
1111110110111111
1111010100110100
1110110100011001
1110110011000110
1111010001001011
1110110000101011
0000100101110000
0001111100100010
0000000001010110
1111111110100000
1111011001001100
1110110101010001
1110010010001000
0000111100001111
0001000110000110
0000000000110100
1111111111010010
0000111000110110
1111110001110010
0000100100110011
1111111110100010
1111110100100011
1101101111110100
1110010100001111
1111100000101000
1110001011111111
0000111000100011
0000000111111000
0000110111101111
0000110100101111
0000101010101010
1110010111001100
1110101010011001
0000100010100000
1110000110010101
1111101000011011
1110111110001101
1111000011010001
1110110101100001
0001100010110010
1111010111110010
0000100111111010
0000010000101010
0000011010001011
1110101001010011
1110100001110101
0000110001000100
0000100010101010
1111100010000000
0000001001001011
1111010100011001
0000011000000101
1110010010111101
0001110000001100
1111110010110101
0000111011010110
1111010111000101
0000010011111101
1111011101111011
0000101000001001
1111001100110111
0000100011100101
1111110011101001
1111000101100110
0001010001000000
0000100111000110
0010000010000000
0001011001001100
1111001010111111
0001011000101010
0000011011001101
1110001111001100
1111111011001110
1111111011101011
0000111001111101
1111111010111101
0000011110010001
1110111110010100
1110011000110011
0001101110000111
1110111111010001
1111110010011010
0001101001000100
1111011100100101
0000110110110000
0000101110110001
1101111001100110
1111010000001100
1111110101011000
1111110101000001
0000101110000011
1111100110100011
0000001000100011
1111111001010010
1111010100011100
1110101111111110
0000101000001000
1111000000000100
1110111011001011
1110000110101001
1111001000011001
0010011010100101
0001010001111010
0001100111010110
0000101011010000
0000101011011000
1111000000110100
0000110110101001
0001111001000011
0010000000101001
0000111101100101
1111010101101110
0000100100001110
0000000000101001
0000010011010110
0000011010110010
1111111001000011
0000011011010101
1111000101001011
1110001011100011
1110100100001011
1110110000000100
0000001010111001
1111011011000110
1111000001111111
1111100111100010
0001010000010111
0000000100101010
0000100101110000
1111010010011011
0000100011001101
1110100001000011
0000011000011110
0000001101101010
0000100110110111
0000101010101110
1110111010011001
1110110101111011
1110111111000100
0000010000110111
0000011110110101
0000100101000010
0000101010100111
0000100001101001
0001011110011001
1111011011000101
1111100011011111
1111111100111001
0000010110000010
1111101100000011
0000000010110110
1110001111010000
0000001011000000
1111111001111110
1111111000101101
1111011110011001
0000110000110010
0000111100011110
0000101110111110
0000101111001111
1110011111111010
1101111111001110
0000010101100000
1111011000010000
1110010101000110
0000011111010000
0000101001001111
1110100100110001
0000101110110110
1111111101000010
0000100001100000
0001111111011000
0000100110001000
0010001100110100
0001010100111111
0000110001101111
1111001100111010
1110000011101110
0000110011001011
0000000110000110
1110001011100000
0000100111010111
1111100010001111
0000011000111000
1111100010110001
0000010011011111
1111011000000100
1111001011101000
1111000000011010
1111101011001111
1111101011000011
1110111000000100
0010011011111001
1111101000111111
1111011111100001
0000110100110110
0000000101000111
1111001111000010
0001110110101100
1111010000110101
0001110101101001
0010001010010011
1111110100001111
0000011110010001
0000110001101001
0000011000011010
1110111011010001
1110110000010100
1111101101111101
1111000111001011
0000110110110000
1111000101101111
1111010001101010
0000000100111110
1111100011100100
1110100111010001
0000011001101010
0010101001011100
1110110101110101
0000100100000011
1111101001101000
1110000111000100
0000011001011000
0001111000010100
1111000101101110
1111101001011100
1111001011001110
0000010110101001
1111100010001100
0000010000011011
1111000000011110
1111111110111010
1111101100110100
1111110100110101
0001000110101010
1111001110100100
1111111111111001
1110110100001110
0001001011111100
0000110010000010
0000010011111010
1111100011010011
0001101001110100
1111010000101010
1111010010100101
1111101111110001
1111011111101001
0000010100101110
0001001101010001
1101110010011000
1110011100010011
1110111010110110
0000000110110101
0000000100101100
1110100000000010
0001001010100000
0000110010110010
1110011001100110
1111011111001000
0010001000111110
0000101100010111
1111111001010011
1110101100101000
0000110001000000
1111101100100101
1111010111001111
0000000010101111
0000011011110001
1111100001010000
0001011110010101
0001001010110001
1111001001111110
1111001110101101
1111001001010011
0010001000011101
0000100001010011
1101011001000101
1111001011011010
1111110000001111
1101101010011000
1111100111110100
1110100010000010
0000100101101111
1111001110000011
1111000101101011
0000000111111010
1110101110110010
0001010100111100
1111001000111101
1110011011111011
0000001100101001
1111111000001110
0000001010010000
1111111001011011
0001001000010100
0000110010010010
1111010110111011
1111110010000101
1111100111011000
0000101111001110
1111100001111100
0001100110010011
1111110010110111
0000100010111111
0000100111010100
0000011000000111
0000010001011010
0000100010100010
0000100101000110
0000000001011010
1110101010100011
1111101001100111
1110110001010011
1111011010000000
0000001000111110
0000001100101011
0001001010011111
0000101101011000
1111000011100101
0010001000011111
0001000100100010
1110000110010001
0000010110011100
0000101111001110
0000010100100101
0000000011001110
1110111111100010
1110100111101000
0000100111001111
0001100110011101
0000110101001000
0000000001111100
0000010100000101
1111111001000111
0000101001111001
0000110101101100
0000000111000000
0001100110010000
0000010101101000
0001000101001100
0000001101010010
0000000011001101
0000000001101101
1101000010110010
1111111110010101
0001000111001011
1111101011100110
1110110101110010
0000110011110000
1110010011001001
0000000111100000
0000101011011011
0001111010000100
0000000000011101
1110111001001000
1110000111111011
0000111001101000
1111100111000000
0001001001000001
0000011101011001
1111010010110000
0000001110010010
1110100110101001
0010000101011000
1111001100011010
1111110000011101
1111110010100110
1111110001101011
1111111101110001
0000001110110101
1111110110000001
1101110111111000
0000110100010001
0001101111001011
0000010000101101
0001001000111000
0000101100000100
1111011010001010
1110100011111010
1111001000110110
1111001010011010
0000011000010010
1111111011000100
1111011110011111
0000011111010110
1110110101111100
0000001110100101
1111010111000101
1110011101000110
1110010111101010
0001001010101011
1110110101110010
1110101011101101
0000111011010010
0000000100101110
0010001100111001
0000100000010111
0001001010000100
1110010110010101
1111010001100110
1111111011011101
1110011110001011
0001011101001111
1110111100000110
0010010100101011
1111110001111110
1111101010100001
1101110001101110
1111010000101011
1110111101010110
0000011011001011
0000000111000001
0000000001100110
1111001111100011
0000111000001100
0000001110111101
1110101001111010
1111001000011100
0000110111100010
0000000111101110
0000101010111100
0000101011100011
0001000010000111
1111111110010100
1111100100111100
1111000001101000
1111101000010101
0000000111110001
1101101111101110
1111111110001111
0000010000001100
0001001011000000
0000011000010100
1110101101111000
0001000011001010
0000011111111110
0000001001000100
0000001111001111
0000011110101110
0001000011110110
1111011010010100
1111011100111101
1111011010001001
0000011111101011
0001001010010010
0001100000001001
0000101110101100
1110011001111110
1111101111110110
1110110010100110
1111001100010101
1111101000110110
1111110110010111
1111001101111111
1111010100001010
1110111100110001
1110000110101010
0000000001111110
1111110000010000
1111111111100101
0000000011000101
1111011101101111
1111101100110111
0000000011110110
0001000000110000
0001101010010010
1110100010100110
1111101000010001
1111111100100110
0000101010110000
1111101110101000
0000010010100001
1111111101100110
1110110011010010
0000000111011111
0000000101010000
0000000100000000
0000111011001010
0010010101000100
0000111101110001
0010010000011111
1111010011011010
1111011011101100
0010001001010010
1110100011100110
0001001101111100
0000100011110101
0000100111001111
1111011010011010
0001001110010101
0001011000010010
0000111110100000
0010001011101010
0000010111011001
1111010010010000
0000000100010000
0000011100101100
1111001111010111
0001001110101110
0000011000001011
0000101000110001
1110100111110100
0001010111110100
1111111001110111
0000101010110100
1111010011100110
1101111001100111
0000100110100100
1110010101100010
1111000100100101
1111001110100100
1111010101100000
1111101010010000
0001101100011011
1111110110100000
1111110010101100
0000000001011001
1111010101011000
0000111001110101
1111001011100010
0000000100110010
0000001000110001
1111111111101111
0000111011101100
1111001001011100
0001110010010100
0000001000000010
1111011111011111
1110111110001100
1101011010110101
0001000000011110
1111110111111010
0000010001011110
10000000000000000
0000011100010010
1111101111110001
1110111011001011
1111011010011010
0000111001011011
1110100101001100
1111100101111110
0001110001101000
1110110101110001
0000101101010110
1111111011011111
1101101011101000
0000101001001001
1111000001101000
1111110011000000
1110011101000011
1111001101010011
1111010111011110
0001001101100101
0000011001000010
1111001100001100
0001101001001010
0001101111000000
1110000101000110
1110111000001010
1111000000110110
0000101111100000
1101111011100001
0000100010110011
1111001000011011
0000000000011001
0000110100011111
0001001001111101
1111011011011001
0000010000001100
0001011010100011
0000111101100000
1111010101111010
1110111111010111
0000000001001110
1110111101100000
1111011001001011
1111001111100011
0000000101110000
1111110101101010
0000101101001100
0001111001100111
1111110110000000
1111100110001101
0001011010000000
0001110011111010
0000101010111000
1111111110110100
1111111010111100
0001010010101100
1111110000011011
0000010100000011
0000110100111110
1110111110111001
1111001101001010
0001000000110101
0000010100110000
0000101100011011
1110111001010000
0000011101111111
0001010011000101
0000011110000100
1111110111110110
0000110101010101
0001101100101101
1110000110000100
1111110011000000
1110101110010101
1110010010010110
1111000101100111
1111000010110110
1111101100111101
0000010001110110
