1111010110011000
0000010001101100
1111011000000111
0000000001000110
0000011100001100
1111111011011111
0000101011100000
1111100100001010
0000100010010110
0000001100101011
1111110010110110
1111101111100000
0000100100000010
0000110100010010
0001000001000011
1111100111001110
1111100101011101
0000011100100111
1110110110011001
0000111101100000
0000001000000100
0000001010011100
0000000000011111
1111110100111101
0000011000110111
0000000001010100
0000001010111001
0000111001101110
0001000001001110
1111001110010000
1111110010101001
1111110111110101
0000111100010011
1111110011011111
1111010011101000
0000000001100001
1111111010111001
0000011101011110
0000011101110001
0000001110101010
0000001001001010
0000100010100111
0000010110110111
0000001000111011
1111110001110101
1111101010111100
1111110001110100
0000001100011111
1111101101111010
1111111000011011
0000000001010101
1111110101111001
1111011001001110
0000001101001001
1111110101010000
0001000101001110
1111110110110111
0000011001011001
0000101011011000
1111111001111011
0000110101010100
1111011010100010
0000110001001101
0001000111101010
0000010110111011
1111110111100001
1111100100110110
0000101001101001
0000011011101000
1111010010111011
1111111110110001
1111001001010100
0000010001010000
1111111100101001
1111010011011001
0000001110000111
0000100000101111
1111010010000000
1111100111111001
1111000101011111
0000000011010010
0000001111100011
1111110011100110
1111101100100110
1111100100100101
0000010111110111
0000001100010100
0000101010101001
1111101000100101
1111111100001010
1111110010011011
1111111110000011
1111011101100110
0000111001111000
1111111110111011
1111000110010010
0000010101000010
0000100101000101
0000011001000101
0000100001001001
0000101010011110
0001000010100100
0000001110001001
0001000011100000
0000100010101110
0000000101011110
1111010110110110
0000100001110110
0000010111111110
1111010100101010
0001001100010000
1111100011100111
0000100001001000
1111010000011011
0000000101101011
0000001000111000
1111010011100111
0000001100110001
1111011010100111
1111100000110101
1111100101101000
1111011101101111
1111011011001110
1111111001000011
1111100011000001
1111110100011110
1111110111010001
0000101111111000
0000010111010100
0000101000011000
0000100100000011
0000100011101110
0000110011011110
0000001011001110
0000011010001011
0000101011010000
1111000101011011
1111100110100000
1111010101000110
0000010001100011
0000101101000111
0000001101000000
1111111111111000
1111111100010010
0000000011011000
1111101001011010
0000010101101001
0000000101001101
0000101111101010
1111000001010110
1111110011011010
1111000110101010
1111011001100010
1110100011011010
1111100111101100
1111101110101010
1111100101001110
0000010100100110
1111110000010100
0000000101110111
0000000111011101
0000100000011001
0000010101001101
0000010001111011
0000001000001100
0000010010010101
1110111101101110
0000010001111011
1111101110001101
0000101000101100
1111010110110101
1111101101101100
1111101010000110
0000000100000111
1111110100100011
0000010000000010
1111010011100111
1111101000100101
1111010001001111
1111011111100000
1111000010111101
1111011011111101
1110000001101000
1110111110010110
1110100011001010
1111011010001001
1111000011111011
1111101001011111
1111110110011001
0000000001010001
0000100000101010
0000101111011110
0000100110010001
1111010111001010
0000000011100111
1110101110101010
0000001001101101
1111101100001001
0000001111111111
0000000010111000
0000111010110000
1111110010001111
1111110010110010
0001010101000010
1111001010010010
1111011010011110
1110100100001111
1110110011100001
1110000111010011
1110010101000011
1110111100000001
1110110001011110
1110001101000001
1111000101011011
1111000011101110
1110111001000100
1110111010110000
1110011111001011
0000100000001100
0000000000101010
0000000100011000
1111110000110110
1111110010000011
1111101110011101
0000000110000000
1111111100000101
1111111100010010
0000011000000101
0000000000001011
1111101011001101
1111110010000011
1111011010000010
1111111010101010
0000011011010100
1111001001010100
1110101101000111
1110101101101100
1111001000000001
1101011011111000
1111001001110100
1110010111010101
1110110001010100
1111000100100111
1111010010100001
1111101110101000
1111011100101100
1111001011111110
0000011101010111
0000101011010100
0000011111101111
0000001001100011
1111110001011000
1111110110011000
0000110000110110
0000001011011100
1111010001001100
0000000001010011
1111110011010110
1111011011101111
1110110100111010
1111100001110101
1111010010010000
1111010011111101
1111000011010111
1111010111110000
1111100010000010
1110011110000100
1110011001001101
1111010010111001
1111101010110011
1111010010001110
1111010101000001
1111110010001010
0000010111110001
1111111111010011
0000010011100011
1111110101011001
0001000111110000
0000001000000100
1111110001001110
1111010010001101
0000100101111011
1111010000001101
1111001110001000
1111111001011011
0000010010010001
1111010011001001
0000010011101100
1111111001011111
0000001000001000
0000010011011100
0000001100010011
1111010011110011
1110100111011001
1110101111000010
1111111101011010
0000110001100001
1111111001001100
0001000111100011
1111111001100101
1111111010100100
0000101010010111
1111100011000001
0000000010010001
1110111100000001
0000100000101011
0000010101111000
0000010010110100
0000011110000000
0000101001010110
1111111011101111
0000010001100001
1111011000010101
1111000000100000
1111000001101110
1111110100011100
0000000101010101
0000110001111010
0000100010110010
0000000011111110
0001000101111001
1111101001000100
1111010110000001
0000001001011100
0000011111010111
1111101111000001
1111001010011001
1111111000110010
1111001010100010
1111000001110100
0000001000010111
1111010100000001
1111010101001000
0000011011001100
1111101011101011
1111101101100010
0000011110100111
1111011011111100
0000011110101000
0001000001111111
0000011110110000
0000000011110110
0000010011111111
1111110101010001
0000100101001001
0000100011100010
0000100000101001
0001010010000000
0000110110000000
0000111101101111
1111111110001111
0000011111111010
0000011011111011
1111100110001010
1111011101001100
1111100011110110
1111010000101011
1111010111010000
1111110001110110
1111100001011001
1111101010100111
0000001111100100
0000011011001001
1111010000111100
0000010101000001
1111011110100000
1111110010110100
1111111011100110
0000000100101110
0000100101010011
0001001001110000
0000001000100100
0000010110111011
0000101001101011
0000111001001000
0001000001000111
0010001000100101
1111101101110101
1111010001001011
1111110000001010
1111100001111110
0000011000110110
0000011111100110
1111111010001011
1111100011110011
1111110101001011
0000100011100001
0000010111011111
0001011100011011
0000110110011100
1111010111110110
0000001001101101
0000000001111110
0000001111100010
1111111110111011
1111110000101100
0000101011110100
0000001010001001
0001010000010100
0001000100100010
0000100000000001
0001001000000100
0000100101001011
0001100011101010
0000111011101010
1111100000100001
0000000111000100
1111100101000100
0000010011100001
1111111100010010
0000011111001001
0000000111010101
0001010010101011
0000010010100100
0001000001100101
0000111110111000
1111100000010001
0000001110011000
1111110100110101
1111011011101111
1111110101011101
0000010000100001
0000110100100100
0000001100000011
0000011111011101
1111111100101100
0000101100100011
0000110100110010
0000100010011001
0000011111101010
0000011001110011
0000110000110101
0000100101111010
0000010010100110
0000001111011000
0000110111011111
0000011010001110
0000111001011101
0000010111100010
0000011111010011
0000010100010100
0000101100010100
0001001111000001
0000011011110111
0000001111101110
0000000001111110
1111101110000100
1111111001001000
0000111101111010
1111011110000100
1111100011100011
0001000100110010
0000011111010001
0001000101000001
1111111001101000
0000010101000000
0000011110010000
0000100100010111
1111111010010101
0000010101001001
0000011010110000
0000010011000100
0001000110001101
0000100010100110
0001000100110010
1111100110110010
0000011000100011
0000001011101100
0000101111010001
0000011001000001
1111111100010100
0000001111011010
0000010111110000
0000011111000110
1111110100001110
0000001000001100
1111110011011111
1111110100001000
0000010111000011
1111111011000011
1111111011101111
0000000011111000
0000010001000011
0000111000010000
0000100110101110
1111110010000010
0000100010101101
0000000101011101
0000000000011111
0000101110000111
0000111100110110
0000111000101101
0000000000010100
0000100111100001
0000011110110100
0000001000101111
0000011001101011
1111111001101101
0000001101001010
0000000111001110
1111110010001011
0000100011101000
0000110110110011
1111101111110000
0000010100111110
0000010101101001
0000010100001000
0001001101111001
1111010101001101
0000100001000011
1111100011000000
0000100010100100
0000001111100100
1111101101101110
0000000110001110
1111110100101011
0001000011010010
0000001101011100
0000110111001101
0000010110000000
0000100101001110
0000010001000100
0000001101010010
1111111111101011
0000011110101010
1111110101110010
1111110101101010
0000101110101010
1111001001010011
0000011010001100
0000010001000100
0000011110001110
1111110110101001
0000111011011111
1111101100001001
0000000001111101
0000011011101101
0000110010110011
0000010000001011
0000000100101010
0000000010111010
1111010100011101
0001000001001101
1111111110110011
0000101010010011
0000001001110001
1111110011001010
0000000111000100
0000100101000110
1111101111111001
1111010011011011
1111100011100000
1111110100101110
0000000011100110
1111011011111010
0000001100000000
0000000101011111
1111100101111011
0000011010001111
0000010101011100
0000000000011111
0000100111011111
1111001101001100
0000010010111011
1111101000101000
1111101100111100
0000010111011000
1111010100110001
1111011111001111
1111100110110101
0000000100111111
0000100000000100
0000101110000100
0000010011101100
0000011011110000
0000010010100010
1111100100111000
0000000111010000
0000010011110011
1111111000010100
1111001110010000
1110110011001110
1111010000111001
0000101011100011
1111111000100101
1111010111101101
1111111001100111
0000100001110101
0000011111101111
1111110100011100
1111011101001111
1111011110011001
0000000110110001
1111000011111110
1111011010011111
1111100011000111
1111001001001001
1111111111001000
0000000001111011
0000110001010010
1111101100110110
0000000101111001
0000001111110000
1111111011100000
0000011100110100
0000101011111011
0000010110111011
1111011001001111
1111111000101101
1111001011111111
1111011110111111
1111100001001101
1111101011011011
0000101101101100
0000101101100011
1111111110000101
1111101101011101
0000000010111111
1111001010100101
0000001010110001
0000010101110101
1111000010100010
1110011101110010
1111101011010001
1111000111000010
1111100100111011
0000000100101011
0000000000100001
0000010100000110
0000101100010101
1111110110011000
0000011000110011
1111100110010111
1111101101110001
0000010001110100
1111100010110010
0000000011011011
0000100100111111
1111001000100011
1111010010110110
1111111110001001
1111101010011011
0000111000101111
1111110011010000
1111101110010000
0000000110100111
0000011111011011
1111101111111011
0000100110001011
1111100001111010
1111010111110101
1111110101101010
1111001010010101
1111011010111101
1111100011110100
1111101111011001
1111111011100110
1111010000110100
1111110000010000
0000011000000100
1111100110011001
0000010111100010
0000010000000000
1111011010101010
1111100010000110
1111110101100000
1110111010010101
1111010101010010
0000110000100011
0000000111111011
1111101111000010
0000001000101010
0001010000001011
0000011110001110
0000100100011000
1111001000111011
0000100110101100
0000111100000110
1111111010001011
1111001101100101
1111001001101101
1111011011000000
1111100001110111
1111011010101001
1111010100000110
0000010000101101
1111001011010111
1111011100010001
0000000000011010
1111101100010010
0000011100010101
0000001100010011
1111111011101011
0000000111000011
1111101101010101
1111011011100110
0000000011111000
1111100001001101
1111101001101101
0000010100010110
1111110100000111
0001000010000110
0000001010010101
0000110000100100
1111101010011010
1111111111100101
1111111100010011
1111111110110100
1110111000010111
1111000111100001
1110110011101100
1111010001011010
1111000110111110
1110111111110110
1111110001100100
1111011101111110
1111010001111101
1110111000100111
1110101110111010
1111000000101011
1110101011011111
1111110000110000
1111111100011111
1111100111100100
0000000011001000
0000000011001100
1111011010100010
1111110001101010
1111110100100100
0000000101011110
1111101110111001
1111011111111011
0000011101001111
0000000010110000
0000100010100111
0000000101101110
1111010111001010
1111001011110110
1111011010001101
1111100001110110
1111101010100100
1110101001000000
1111011100001011
1110111110010110
1111101101001100
1111100100010111
1111000010011000
0000010110001111
1111100100110010
1111110101011000
1111111101111011
1110010111010101
0000001100110010
1111101100011111
0000011001110101
0001001010001001
0000101111000011
0000011110011110
0000000111110000
0000011000111100
0000010011111001
0000000110100111
1111111100011010
1111001111111110
0000000010001101
1111010110100000
1111110011101101
1111101111001110
1111011100001100
1111101011010011
1111111000001001
0000000001111000
0000001011101010
0000000101110001
0000101111101111
1111111001011111
0000100101011110
1110011001110100
1111110100111100
0000011011011111
0000010001011111
1111110101110000
1110111110011001
0000010010101001
