0000011100111000
1111000110001001
1111111110101100
1110101001111111
1110110010010111
1111001101100110
0001001101010001
1111110100011011
1111101101011000
0001001100010111
0001001101001111
1110101011011111
1110000101010110
0001000000100100
0000100011101101
0000010100010011
1111000011110001
0001000000011000
0000111111000000
0000001000000111
0001110110110100
1111101100011110
1111100011111011
1111110011001110
0001001100100010
0000010011101010
0000110011101010
1111100110110111
1111110000101011
1111111000100010
1111100100100101
0000111111110000
1111110101110111
0001011110100001
1101100000110011
1111101101101111
1111100101100001
0000100110101100
0000101111000001
0001110000010111
1110011110101001
1111101110001000
1111100001100001
1111100100111101
0001011111000000
0000000010100100
1110011010001101
1110001001111110
0000100100010001
1111000001111001
1101010110001101
1111110001110110
0001011001001111
0000011001001011
0000001111100101
1111100011000000
0001010001011101
1110001001101010
0000001111101101
0000111001110100
1101100010001100
1110010001100010
0000010101101111
1111110001010101
0010101110110100
0001000100010001
0001100111011011
1111101011011100
1111100011110010
0000110110001111
0001010001010011
0000011001000111
1111110100010011
1111011000111100
1110110101100101
1101111010101010
0000110101101010
1111001000100001
0001000010111010
0001000001111000
0000101101010011
0000100110001000
1110101011100111
0000101110100110
1111001100010111
0010010000111011
1110000000011001
0000010001101010
1110101111100101
0000010111101110
0001001101100011
1111110110000001
0000010000100110
1111100111111111
0001000100110100
1110101100011111
0000010111111011
1110100111100001
0000001110010111
1111110001000010
1111101010010000
1111111110111111
1111101010110111
1111101111100100
0001011101000000
0000011010001101
1111110001110001
1111110010110001
0000101001101101
0001001011100110
0000000101010111
0001011010101000
0000101001110101
0001010100100111
1111101010101011
0000001110011011
1111001001011110
0000011100111010
1110101100100100
1111100001110001
0000001101011010
0000101100011011
1110110101000110
0000011011101011
1110011110111111
0000111111011101
0000010111101100
1111011110010101
0000101011000100
0000100101111100
1111110010110001
1110001010010000
0000011010011011
0010100100010010
1111011110100100
1111101100101110
1111100001001110
0000111111100101
1111101101111101
0000100000000001
1111101011001101
1111001001010001
0000100100010110
1111000110000010
0000100011101010
0000100001111101
1111100000110001
1111001010001010
1110111110011011
0001100111000110
1111111011000111
1111010111011010
0000110100111101
0000000111111110
0000111100000011
1111101111101001
1111100010000111
1111000111001111
0001110001001011
1111110100110010
0000011000101111
1111110000001001
1110000000100010
0000100010111000
1110011001100110
1111010011110010
1101101110100001
1111110110001111
0001000100011110
0000100010011110
0010001010110111
1111011001000000
1110010010011010
1111001111110000
0000011001111001
1111101101101111
0000010000111100
1111011101010010
1111100010101001
0000101100101000
0000011010010101
1110100010110101
0001011100101011
1111000000011000
0000000010000100
1111111011100111
1111000111010100
1110011000101000
1111100011010001
1111100100011111
1111100010111000
1111101101001010
1111010110010111
1111001011111101
1110110001000111
0000100111100011
0000100100110000
1110100110010111
0010100100111101
1111010000111101
1111010111110110
1110111101111100
1110110010000100
1110001011011110
1111010101100101
1110111000100010
0000011110010010
1111011001100110
1111000110110011
0000001000100101
1111001011001101
1111100111001101
0000001101111011
0000100110101110
1111011011111110
1111011000010111
1111100101011000
1111001010001000
0001000001010011
1111001101001001
1110010111101110
1110010110100110
0000010100010110
1111101010000100
1111011000001011
1111101011101101
1111101011000111
0000100100110001
1111011101000110
1110101100011010
1111010000001011
1111010100101010
1111011010111110
0000000010000101
1110111101011100
0000001011101010
1111011110000111
0001001100101110
1111100101101111
1111110100001101
1110101111110000
1110110101100001
0000010111000110
1111101110101100
1111000111100111
0000100000101001
1111000111111011
1111110101110001
1101100111100110
1110011010101001
0001110011000100
0000000011010110
0001000000100100
0000000000110100
0001001100100001
0000111110001011
0000101111001011
1111101001100001
0000010111101000
0001100000101000
1110011110000001
0000110110101001
0001100010000111
1111001010101001
0001001001110111
1111100100011000
1111110101110010
0000011101111101
1111001110000001
1111010100100000
1111100000010000
1110110010111110
1111100001100011
1101111111001010
1111101111000000
0000010001011100
1101010010111101
1111000000001001
1111011110001000
0001001010100100
1111101001001100
0000001100111111
1110010100010011
0000000001001000
1101100001110111
0000010111111100
0000111001110110
1111110101101011
0000110010000010
1111011101110110
0000101001110100
0001011000101000
0000001111001011
1111101110000010
0000110000011011
1111100011100001
1111111001000110
1101111010011110
1111011101011000
0000100110011111
0001001100101001
1110010100111101
0000110010101100
1111110011011100
0000100111110011
1111100111100011
1111101001101001
1111111101000010
1111111010011111
1110111010100000
0000000010110010
0000010010110111
1111110110110001
0001011110101000
0001110111000001
1111110101101110
0001100000101110
0001100010001101
0000111100010010
0000100000011010
0000100010101010
0000110111010110
0000101001110010
0000000111001011
0001000001010111
0001110010011001
1111000010110000
1111111011111101
0010011011010100
0001100111110100
0000101011111111
0001101111010001
1110011010101011
0000100001101001
1111101110011001
0000011010011000
0000101010100101
0000010001000011
1111110110010110
1111110100001010
1111010010010110
0000001101111111
0000010000001010
0000000001010000
0001001101001100
1111111100111110
1110101111011011
1110111011111011
1110111010111000
0000010011110101
0001000001110010
0001110000101000
0000101100011101
0000000100100100
1111111010011100
1111111011001001
0000011100000011
0000110100000000
0000111011000010
0001001011011100
0000010110111111
1111100101011111
1111101010000111
0000001100110110
0001000001110101
1110010101110100
1110010110010111
1111111111001100
0000111001111111
1110110111000101
1110111111111100
0000011101110100
0000101110000101
0000011010110000
0000011100100110
0010100010111111
1110011111111101
0000101000000011
0000000010011000
0001000100011000
0000100000101110
0001100110100010
1110000011010000
1111001010100101
0000111100100011
0000000111011101
1111110100001000
0000100011110001
1111101100001110
0000000010110011
1111001001010101
1111011101010100
1111101111000010
0000000100110011
0000001001001111
1111011000011011
0000110100010010
1111111011101000
1110101111001101
1110001100101000
1111101000000101
0000101011001110
1111010111000110
1111110000111101
0000000111101100
0001100111001011
1111111000001010
0001011100101011
0000101001011111
0010010100010010
1111110111010101
1111010010100100
1101101101110010
1110001011100101
1110011010100000
1110011101100011
1111101101001110
0001000101110110
0000011101111000
1111110111101111
1110110010000110
1110111111011101
0000001101110101
1111110000100111
1111110101101001
1111110111011000
1111000101100010
1111110000001011
1111111011000101
1110011000000010
0000111101001001
0000000010010011
0000011101110110
0000010111010111
0001011011000110
0001011011100000
0010000111101001
1111010111011100
1111011100001010
1101011001100001
1110001011100011
1100110001001001
1101011001111000
1110010000000000
1111010111101110
0001001100100100
1111100111100110
1111011100011111
1111110011000100
1110011110011111
1110110000001110
0000100101110001
1111000000101100
1110111010010110
1111000111011110
1111100101111000
0000000010110100
0001010011011101
1111111111101100
1111111010111100
1110110010111010
0001010100101011
0000110111011111
0001100111110110
0001110101000101
1111010110000000
1101110110000100
1101101000110001
0000010011001101
1110101011001111
1111010010110100
0000011111000000
0000001011011010
0000010011000110
0001011111000011
0001000000011110
1110111010001111
1111101000000000
1111010101000100
1111100110110101
1111101001101100
1110111000001101
1111001011100001
0001111100000000
0001100101001101
0010010011001101
0011110011010110
0010101001100011
0001011001000010
0001011111110101
0100111010010111
0000001011100000
1111010010000110
1110101101100010
1110100011110100
1110011101010010
1101011110100011
1111100100011100
1101100101100111
0001000111010110
0000000011001101
0001010001000011
1111111111000101
1111110111100101
1111110001111110
1111100111011001
0000100001100010
0000011001111110
1111100011001111
1111000000001000
0000100110111110
0000110011010110
0000101111010000
0001000001110100
0010100100111111
0011000010110010
0100010001000011
0001001001110000
0000010000000001
1110010110000010
1101110010111011
1110101001101111
1110111010010001
0000001011010010
1110100000000001
0000000110101101
1111101110000111
1111110111000100
0001011001001111
0001011111111101
1110101100110011
1111100111000100
0000111111111001
1111001001011110
0000100100010111
0000000001110100
1110100011000110
1101010101001001
1111111001100010
1111010010111111
0000001001010010
0000100000011111
0010100111111000
0000011000010100
0010001000010101
0010001101000000
0000001101111101
1101101111110111
1111111110100000
1110100110000011
1111000011010100
0000110001001010
0000001100000111
0000010110101101
0001100000100011
0001000100111000
0000001010000111
1111110000110111
1111110010000011
0000101011010101
0000010011000110
0000100101101110
1110111001100111
1110011110001111
0000011011000011
1101010010000011
1111111101010100
0001001100010010
1111101000101000
1111101101101010
1110100010010101
0000100000010111
1111010001011011
1111000001100000
0000000100001001
1110001100011101
1111110110000101
0000000011001010
1111100010011111
1111011111011100
0000011100011001
0000101000101000
1111111001110111
1111100011011011
0001110011001110
0000010101100001
0001010110110111
0000111010101100
0000100011101101
0000000110001000
1110100100111011
0001001110010001
1110111100111111
1110011100101101
1111010100000011
1111110101011101
1110001011110101
1111110100100100
0000110111101011
1101101101111001
0000011000110010
1111111001110011
0000100011011000
1101101100011000
0000000010010011
0000000100010001
1111111101100100
0000000001001101
1101110110000100
0000101110100100
1111111101101011
1111000111100111
0000010011010011
0000011101010000
0000000111011111
1111110110011101
0001101001100111
1110111101011100
1111001001001000
1111100100010010
0001100010101000
1111001111110100
0000101011001101
0000010000100101
0000011111011101
0001000110111001
0000000000010001
0000101011001011
1111001100011010
1110011011011101
1110111010011000
0000001100011000
1110111001111110
0000001000001100
0000011000010111
0000011011000010
1111100101000011
0001001010101110
0000010011111100
1111111100100111
0001110010111011
1110111111010010
1111101110110100
0000110101011111
0000010100001000
1101100110001001
0000010100100011
1110100101010110
1111100000111001
1110001010010110
1111101101101111
1111011110101110
1110011001000010
0001010011000111
1110111010011010
1111010011111001
0000001011011011
0000011110100001
1110011111000110
1110100101111010
1111101100000100
1111100000101000
0000100101110010
0001100000111110
1110110100100011
0000001001000010
0001101110111100
1111111001111100
1111100010001010
0000100010000010
1111101110000111
1111101101111111
0001000011011010
0000010011011001
1111100001101110
0000111010110010
1111111111000000
1111111011000101
0000001011101110
1110100000010000
1111111110000111
1111000101001101
1110010100011010
1111011110100110
1111101010010101
0000100011110100
1111001001100000
1110100101101000
1111101111010000
0000010100100010
0001101000011010
0001011001001001
0000111110011011
1111110111010110
1110110000100111
1111100111010000
1110001001001001
0000101100011000
1111001100010010
1111000110011011
0000110001101100
0000101110111001
1111101111110001
1110110010111110
1111111111010101
0000010000110100
1110111111000101
0000110100101110
1111100111110010
1111001000111000
0000100111010010
1111100101010110
1111000010000101
1110111111011000
1110110101100010
0000011110000110
1111100111010011
0001010011010110
1111001001111100
1111010101101000
1111111100100110
0000001101010111
1111101110000111
0001000001101100
1111110011010111
0000110100101011
1110100011010101
1111101010000101
1110100000111011
1111111110100001
1111111100100011
0000100010000010
1111111000000000
1111100011100100
0000010010010101
1111110111101110
1111001010010011
1111100001001110
1111101000110010
0001101000111101
0000100000000100
1111110110010001
1111001010010100
0000100100100001
1111011101100000
0000100101000100
1110110101101111
0001111011110001
0001000000000100
1111101011010011
1111110101011001
1111101111101100
0000111111000011
0000001011101110
1111000100011110
1110110010001001
1111111101110001
1111100011110111
1111011111011001
1111011100011100
1111110011111111
1111001001010010
1111010000001011
0000000011101001
1111101011010111
1111100001001110
1111011010001000
1111001110001101
0000111111010011
0000111010100001
0000010101000110
0001001000010110
1111110011001000
0001010100011111
1111111010101000
1111010010111010
0000001001000110
0000111010111100
0000000000001111
1110011110010000
1110110000111011
0010000010100100
1110111110101011
1110111110110001
