0000000100100000
1111001010101110
1111100001100001
0000110110110011
0000010101111000
0000101000111110
1111011001010111
0000001000111101
0000100010011001
1111001111000101
1111110011101110
1111001001001011
1111011100011001
0001000001001010
1111100100011100
1110011001110110
1111110111010110
1110000001100100
0000011001101011
1111110001000000
0000101110110101
1110101100010110
0001100011010100
1110000100100110
0000110111001001
1111100010001010
0000001101010001
1110110100111001
1111111000001101
0000001010001100
1111011110001000
0000010101011000
0000100111100110
1111001101001011
1110100101010110
1111010011110110
0000100010010011
1111010010110100
0000011000111010
0010001100111111
0000001011100111
0000111110001101
0000001000010000
1110000100101110
0000011100010110
1110011001000101
1111010000111101
1110001010011001
1111110101100001
1111010001000011
0000010010000011
0001010111100110
1110111011011110
0001011101000110
1111100011000001
0001010110001001
0000111000111100
0000100011010011
0000001101001100
1111011001001001
0001101011010011
0000001101000000
1110010111111111
0001100011011011
0000001000010001
0000101000110111
0000011010111010
0000100010010011
0010110101001011
1111000011011010
1110001010010101
1111100100010010
1111111001011010
1111001101111111
0000010001001010
1110100111011000
1111110100100010
0000011001000011
1110110101001000
1110010111011101
1111111011101010
0000001101001100
0000100110011000
1111111011011000
1111001110010101
0001011110111111
1111110010001111
1111010110110101
0000010100000111
1111010011100100
0000001101000010
1111110101101011
1111000100110110
0000100110011111
1110111001010001
1110100001101010
1111010110111001
1111101011011001
0000111011101100
0000111110111110
0000011110111101
0000000001100100
1111110011100010
1110100101001010
0001010101000100
1111110000010110
0001010011101010
1111110011101110
0000001100110000
0000000101010000
1111001010000110
0001000111010111
1111111111111100
0000110011000111
0000010111101110
1111011100001111
1110101101010001
0000011110111000
1111011110011110
0000010110011100
0000000100010011
0000100000110010
1110111111011110
0000000010101100
0001011111001011
0000010100001001
0000011000111011
0001101000100100
1111101111011111
1111010101111101
1111100101000000
0000100110001011
0000110000001110
1110110101001010
0000000100100010
1111100111001100
0010000110010011
0001101001000110
0000010110101110
0001010100010010
1111001100110011
1110010001111111
0000100001111011
1111101101011011
1111100100111011
1111001110111111
0001001000001101
1111011010011111
0000010010110101
0000000100110111
1111000101010100
1111100010111010
1111110010011110
1111001000101101
1111011001010111
0000010010000100
0001101001111011
1111100000111010
0000011011011111
0000011101000111
1111001000010000
0001011011010110
1111110011111010
0000100010101010
0001100110010000
0001100010010010
0000010100100101
1111110011101100
1110110101000010
1111110010011101
1110011001011110
1110111111101011
0011011010001101
0000011011000101
1110100100110111
0000011011010000
1111001011010110
1111100000111011
0000101110111010
0001000000100010
1111110111010110
0000001111111110
0001001101101111
1111101101110111
1110111101010011
0010000000000010
0000101100111011
0001011101011100
1110100100100000
0000010111110000
0000001001101011
0000111101100111
0000011101011011
0001100010001101
0000100110000101
1111011000111000
1111101000011000
0000001110001111
1111011110111000
0010101110111011
0001000010001101
0001010110011010
0000001100011011
1111011100110000
0001001010000110
1111000111001001
1111000111100000
1110111110010000
0000100110101011
0000001001001111
0000011000011110
1110001000101100
0001110001101100
1111110110001111
1111011101101011
0000000011101011
1111011110000011
0000111000100110
1111110010110010
1111000100001000
0000000001111000
1111001010011100
0001011111011101
1111111011011111
1110100100110001
0001011001100101
1111110011101100
0000010110000100
0000011000001001
0000001100111111
0000111100010101
0001101011011010
1111100111011110
0001101101101010
1110000110110111
1111111100001100
1110100110101010
0001000100000110
0000010101110110
1111001000100101
1111010010111011
1111010100100000
1110100000010000
1110111001100111
0001000010011111
0000000000011000
1110110111111000
1110111101111100
0000011100000010
0000110111101110
1110001000100010
1111000100101010
1111111100000111
1111000001111010
0001000110100110
0000100110001010
0000000100001100
1111111111101101
1111110001101111
1110101010110000
0000101011010000
0000100111010011
0000000011101011
0001011010000001
0000011110011011
1111111010100110
1101100011100100
1110111010011001
1111110010001101
0000010000101100
0000010110100011
1111100101010110
1111110001011101
0000000000001101
1111001100000111
0001010111011110
1111100001001100
0001011110101011
1111111000011011
1111110101101111
1111101011011001
1101100110000111
0001000001001000
1111111110110100
0001011001101111
1110101010000101
1111100111001111
0001010100001010
1111011010000110
0000110011011110
1110000001010011
1111001000000101
1111110111010100
0000010101101010
0000110101110010
1111101001111001
0001111101111001
0000101111011110
1101111110000000
1110111000001010
1111110001010010
1111111010110101
1111111110000001
1111001000111110
1111001111111101
0000101100000110
1110010101010011
1111101110111101
0000111100000011
0000000011101010
1111011001000110
1111000101110100
1110101111110111
1111011010100110
1111010011010010
0000011101000011
1110011001110111
1100100010000010
0000001001010011
1111000101100000
1111101101100111
0000000101001000
1111010001100001
0001011101110010
1111110010010010
0000101000010100
0000111010101000
0000010001100110
1111100001101001
1111110111110110
0000001110100101
0000011111111000
0000000010101110
1110011010110101
0000011001111001
1111110101111001
1111001100010110
1111111000010011
1111110100110110
0000101001111010
0000011010011110
1111011101011111
0000001101101110
1110010111001000
0000000001001111
0000100111011100
0010000110011000
1110110101111000
1111001000111101
1111101010101110
0001011010010110
1111110000101000
1111000011010010
1111101000011111
1111110011010101
1101010011000000
1111101101010101
0001000001100001
1110010110101100
0000110110000111
1110111010011011
0000101000000011
1111000100011010
0000100010000011
0001110101011101
1110001111111010
0000001001001001
1111110111010101
1111110110110001
0000011010011111
0001111101101101
0001000110110010
1111111101110111
0001100000011100
1111101011101000
0000100110100111
0000100001100101
1111110011000000
1111100110011110
1111001000111010
0001001000101111
1111101111011100
0000111001001101
0000000100100010
0000001111011000
0000011001010100
1111110101110100
0001011100000101
1110011001110101
0001001000001000
1110010011000001
0000011010111111
1111000111000100
1111100100011010
1111110110100100
1111011001100111
1111001101101100
1111101010001001
1111110110111011
1110111110110111
0000110010111010
0010010011111011
1111000010010101
1111010011011001
1111100111111110
0000011110101001
1110001000100001
0001000001110111
1110110000110011
1111010010001100
0000110100010110
0000000111110010
0000011100001010
0000100100111100
0001001110110101
1111000000100111
1111111001100011
1111100100010010
1111000010000101
0000010100000100
1111000111010100
1111001010010000
0001001010001001
1111110010101111
1110100010101101
0001110100000001
0000011011101110
0000000110110000
0001000100100010
1111100110011000
1110111100100101
1110111010101101
0001111100111101
0000110110001111
1111001001101011
0011001110100001
0000010011101110
1111111111111010
1111001011000111
0001001011001011
0001001011100000
1110100111010010
1111000111001001
0001011101111110
1111010000101101
0000100011011011
0010001001001111
1111011111001000
0000111101110011
0000111000010110
1111010111101011
0001100100010100
0000101000000110
1111110101110110
1111011010110110
0001001111101010
1111110001001010
1111101010011010
0000100100011010
1110110110011001
1111100000100011
0001001001010110
1111100100110100
0000011111010100
0000001000001010
0000001100001110
1111011001110100
0000100111001010
0001001000000100
0000101101110011
0000000111101111
0000101110010100
1110111110000101
0001101000101110
0010001000111001
0000100110100011
0000110011111111
1111101110001101
1110110001100011
0001000011010010
1101111010110000
0001011100001010
0001101000101010
0000010110000010
1111100111100110
0000010000110100
1111110011100011
1101100111011101
1111011100101000
0001111000001010
0000110101001111
0000101110000110
0000001100111000
0000101110000101
0000111010101000
0000110101011011
1111010011110100
0001110010001101
0001000000100001
0000101010011001
1111100010001001
0000011101001000
0000110011110001
1111001101101100
1110010011011111
1111000101110100
0001000010111001
0001110000111011
1110101010010010
0000100111111011
0000010000111001
1111111001100010
0000001011111011
1111111011100110
1111001111000101
0000111010100101
0001010101001000
0000001001111001
0000000110000000
0000101111100110
1111000011010010
1111100011111011
1111110011011011
1111110011011000
1111011010010110
0000111111111000
0001101000011011
1111110100111010
0000011101000100
1111111011110010
0001000101000011
1111100000101100
1111010001010011
0000110001011100
1111010100001100
1111100011001010
1110101001101011
1111101100100011
0000110011000110
1111011100100001
1110011000000110
1111000011010110
1111100001001111
1101110000011011
1111000000101001
1111001110101001
0000000001101000
0001010101000110
1111100000001100
0000011110101011
1110010100101001
0000100111100111
0000000011100101
0000001010000101
1111010110111010
0000100011110110
1110101011101000
1111111011011011
0011000001100010
1111100111011000
1110111101001111
0000011000110001
0000101011000110
0001001001100010
1110100000100100
0000101110101010
1111011011111010
1110011000000010
1110001010101000
1111101110011100
0000100100100110
1110001000111101
1101111010001011
0001110011011101
0001000101111110
1111100110001101
0000110111111011
1111011001010101
1111000100010010
1111011000000010
1111101000011011
0000100101101111
0000101011001000
0000000101100100
1111101100100001
0000010010100001
0000101111001000
0000001110010100
1111100100010001
1110101000111000
1101111111111001
0001100011000111
1111110111000110
0000110001010011
1111110101110010
0000000010011010
0001100101101110
0001001111100110
1110000110100101
0000100001001111
1111110110011010
1111101010000011
0000010001111111
1111001111110111
1111100001111010
1111011111110101
1111111011111011
0001000000000110
1110101010001110
1111001000010001
1111111001011100
0010101000011001
1101110110101111
0001010010101100
1111110011001001
0000001010011100
0000100100000111
1111000101000101
0001100010110001
1111111001001101
0010001001111000
0000001011000111
0000110010101101
1111010011101111
1111000011101000
0000010110101000
1111010111011010
0010001000010010
1111000000010100
1111011011000010
0000111110100000
1111001110001001
1110110101101011
1111011000101101
0000010101100110
1110011010011111
0000110111110100
0000100011100000
1111101000111110
1101101101111010
0001110010101001
1110100011000100
0001100110001000
0001010010010010
1111111110010110
0000011001100011
1110101110010100
1111111100011000
1111101101110111
1111000001001101
1111000100000101
1111110011011001
1110011001110101
1111111011000101
1111110000111010
0000011110101111
0000101101000011
0000000010011010
1110101011101101
1111011011100100
0001111010100101
1110001101000100
1110110110110011
0001011110010011
1111011001100010
0000100011111101
0000101011011100
1111001111100010
1110000100001111
0001100000010101
1110111001100000
1111110000101110
1110001110001000
0001001011010111
0000011011111111
0000010111111001
1110010111101001
1111100000111110
1111000100001100
0000001001111110
1110001110001110
0000100100011110
1110101001101011
0000001100110000
1111111100111101
1111100110011010
0000110111110001
1111010001011101
1111000100010111
1111100100110111
1111100110111100
1111000010101110
0000010001100101
0000011111001101
0000000010011010
0000111000011000
0000000001001111
0001001001111110
0000010001100010
0001110010000101
1111111000001110
1111100101010101
1111011100111011
0001000110110001
0001010011010100
0010101111001101
1111011010100111
1110100010010101
0001010010001001
1111110111100111
1110011000101010
1111101001110110
1111111001001110
1111101001101001
0000101010111011
0000001000001110
1111111000101110
1111001111110101
1111101011001000
0000110010001001
0001000001101101
0000100000111000
0000001001010111
0000110110010001
1111001100100011
1110111010101000
0001010001001110
0000111101000111
0001010000100010
0000011100101001
0000010010011111
0000001010110101
1110100100100001
1111100111101110
0000001110110111
1110010011110001
0000101011000000
1111011110101001
0000001011010101
0000010010100111
1110110001011100
1111001001010101
0000011010101001
1111011001000111
1110111010010010
1101011100111110
0000001011100111
1111101100000010
0000011001011101
0000000100001111
0000000111101010
1111000110010010
1110101101000111
1110011110110111
1110100000110010
0000001110101000
1111111010100011
0000001110101010
0000101100010000
1111010101001101
1111001100000101
1110001110010111
1110110101110100
1111101101011100
1110000100100101
1111001000000010
0001010111001010
0010000000101110
0000101101111110
1111011110110100
1111100011000001
0000101001010011
1110110100111010
1111101001100100
0010010111111001
0000010001111101
0000101100101011
1111110010001010
1111000010010001
0000100001101011
1111010011011100
0000100010100010
1111111100011010
1111111101111100
