0000110111011000
0000100101011011
0000010100000000
1111111110011010
1110101101100111
0001100000000011
0000111000000110
0000001010000010
1111100010001111
1111111011001001
0000011101010110
0000011001010001
1110101011010110
0001001001110110
0000111111000111
1111000110110011
0010001010010111
1111111010100011
1111011100111101
1111011000000111
0000101000111011
0000110110010011
1111101010111010
1111111011010101
0000000010000100
0000101111110100
1110011110010000
0000100111101010
1101110111110000
0000000111011100
1111110110100011
1111011111100010
1111100010011100
0000110111011101
0000001001001011
0000110100111111
1111010001000101
0010001010011111
0001010000000101
1100111100100011
1111010101001100
0000000010010101
1111001100100000
1111011111101111
1111001111001010
0001011000100011
1110101000001101
1110100101110001
1111110010100011
1110000111110101
0001010001000011
1110110011001111
1111110001000010
0000100111101001
0000000100011011
1111000011101001
0000100010111111
1110111111000011
0000110011110100
1111101010000000
0001100011001110
0000011000010011
0000001110100101
1110010000100011
0000111111001101
0001101111000001
1110111011100010
1111111010011000
1111011101111100
0000100111011101
0000111111011100
1110110101011110
0001110000001001
0000010100001110
1101101101101111
1110000100111011
1110110101001010
0000001100110110
0000011010010010
0001110011100101
1111101100011100
1110111101100001
1111010011010100
1111111100010111
1110011010010000
1101101101101011
1111111001010111
1111011000000101
1110110111111000
0001010000011001
0011000110100001
1111100000111010
1110101111101110
1111011000100010
1111111111001100
0010101110101111
0000000100111001
1111101111011011
0000100001101000
0000001010110100
1110111101000100
1111001000101011
1110111010101000
1111000101010011
0001001001010010
0001000100001000
0000001001011111
1111101110000101
0000100110011101
0001011111110100
1111101001011010
0001000011000110
1111101000001111
0000011101111110
0000100001110001
0000111010000100
1110110110100001
1111101000000110
0000101010100101
0000001011010100
0000011000011101
0010010110110001
0001001110111101
0000100111001001
1111010111011111
0000100001101001
1111111011111110
1111101010101100
1111101101010001
0001011011010011
1111111101010110
1110011111110001
0000101000110010
0000010010100010
1111010010000001
1110101100000111
1110110010111110
0000011000001100
1111100011111100
0001001101111100
1111110001100110
1111100011110010
1111010010101010
1111111000101111
0000101001110000
0000101111010011
0001001000000010
1110110101011110
1110100101110111
0000001011010110
0001010111000000
0010000110110100
1111010100101110
0001001010100011
1111110010011001
0000001001000011
0000100110110101
0000110000111101
1111111110111100
1101101100101100
1111000000010011
0010001001001011
1111011010101000
0000000110101101
1110111000111000
0000000100001011
0000000111011110
0000111001111111
1110111111111010
0000101110101100
0000101111011101
1111000111110011
1111101011001000
1111100010111011
0000111001000111
0000100000110001
1110100101000010
1111000011111111
1111110010010011
1110000010010011
1111101010100111
1101100111010111
1111011101100110
1111111101000000
0001111100100011
0001100111011111
1111110100000011
1111010010011000
1110111000100110
1110100100011110
1111101000101011
0000110110100011
0001111101110101
0000101011001001
0001110001010010
1110111111101100
1110010010001010
0000010001100101
1110010101110100
0000111110010011
0000011001010001
0000100000111100
1111111100101000
1111110001001000
0000111000000010
0001100110111101
1110101011100000
0000100111111111
0000101100000011
1111001011100001
1111010101001000
0000011001111011
0010011011010100
1111011111111001
0000110101100010
0001000011101101
1111000101100110
0000101011110000
1111001101101000
0001110111001010
1111100101001100
0001100000010111
1111010010101000
0000001100011101
0000010100100001
1100101101000011
1110110000111110
1111000100101111
1101000111001001
1110000000010010
1111011100001111
0010000010001001
1110101111101001
1111101110001011
1110101011111011
1111011001110110
1111010110011110
1111011010101111
1111110100011110
1110000111010101
1110001110000110
0000010101110110
0001010001100111
0000110010010010
1111111010100101
1111000001011111
1111101011110011
1111111000010100
0000010111010100
0000111010011000
1110101001001101
0000000110001111
0000011100111100
1111010010011111
1111010011001010
0000011100101011
0001001110000000
1111011100010100
0000110000110010
1111000100000000
0000111111001110
1111110111110101
1111001001100000
0001000011000101
1111111011010101
1101110001111111
0001101101111100
1111100100011010
1111000100010101
1111011110011001
0001000101110101
1111010001100010
1101001110100011
1111101100111001
0000110001101110
1111111000011111
1111111010000111
0000100101101010
0001100000001110
1111010011100100
1111000001010000
0000010000000110
1111010101001111
0000100101110111
1111110001010111
1111111000110011
0000101011101000
1110111011001000
0001000001100110
1110110110010100
0000100011101111
1111011000001100
1110010010000001
1111010000000010
0001011110100110
1111110010011001
0000001100011110
1110101011110110
0000011011000111
1110111110001010
0000011111111100
1111111000110100
1111010000111111
0001101000111101
0001001011010000
0000110101111100
1110011001011000
1111010000110010
1111110100101101
1110001010101001
1111110011000101
0001011000001101
0000100101111010
1111011001001000
1111011001100011
1111101011011000
1110110110011000
0000001110110100
0010010100101110
1111111001111010
1111010001000001
0000101010110001
0000110101011101
1101100100000000
0000011010010011
1110000110101011
0000000000100010
0000000011110111
0001110000011000
0000011000011011
1110110001011110
0000010011001101
0000000110111101
1111100110100011
1111010010001010
1111111111010000
1111001000100010
0000000000100000
1111011101101111
0001001101110011
0000111111110001
1111010011000011
1111110001000101
0000101001000011
1101100101011111
1111111000010001
0001001011000110
1111111001110111
1111110000100101
1111101001111101
1111011010100101
0000110011000011
0000011110000100
0000101100001110
0000001101010011
0000110000101110
0001011001110110
0000110101111000
1111111011101111
0000010001101011
1111101010001011
1111111110010000
0000010000100000
1111110010011011
1111011101110011
1110111010001101
1111111100010100
0000010011010000
1111110011000001
1111100101101011
1101010110011100
1110010100000110
1111110101100111
1110011101111000
1111111011100011
1110011100101001
1111111001000000
0010010001111011
1111001101110000
1111100100100001
0000011110111101
1110111100001100
0000001010001001
0000101010110101
0000000010101011
0000010100111110
1110111010100111
0001011001000000
1110111110111110
1111001011100110
0001000110110010
0001010010001101
1110011101101101
0000110010100100
0000100111101000
0001000000100100
0001100110000110
1110110010010000
1111101001010001
1101101110010100
1110111010111111
0000001101100100
1110100111101101
1110010011100001
1111011010110111
0000010010100010
1111010110011000
1111001001100010
0000101010101000
1111010110110011
1111001000011110
1111111001000001
1101110100001010
1110110011011000
1101101100000010
1111010011001110
0000000110011111
0000111100100011
0000011110000111
0001010011001100
1111000001101010
0000001101000111
0000000111011101
1111111010110100
0000100010010101
1111011100111011
1111011100001010
0000111110101111
0001101001000001
0000101000000011
0000011101001111
1110110011110111
1101100000000111
1111111111101010
1110011010000111
0000110100011111
1111110110011111
1111111110001011
0000101101110000
0001000011110011
1111010110011001
0010001111010101
0000001000000010
0000010100111000
1111001111101101
0000000001110110
0000000001000111
0000000100101111
1110110001001110
1111100101001000
0001011111111000
0000100001000001
1111111101001111
1111101011000101
1111101011110110
1111110101101011
0000101011101000
0001010111000000
1111110000000001
1111101101101111
0000011001100001
1111100110101001
1111001011100101
1111110100000111
0001001000101001
1110000000101001
1111101000100001
1111010010010101
0001001011110100
0000001101011111
0001000110001011
0001001100110100
1111011111011010
0000001110100010
1111101101111000
0000010111110111
1111111100110100
1111001001100100
1111011110010011
1110010110011101
0000010110010101
0000011001010101
0001101111110111
0000011100011110
1110100001010110
0001000101100100
0001011100000111
1110010101000100
0010011011010111
0000000111000011
1111010111110101
0001011010100110
0000011101001110
0000010101000011
0000111110010000
1111110001010000
0000001010101110
0000011010100011
1111010011111010
0000101001001100
0000000100010000
1111101010110010
1111111011100110
0001010010000001
1110101001001000
0000001000111011
0000100001000111
0001001101010100
0001100011011101
0000100100011000
0001000010110001
0000101111101011
1111101100111111
0000010111011001
1111000100010000
1111111110101101
1111000111001000
0000101001111111
0000010000111110
0000011010110010
1110001100100011
1111110111000000
1111001111111010
1101101101000011
1111100100100000
1111101010000001
1111010100000100
0000111101001011
1111110001010110
0000011110010000
1110110100011000
0000100100010111
1111010000011000
0000100010011011
1111010110011111
0001101100011100
1111101011100000
0010010011001110
0001010001101111
0000000010100011
1111010110001000
1111101110101100
0000011010010110
0000001100100000
1111001001111100
1111101111100110
1110101101101011
0000010100100110
0000000011101001
0000000011111111
0000100100001000
0010000010101000
1111001000110111
0001001010100000
0010001011001010
1111011001110100
0000110000111010
0001100111011000
0010100111001111
1111000101110000
0001101010000111
1111000011010101
0000100100010010
0001010111101100
0001110010010110
1111101001110000
0001100010110110
0000110100101011
0000010110010011
1101010001101001
1110011010001011
0000010110111011
1101111110111000
0000111011111000
0000011110000000
1111100110010100
0000111100100100
1111111110001010
1101111100000101
1111101011011110
0000011000010111
0001110101100100
1111011110110111
1111011001111100
1111001101101110
1110000000000110
0000001001110100
1111101111110101
1110011000010100
0000000000011010
0000101010100100
1111011110111011
1110101010001111
1111001011100011
1111000111101110
0000100010001101
0010010111111011
1111111011111111
0000001101001100
1110111110011000
1111100111101111
1110001111011011
1111101001110010
0000001001110000
1111101110010001
0000100110101111
1111010010010100
0001000011111010
0000000101001011
1110010011011101
0000000001101001
1110110011011000
0001101110110010
0000101101111101
0000010010000110
0001000010101110
1111100110010101
0000101010110010
1110111100111100
0001111101001100
0000001010101110
0001100111010000
1111101001101111
0001110010110001
0000001000011000
1110110001101101
0000110001010000
1110110100110110
1101101101100101
0001000111100110
1111011111001101
0000100100011101
1111011110000101
0000001101000101
1111101110001111
1101100100011010
1110110011000111
0001000010101111
1111010101011110
0010001111111010
0000000000000110
1111001011100100
1111100100100000
1111111001011000
1111000110111111
0000100001000010
0000111010110010
0001110010000011
0000010001100011
1110101101011001
0000001110111111
1111111111100111
1101101011011001
1111011111101001
1110111101011010
0000110111000110
1110110101011000
1110101101011101
0000110111111110
1111000011000010
0000101110001000
1110111001011111
0000111000001110
0000100011001100
0000101100101011
1111110001011010
1110000011110011
0000100110110011
1111110101100100
0001010111011010
1111000101101001
1111111111000001
1110010010101100
1111110001110001
1111011000000001
0001101101111010
0001000111101010
1111010110000011
0001001010001101
0000000110010011
1110001111010111
1110110010001001
1110110101000000
1110010100001011
1110010100010001
0000100100010011
1111010010110000
1111110110000000
1111111111101101
1101001100110011
1110100010101000
0000111101000101
1111110111100010
1111111010000100
0001110001011100
1111101100000100
1111111111101101
0000010100000001
1111011100100000
0000110010101101
1110111010011100
1110101100110000
0000100101100000
0010010011100100
1111000011110001
0000010011111001
1111100000000110
0000111001101110
1110011011100011
0000110111001110
1110101110011101
0000011111110110
0001010101100000
1101110010011000
0001010011010110
0000100001111011
0000010001110110
0000000111111000
1111000100010100
0001010110101001
1110001010000110
1110001000000101
1110011010110111
0000100000010101
1111011100110010
1110001111101001
1110010110101010
1110110010011100
0000100100001110
1111111110101100
1111010011110011
1111010100010010
0000111011010100
1111101111011111
1111110000100000
1111101101101111
0000110000011010
1111000000110100
0001000000100100
0001011001000001
0001001010100111
1111010100110110
0000010100110001
0010000000010100
1110000111010001
0000100010111000
0000101001110111
0000011100110000
1110101101110111
1111010000010100
1111100101000011
1111000001000100
1101111100011001
0000100010011111
0000110001100010
1111100000110000
1111111010001000
0000101110000111
0001111010110111
1110111011100111
0000110001000110
0001000100001010
1111000001111100
0010000010111011
0000001110101110
0001010111010101
0000111011000101
1111010110111100
0000100000011010
0001010110000101
0001000001111110
1110111100000011
1111100000100000
1111011010100111
0000010111010011
1110101010001111
1111010111011010
0000111101000001
0000110101110011
1111111111010111
0000101110001100
1110110111100100
0001000000001001
1110100100010010
