1111011001010010
1111111001111110
0000010100100101
0010000000010001
1111011100110111
0000011011010100
1111110100000000
0000011001101011
0000100111011101
1111011110101110
1111001001101111
1110100111100001
0001010101110110
1111001001101101
0001100110111100
1111011100011110
0000010000011010
0000010111110011
0000100110000001
1111110100101100
0000110000011101
1111110011100001
0001100000001100
1110110001001101
0000011111111111
1111111011101110
0000101000010011
1111010100100001
0010000000100001
1111010001001101
1111111011111001
0001010100111000
0001001001110010
0000110111011111
1111001000001000
0001000110000101
0001000101011100
0000000111011100
0000111110110001
0000000011011110
1111011110000101
0000101011110110
0001100010100001
0000100010100111
0000001010100101
1110011101111001
0001010011101111
0001110000010011
1110000101000110
1110000111011111
0000000000011010
0000100010010000
1111110001001011
0001010000011010
1110110101110000
1111010010011101
1111011001001000
1111110010000001
0001001101100010
1111110001110001
0000100110010010
0000000010000011
0001001001110001
1111111010111111
0000000100100001
1111010100000001
0000111010001010
1110100010001110
1111001101110101
0000100110000100
1111110100101100
0000000101110000
0001101010010000
0000010100011011
1111110110111001
0001001010110010
1101111111000100
0001000111001001
0000011010001110
0001110111101011
0000101001111101
1110101000110010
1110110011010000
0000001011111111
1110100110000011
1111101011011111
0000011100011011
0001011010110101
0000111010010111
1110011000010011
1101111011111001
1110011001011000
1111100001010010
1111001100110000
1111010011010111
1111110110010100
1111110010111000
0000000110101111
1111100011110111
1110101111000110
0000100111010001
1111110110100100
0000100111000001
0000100001111000
1111111010110000
1111001010110101
1110000010101100
0000001000101110
1110111111101111
1111000101100101
0000000110101001
0000100010110001
0000111011011010
1110101110101010
0000000011011010
0000101100000001
1110110001010100
0001100111110000
1110111011100010
1111001010011110
1110100010000010
1111011100101001
0000010110110010
0000010101110100
0000001111001000
0001110110011011
0000100001101001
1111110101011000
1111000011011100
1111111001100101
0000001110001100
0001010011101110
0000011110010001
0000001010010010
0000000010000000
1111110011011010
0000010001100001
1111011001101100
1111111011111110
1111111010001111
0000100111111001
0001010000000001
0000001010111010
0000011011011111
0000100101100000
0001011001100101
0000110001011010
1101010110000110
1110110010010101
1111011001000010
1110100010101100
1111010000110100
1111111011001010
0000101001101011
0000110010000110
1111001010000011
0001101000111110
0000000001100000
1101111101001010
0000010011010110
0001110111001000
0000110100110101
0000110011101111
1110110111000110
1111001111111101
1110010011110011
1110001010010101
1110110111111111
1111101100010000
0000011110000100
1111101010000000
0000111111100001
0000111010011101
1110100011100010
0000100010110110
0000011101111101
0000100000101101
0000000110111101
0001000111000011
1110001000111001
0000110001001010
0000100101001001
0000000010001001
0000111000111111
1111110010111001
0000010100011111
1110101100100001
0001101010110010
1111101000101101
0001001111000010
0001101001011000
0000100101111101
1101110110001110
0000000110110001
1110100010001110
1111100000100000
1110001000010001
0000101110110110
0000000000000110
1111010001000000
0001000010100101
1111100100000101
0000010101010011
1110010101110000
0000101001100100
0000011011001001
1111101011011111
1110111001110101
0000101110100111
0001010100011111
1111110000101101
1111011010011100
0000111110100000
1111000011111101
1111111000001100
0000101110100110
1111001100110110
1110111100000000
0000101101011011
1111100110001001
1111110001111100
1111010000001000
1110100001001010
1110111111010101
0000000101111001
0000011100001110
1111101001000111
1111101010011000
1110100000000000
0000001010011110
0000111011111001
1111011111011011
0000100001101010
1110010101111101
1111001001000010
0000001000101011
0000111111000111
0010111010110100
1111001110100011
1111100100100000
0001000001101011
1111111000101110
1110111011111001
0000110110110100
1111111111011101
0000110111000101
0000101010001100
1110010110010011
0001011110100000
1111100101000000
1111010110111100
1111000101011011
1111111000111100
0000110111011010
1111000011010010
1111110111000001
0000101111100010
0001001010001001
0000111000001011
0000111100110111
0000010010000010
1111011110101110
0000011011110101
0000101100000011
0000000100010110
0001000101000111
0000011011111100
0000101111111101
0000100110100111
1111011101101001
1111010011000000
0000000110110110
0001101111110111
1110100100001011
1111011101000011
0001001001100111
1111000011011100
0001100011101011
0000000011000101
1111111101000001
0001101000011111
0001010000000001
1111101001101010
0000101010111100
1110101100101110
1111111111101100
0000110010010011
0000101101000111
1111010011100110
1111100001101100
0001000010010000
1110101000110000
1110010000100000
0000100011011010
1101011011111000
0000110101001110
1111110011100111
0000010100011100
0000011000101011
0000000111100010
0000000000001000
1110100111011001
1110100001011000
0000010000111100
0000010101101011
1111001100010000
0000011101010010
0001011101101011
1110100101110010
1101101011001100
1110001011100010
0000001000110110
0000111110101001
1110011101010001
1111111001000000
0000111000000110
1111100111011010
1111100110001110
1101001111000111
1111011100110110
1110100010010010
1111101001010101
1110101001101001
1110111001100001
0000010110101001
1111110110000000
0001000001010101
1111110011100111
1111100000011001
0000010001011111
0000111110000010
1111001110100010
1111000100011000
0000100111101001
1110011001100010
1111101011111010
0001111101000000
1111001000001001
1111111111101010
1111110001001110
0000000110111110
1111100101100101
0000001101011010
0000111011001111
1111010101011000
1111110110111100
1110100100010111
1110100110100001
0001001000110101
0000000110110101
0000101010011010
1110001010111111
1110101111011001
1111100011010111
0001000000110100
0000000101010000
0000011011000000
1111000101011100
1110101100011011
0010000001010111
1111000111010101
1111011001000010
0000010001100011
0001000110110001
0000101001001100
0000111011110000
0001110100101110
1111101001111001
1111111001110011
0000000111101001
0000000101010100
1111000111100100
1111011010011010
0001000000000111
1111011000100011
1111101001110100
0000101110110100
1111100001011010
1111100110100010
1110100000000011
1111111011101011
0001001100110001
1101110111101110
1110011010000110
1111001100010100
1111011100010001
0000101010100110
0000110110110001
1111100011001010
1111100110100001
0001100100101011
1110110001110111
0001000111000011
0001001000011110
0001111101000001
1111100100010101
0000001000001101
0000110001101100
0000010011000101
0000010110010010
1110110011011000
0001001010001010
0000010001100101
1110111001011100
0000010010010110
1111110010011010
0001010110001011
0001011000011110
1111011110000100
0001001100011100
0000001111010011
1110111101000110
0000001100000101
0000001100100101
0000111101110000
1101000010101110
0000010101001100
1111011010010000
1111000111000001
0001000100010000
0000011100011001
1110110000110110
1110111101101100
0000000001101110
0000000111100010
1111001000010110
0000000000100001
0001100011000001
1111111010010110
1111101001000010
1111011111011000
1111111010010110
1111011101101000
1111110011110001
0000011011101010
0000100110110101
0000101101000011
1111011100111110
1111100011101001
0000000000001111
0000110110111011
0000010010010100
0000101010000010
1110101011000100
1111000111001000
0001011011001001
0000001010000011
1111111010011110
0000010110001000
1111101101011110
1110001110000110
1111011010100100
0000110110100001
0000000011110111
1111011001110000
1111101101011101
0000100011100110
0000101010011101
0000010000101011
0001100111110000
1111111011010101
0001011110010000
1110011010010011
0000100111000111
1111011011010000
0000110010010111
0000001000100101
1111110000001111
1110101010111110
1111001000010010
1101101000100000
0001111111110011
1111101111010111
1110110001011010
0000111100000000
1111110101011011
1111110110101110
1101111101110111
0000001111110011
1111110010001101
0001011111010010
1111100110000001
1111101110000111
0000011010101111
0000100101001000
0010100011010011
0001000101110111
0001100010111011
0000110010100101
1110100010101001
0000001001001101
1110111011001110
0000001100001001
1110111101010100
0000001101000101
0000101101000010
1111001101011101
1101111000000101
1111101100100010
1111110101010110
1110111001010111
1111100101010010
1111010000110111
1101100111010101
0000100000010011
0000011111010100
1111101111100111
0001001101101011
1110010001110111
1110110110010011
1110011001011011
1111001100010111
0001001111011010
1111101011101101
0000010001110100
0000110110101101
0001000001011111
0000001011100111
0001010101101110
0000100001101000
1110100010110110
1111100010011001
0000100110010100
1111101000101011
0000000111100010
1111101001100101
0000010101001011
0001010010000100
0000010110101110
1111111000000101
1111100110100110
0000110001100011
0010001001101001
0000111111110010
0000011111011101
1110110010001000
1111011100010101
0000000000100000
0000100000101011
0001010000111110
0000101111110011
1111010110100111
1111001000101001
0000010001101110
1111001111101001
1111001110000000
0000000000111001
1110100011010001
1111011011111000
1111111101000101
0010010100110001
0000011001010101
1101101011101101
1110110010100000
1111000111100110
0001100111001001
1111111000001100
1100111111010111
1111001110000010
0000001011011010
0000010000100110
0000011010000000
0000000101000110
1111100000001111
0000000100001111
0000101000001001
0000011010101110
0001010111111101
0000111011010110
1110011010111100
1101101100010000
1111010101001011
1111101111100000
1110001111001010
0000000111000011
0000010101010111
0001001011111100
0000101111000011
0001000111010101
0000100110110111
0000011011000101
1111000100100000
0000010101001010
1111110001110101
1111101010001101
1111011011000101
1111000010101010
1110111001011111
0001001101110000
0000010100010101
1111000011101000
1111110100110011
1101111010111111
0000000100001001
1110110000111011
0000010110011101
0000001000110011
0000011010011001
0000101011111110
0000010001100111
1111101110000011
0000100110011011
0000101000101111
0000011010110000
0000010110101110
1111000110101011
0010000010111101
1111100100010111
1111100011000111
1111100111110011
1110101111011110
1111000111100110
1111100100110111
1111111110010110
1110110010100010
1111011010011000
0000000010101010
1111100011100110
0001100111101110
0000101100000101
0001000100111101
1111110111101011
0001001011011110
0000011000011000
1111101001110101
0000110101110101
1111110100011010
1111111010101011
1111011001011110
1110110011000101
1111001110011111
0000001000111001
1110111101101000
1110101101100101
1111110011011001
1111110110111001
1101010101000000
1110001000010000
1111011110010001
0000011010101010
1110101011010001
1111100111011110
1110011001100011
1111101000101011
1111010000100001
1111100001010010
0000001111011010
0000000011001101
1110100000010010
1110110101101001
0000100111011010
0000001000001111
0000001100111101
1110011011111111
0001001110011001
0010001110000001
1111001001100111
1111011101101111
0000001100100101
1100110100100100
1111010011001000
1111110010000101
0000010001101000
1111111101001110
0000100000001110
1111111101011010
0001010010111100
0000111111011010
1111101000110001
1111100001011110
0001010011001110
0000111010000101
1111011010110010
1111100110000010
0001000111101011
0000111001011010
1111010110011110
1111000100010010
1110111011011011
1111110000110001
0000001000111000
1111101101001111
0000000000000110
1110110010101001
1111011100001100
0001100100011000
1111001001101100
0000110001010011
0000000001111001
0000100110001001
0000011101000001
1101001000110110
0000110000100100
1111001011101100
1111010110111100
1111101000100101
0001111101010110
0000011011101100
0001001111100001
1110011110000001
1111101100000101
0000000110111110
1111101000101011
0001111101000011
0000010010001101
0000101011010011
1111110001010000
1110101011000011
1111000110011100
0000001010010011
0010011110101111
1111101101100110
1111101111000000
0000100101011001
0000101001011101
0000000111011000
0001001010100101
0000101110011111
1111111011010011
0000010101001110
1111110110100001
0001011000001101
1110111011101100
0001001110000011
0001011000110010
0000110101011110
1111101100000100
0000000000001001
0001011000000000
1110101101100000
0000001000001011
0000001101101010
1110111000000100
0000010100100111
1110101011001001
0000000011001101
1111111100000010
1111000101001011
0000101001110011
0010000001101110
1111100110001011
1111110010010100
1111100010110010
0000111100111011
1111000100101110
0000010010111111
1110011010110111
1111111111110010
0000000101010011
1111101011111110
1111001101000000
0000000100110111
0000000111000101
0000001100101101
1101011010100100
0000100111111001
0000010000001111
0000110111011011
0001011110000000
0001110000000011
0000110111011011
1111101111010100
1111001111101011
0000000101010011
1110010011101001
0000011000111010
1101101110000001
0000011100100011
1111101001011001
0000010110011011
0001000101001111
0001100100010101
1111100010100100
1110110101001000
1110001100001100
0000011011011000
1111101100101010
0001111111000101
0001101011101001
0000101100010000
1111011110010111
0000011100001111
0010001010011101
0000010010100011
