1111100011001111
1111110100010101
0000001010011001
0000001100001100
0000011001111101
0000000011010111
0000010101110101
0000001111111001
0000010000110101
1111111111011011
0000011100110010
0000010011001011
0001000010111010
0000000100001000
0000000100100010
0000000011011010
1111100101111110
0000011001111011
0000100010010101
1111110110111011
1111111010010100
1111101101110111
1111110011101000
0000101000100100
0000011001001101
0000000001000101
1111111100111001
0000000111111100
0000001000000010
0000010001110100
0000001000100000
0000011000000110
0000010001001111
1111110010000010
0000100011110100
0000000001001110
0000011111001000
0000001010011100
0000011010101100
0000110001101001
0000010100100100
0000011110101100
1111110111111100
0000011001111111
0000001010000110
1111111011110101
0000000001100100
0000001100111011
0000010001101000
1111000111000110
0000011010100100
0000001000111010
1111100010000111
0000010001001100
1111100111100100
1111111110111000
1111011101010101
1111001110101010
0000100011101010
1111000111100111
1111100101100011
0000010101011000
0000010110010011
0000011110010101
0000100110101001
1111110101000010
0001011010111100
1111101001101110
0000010001000100
0001000011010100
0000110010011011
0000111110111011
0000011010100010
0000100001110000
1111110011011110
1111001011100011
0000101010101111
1111100111111010
1111111001110100
1111010101100001
1111110010111101
0000010100001011
0000000011101100
0000100100110000
0000000101011011
1110110101111000
0000000000100111
1111100001010100
1111111101110001
1111010111001011
0000001101101101
0000010001000111
1111101010111010
0000011101011111
1111110101000101
0000110111110100
0000000110001001
0000111101000111
0000111001111111
0000011011110001
0001011001011100
0000001110100110
0000101011011110
0000110100100000
0000100001111100
0000001010000010
0000001110011000
0000011100101111
0000001000010000
1111101011011011
0000100011110110
0000001000000111
1111101110110000
0000101100110011
0000100101101000
0000111000111001
1111011011011101
0000001110001011
0000000011111110
0000011011000011
1111110101100111
0000110000101101
0001010101111101
0000100110100010
1111100010000011
0000100001101001
0001001011011011
0000110011010010
0000110001010011
0000100010010110
0000000101010110
0000110000111110
0000001010100110
0000010101100100
1111010100100101
1111110001011111
0000011001100111
1111111111110011
0000001000100100
1110100101101010
1111001110010011
0000100011011101
0000000110111111
1110100101011011
1111100000101101
1111100101110010
1111100100000011
0000100110000000
0000000111111101
0000101010111100
1111010010111001
0000010011011010
0000111101000000
0000001110100111
0000111101110011
0000101110111110
0000000110101001
0001001101100011
0000001001001100
0000100011100101
1111111000010100
0000101101101111
1111100011110001
1111101110110001
1111011010101101
0000010100011101
1111111010100001
0000011011110101
0000100101100010
1111000010011111
1111101000000011
1111111011010110
0000000010101000
1111101001111110
0000000000101100
1111111110010110
0000000110000111
1111100100111010
0000011101000010
1111010110101011
0000001010000001
1111101100101001
0000010010111011
1111111101011100
1111100100010101
0000010000001000
1111110100011011
0000110011111101
0000100010101001
1111111011101010
1111111101011010
0001010000011010
0000011111111111
1111110010110101
1111010010010111
0000011010110000
0000101111000111
0000001110111101
1111011011111011
1111111001111100
1111111110101101
0000001010010111
0000010000111101
0000011100001011
0000100100011010
1111010110101111
1111011011100001
1111100000101110
0000001001100010
1111100010111011
1111111010011010
1111101001001110
0000000010001001
0000100101010001
0000000001010111
0000000000000111
1111110101000111
1111101011010111
0000010101011101
1111110100111111
0000000010100011
1110101111111001
0000101110111010
1111000010101110
1111110011110001
0000011101001000
1111100001000100
0000110011000000
1111111111000101
0000000000110101
1111110110000011
1111011110111010
1111110010010100
0000011100011010
0000011101011010
1111111000101001
0000000100110010
0000001110110100
1111101001100101
0000101110110010
1111101010100110
1111110001101001
0000000010000110
0000001101110010
1111111011101000
0000000011000101
0000000010001100
1111101000111001
1111111100000100
0000000110001100
0000100011101010
0000110010101110
0000011100001010
1111001100110010
0000110101001010
0000001010000001
1111101011011000
0000000101101101
0000010000110001
1111101111011111
0000000000010010
1111100000110100
1111100000001000
0000001000011100
1111101010000001
1111101100000000
1111010011110001
1111001111000110
0000011100110000
1111111001110010
1111110000000010
1111100100000011
0000010000000111
1111110111010101
0000000111000000
0000111010101110
0000110100110100
1111110110110111
0000011010101000
0000001100100101
0000100111111010
1111110001001010
0000001101100001
1110111100001000
1111000110110010
1111001100101110
0000110011011101
0000010000100000
0000000100101111
1111111101000110
1111100011100110
1111110010110100
1111010001010110
1111100111110101
0000011000100001
1111001111101100
1111110111010101
1111101101011011
0000011010000000
1111010010001000
1111111110010000
0000001000110101
0000010101000000
0000000001010000
0001000011110001
1111111010101111
1111111100101011
0001000100010110
0000000101110100
1110110000000010
0000001010111001
1111000001011100
1111110110111011
0000100010111100
0000001010111110
1111111101111001
1111110010101000
0000001000000111
0000001010000111
1111101111010111
0000001111111100
0000101001001101
1111100111010111
1111101001111011
1111000101001100
1111010110111000
1111101001011101
0000010010010000
1111101100001000
1111101100000001
0000000110001001
0000100101110010
0000011010000101
0000100110101100
0000010000111101
0000011101110011
0001001110010111
0000101000100000
0000101000100000
1111011110100100
1111011011000111
1111111001111111
1111011011111111
1111010111000010
1111111000001111
0000010001010100
0000011110001100
1111100111000011
0000000110100011
0000111000011101
0000010110001101
1111000011111001
1111001011010111
1111100011110111
1111011011010100
1111111101011011
1111101011001110
0001000001110001
1111011101100011
0001000001010110
1111111111011110
1111111001001110
1111111110000010
0000010000001011
1111111000011001
1111100111000100
0000011111111000
0000100100001111
1111010011010010
1111101111001001
1111010011000110
1111110010101101
1111111000001100
0000001000101101
1111101100111110
0000010101101010
0000000010110100
0000001100110100
1111010110011110
1111000000011100
1111100001011011
1110101111101001
1111111010100101
1111110111001010
1111110001011000
1111110000011010
0000000111110010
0000011011101111
0000101011110011
0000011000000001
1111110110111101
1111100010101111
1111001110010000
1111110101011101
0000100001110000
0000001001000011
0000011010110011
1111011110010111
0000000010011000
1111100001011110
0000010010101101
1111010101101100
1111001110011000
1111101010011001
0000000110010100
0000011010010111
0000011100111000
1111100010011011
1111100111000001
1111011111111100
1111001001101010
1111010101011110
0000000011010111
0000100101000010
1111010110100000
0000101101000111
1111111011000001
1111110001010101
1111110111000001
0000001110010011
1110111000111110
1111100001010011
1110101100011111
0000001111111110
0000010011010000
1111100011001000
1111001111000110
1111101111000110
0000000100011001
1111100110000001
0000000110110111
0000001000110011
0000001011110000
0000011110100110
1111101111101110
10000000000000000
1110111010100001
1111001100100111
1111001110101011
1111001010001010
1111010111110101
1111100111110100
1111111100110000
1111001001100001
1111010001101110
0000011011111101
1111111111010110
1111110111000111
1111110010101100
1111111000000000
1111101110001100
1111110110111101
0000001001000001
1111110010101001
1111000001001000
1111010101101001
1111011001111000
0000101110000110
1111100110111000
0000011010000101
0000011011100001
0000100001111001
1111111011111010
1111011010101011
1111101000110101
1111110001110110
1110111011111001
0000001010010011
0000010101101101
1111010110100110
0000001110101100
0000100101111110
0000010110100110
0000100101010111
1111100111010011
1111100111001101
0000101011001001
0000010101010000
0000000111111101
0000000010011000
0000000010100110
1111011011011111
0000010101000100
1111100000011001
1111010010100101
1111100110111110
0001000101010000
1111100111011110
0000000011010001
0000001101100110
1111111101000010
1111010001001110
1111001101001110
1111100000101111
1111010101001110
1111001010111001
0000001100101011
1111011110010010
0000001101101010
0000011001001110
0000100000111001
1111111010010010
0000000110100000
1111110011000000
1111101100101000
0000010100101011
1111100011000010
1111110011100011
1111010100000110
0000001110011111
0000000101100010
0000010011011100
1111101101101110
0000001001110011
1111111110101110
1111101011101111
0000100011001110
1111111111100111
1111010011111101
1111101111111111
1111110001000110
1111100110000110
1111111111010110
1111101001001011
0000011011000010
0000000011111100
0000010110011111
0000110101000110
0000011010000110
1111100011100111
0000111101000110
1111101101101001
1111100001110001
1111110111011111
1111100011011110
0000001101001101
1111011111111001
0000011001110100
0000110101001011
0000011000010011
0001000000101011
1111111000100100
0000011010100000
0000010010010001
0000101101001100
0000000100100000
0000001100110110
1111100111010000
0000011111010011
0000110101011110
0000101011011111
0000010001101110
0000101110111011
0000100101011011
0001000000100010
0000110011110111
0000010100100100
1111011110011100
0000000011000101
0000000111010110
1111111000111101
0000100101000110
0000011000100001
1111100101010110
0000011110111110
0000011100110011
1111111001100111
0000111111000100
0001001110001100
0001011011001001
0000101000001110
0001000010000010
0001010111101000
0001000010011011
0000111010110010
0000111000000111
0000010110100010
0001000000000001
0000011010100000
0000101011011100
0000011000101010
0000110010100110
0000011110111110
0000101001001110
1111101100010000
0000001000011110
0000001001000000
1111110011011101
1111001100110000
1111001101101010
0000100110001000
1111011011011110
0000110100010010
0000011011011111
0001001011001010
0001011010100101
0000011000000100
0000111000101111
0000110011011010
0000110110011001
0000000110111001
0000110000000100
0001001101000111
0000111011111110
0000011100100101
0001100101001101
0000100101000010
0001000000001101
0000110101111010
0000010011010001
0000011000111110
0000001000101110
1111100110110110
0000100010011000
0001010000101110
0000001111011111
1111001011111110
1111111001111010
1111000101101111
0000001100010101
0000101000101101
0000000011011000
0000111100010001
0000011011000110
0001000010010100
1111111110100111
0000000100011010
0000001000000101
0000101111110101
0000100000001011
0000101111100010
0000011001100001
0000010101000110
0000101001111001
0000101100001011
1111111100111001
1111111111011001
0000011011010001
0000101011111111
1111000101000000
1111101110101100
1111100001110000
1111111001100001
0000001111000011
0000101100111001
0000001100110010
0000010100101000
1111111111010010
1111000011100101
1111011001010101
0000101000010111
0000000010000000
1111011001100010
0000100010101100
0000100011111110
1111101000001000
0000000110010000
0000010101000010
0000001010000010
0001010001011110
0000011001011101
0001000010011111
0000110000100101
0000100100001000
1111111101111001
1111111111101100
1111110000000101
1111110100111111
0000001100100110
0000000000111100
0000000111001000
0000110000011110
0000000010111000
1111100011101101
0001000001001000
0000000111101111
1111010101110010
1111001111110011
1111010000110010
1110010111100001
0000010000000011
1111100011011101
0000011000000100
0000011100010100
0001000010010101
0001001010110001
0000100000011101
0000100110101011
0000010110111101
0000110001111000
0000100000101010
0000011000101110
0000001101011011
1111101011011100
1111110000000110
1110110100000010
1110111010100111
0000001001010100
1111111101110001
0000000111101111
1111110110001010
0000001001101001
0000000110001011
0000010000011001
0000010100010110
1111011010100011
0000100010011010
1111110001100011
1111111001110010
1111111010011111
1111011011011110
0000000111100110
1111011100111011
0000101001000111
0000010001010010
0000011110111100
1111100110010101
0000001001100010
0000100101100100
1111110010010010
1111110011100111
1111100010101000
1111011010000100
0000001101111010
0000010110010001
0000000011110111
1111110000001001
1111100110001110
1111110000101000
0000001110100111
0000011100001000
1111110000111100
0000000111100000
1111100010000011
1111111011101100
1111100011010110
1111110000101101
1111100110010101
0000111000010011
0000010010101011
1111101110100000
0000000111011011
1111110101100111
1111100110101101
0000000110010101
0000010001000000
1111100010110010
1111101000110010
0001010000000101
0001001010010111
1111111000100000
1111101110101110
0000000010100000
1111101101000001
0000101100011010
0001000000010110
0000001000100000
0000000001000100
0000011110101110
0000010000100100
1111110100001010
0000011000011111
1111101111101100
1111110000101001
1111110000010100
0001000000101010
1111110101111011
0000110001010001
1111101100000100
1111111001010111
1111010011111100
1110110110011110
1111110110100100
0000010101011101
1111011100111111
1111110110100100
0000100100100000
0000101110001011
0000101101100100
0000011100000101
1111110110011111
0000110010010110
1111110110101100
1111011000010110
