1111100010010010
0000111000010001
0010000010000010
1110010001111011
0001001001101101
1111010011011000
1110111000100100
0000100001111100
0001000011000001
1111111010001011
0000001000011100
1111010100010100
0001100111100100
1111010100011010
0000100111010110
1110111110100001
1111101111010110
0000111000011111
1111100001100000
0001011001111101
1111011110010111
1111011000101101
1110011000010100
0001011001101000
1111010110011111
1111111010011011
0000111011010010
1111101000100000
1111100110001111
0010000101001000
1111101110011110
1111010100010000
0000001001000100
1110010010111000
1111011101101100
1111100111101110
1111111110000101
0000001110001101
0001111011010110
1111000110010101
0000011111001100
1111101110010111
1111011111000110
0001100100001001
1111111000001101
1111111110101011
1110101000011101
0001001110000100
1110010010111010
0001000010111111
1111101110110010
0000001101101011
1111001100001011
1111001100101111
1110011101001010
0000001000000111
0000110101000000
0000010001010001
1111100000011001
1111010000011011
0000100101110011
1111111110111111
1110101000110111
0000001010001010
0000011000111010
0000000000111000
0000101000000110
1111010101110011
0001101111100100
1111101010111100
1111110101010001
0000001100110000
1110011010000010
1111111100000111
1111100100010011
1111010111011001
1111111101010110
1111011111101100
1111001111111101
1110001001001001
1111001100101011
1110101000101011
0000010111111111
0000101110100100
1111011000110011
1110100101101110
0001001010101011
0000100000111101
0000001011010100
1111010000001001
0000100000101000
1111001010011011
1110010000000001
1111011010010110
0000100010001100
0010010000001101
1111111111111010
1111001011000000
0000100100101000
1111011011001000
1111001101100000
0000100001000100
1110100100110111
1110111011110110
1110101111111100
1110000101011101
1111010000111100
0000001010100011
0001101001010000
0000011100001001
0000010000110011
1111110110110010
0000000000000010
1111101011110111
1111011000000011
1110001001100110
1111100011011100
0001001000001000
0000010100001100
1111001000100001
0000001100111001
0000000100110011
0001000111101110
1111011000001101
1110110011010100
0000110100100000
0000111100011100
0000011110010111
0000010111110111
1110110111110111
1111010111010111
1110101011011100
0001001101100011
0001010011011000
0000000011011110
1111100101100100
1111010011000110
1111111010010000
0000011001011110
0000111101001100
1110111101010000
1111011111100010
1110101111001101
0000110111111111
0000001110100111
1111100100111011
1111111000000100
0001101100111101
1111011110010010
1111101111000100
0001001100101111
0001011011001000
1111111001001110
0001101000110010
0000111001101001
0010000010010011
1111000001111010
0010100110011010
0000100110111011
0001111101011101
0001011011000010
1111011110110100
0001100011111110
0000001110010101
0000010111110000
1111110010110110
0001000000010111
0000111010010111
0000110001010110
1111011110001011
1111110010111011
0000110010110001
1111001000011010
0001010000111100
0001110001100100
1111011110000111
1111011100000011
1111101010000111
0001000011010000
1110001111110001
1111111011011011
1111101100101110
0001011011110001
0001101111111000
0001011000001011
0000111100101000
0000111010100000
0000000101000110
1111001010100011
0000010111000100
1111001000100101
1111011110000011
0000011011111010
0000000111111000
0000000111111100
1111010111111110
1111111100000010
1111110000101111
0001100101001100
1110100101011001
0000000010110110
0000000010110011
0000010001110100
0000101110011010
0000101101110101
1110100100110100
1111011011000100
0000001011110000
1110110001010011
0001010101111101
0000011110101011
0000011011110100
1111110110001000
0000010010101101
0001010111010110
1111011100001111
1110011001110111
1111111010110110
0000101001111100
0001011000101000
0000010010100110
0001011011000000
1110001001110100
0010000100111101
0000110101100100
1110001011000010
0000111101011010
0000010010010000
0001010001111000
1111001100000111
1110001001101011
1101101011100110
1110100001111110
1111100000100110
1110001110101101
0000100001111111
1110101111011011
1111110110011000
0000001100011001
1110111110110010
1110011001110110
1111011111101110
1111111001111000
1111111110010111
1111010111111101
1110000001101100
1111000100010010
1111111011011110
1111100001010101
0001101101001110
1111111100010010
0000000111111011
0000011001001010
1111010100100000
0000000101101011
0010011010101111
1111111110010000
0000111111000011
1111101100000110
1111110100000101
1111101001000111
0000000001001000
0000010110111011
1110110011010011
0000101110001101
1111000100010001
1110011010000100
1111100111001101
1111111001101000
1111111001101101
0001100001010101
0000110100001011
1111111100101111
1111111101100010
1111011000011100
0000110011010111
1101110000110110
0000001010100100
0000110001110111
1110011101011111
0000111101110000
1111110100011111
1110111010100100
0000011010101101
1111101110001111
1110000101100110
1111010001011000
1111000110100110
1111011111010011
1111011001001001
1111100001100001
0001000010111000
1111100111000100
0000101000100000
1111101111001100
1111001010111101
1111000101011010
1111001000010001
1111100110000101
0010000101001101
1111011011110011
0000000101111011
1110110000111110
1110111010110110
0000111001100010
1110010100110010
1110110111111110
0001111101100000
0000011010000100
0000010011010111
1111110000111111
1110101100001000
1111011000010011
1111100110000110
0000001011000001
1110100000010000
1111011001101000
0000000000011000
0000111110001010
0000100101010010
0000000101010011
1111110010001111
1110101110100100
1111000100001100
0000101010011001
0000000100110001
0000010000001000
0001001011100101
1111111000011001
1110101010001110
1110111110110100
0000010000111001
0000011100000010
0000100110101011
1111001101000011
0001000010010100
0000100111100110
0010001011011001
1111010101001010
1111111110101100
0000000101010011
0000010011011010
1111010001000010
0000001100000011
0000101101101100
0000100001001010
0000111111011011
0001001011100010
1111101001001000
0000010000101100
0000000111010110
0000000101100111
0000110111000100
0000011101100110
0000101110101101
1101101010110000
1111000010101000
1110100010110100
1111101011111011
1111000111110110
1111111100110110
1111111000100110
1111111111100010
1111011110100010
1110110001101101
1101100010101010
0000110001010100
1110100000100100
0000010000011100
1101010101111000
0000100111111000
1111011000110100
1111011110000010
0000100111110001
0000100001100011
1111000010011010
0000110111111101
0000101010111010
0000101011111000
0000011000011010
0001011101100000
0000101001001000
0001001110111001
0001001000101011
1111000000010110
1111000001010011
1110100111010111
1110011101111001
0000001010111011
0000010011010010
1110111000111100
0000101011001010
0001001011010101
0000011101011000
1111111000111110
0000100111101011
0001001110110101
0001000101100000
1101111010100100
1110101100011001
0010010010110010
0001110110111101
1110110000011000
0000000001011000
0000001001101010
0010111100111111
0000100110110100
0000011001111011
0000010011001010
0001000001111110
1111100011111111
0000101110000010
1111110101101000
1110001111001001
1111001010111001
1111010000100000
0000100111111011
0011000001001101
1111100010111011
1111010011101100
0000000001101101
1111010001100010
0000000101101111
1111111110110110
0000010011011001
0001000011100111
1111101000001111
1111110011101101
0001111000000001
0001000110110111
1110100100010110
0000000000000101
0000011001100011
0000000001101101
0000001010110001
1111011111110010
0001000001000011
1111011101011101
1111110110001000
1111101001111011
1110001111101101
1110001101100001
0000001011111100
1111111011000001
0000100110001110
0000110100001110
0001111111001000
0000011000111010
1111011011101110
1111111110000000
1111101110111101
0010000100011110
0000011000011100
0001011010111101
0000111000101011
0000011011111001
0000000101111110
1111101011010001
1111111110111101
0001010110101011
1111110100100011
0000001010011001
0001001110100010
1111100100100010
0000001000100101
0000010010110010
0001100100100000
0000010101000101
1100101011011110
1110110110001010
1111010000011101
1111100001000110
1111011100110101
0001000100111100
1111100000011000
0001000101111010
1111010111100110
0010001100000110
0001000001100101
1110011010010100
1111110101101010
0001000110110011
0000001010001100
1110011111011111
1111110110110001
0001011110011000
0000010001101011
0000010110011110
1111111010101000
0000010010100001
1111110010111000
0001010111000110
0000010000111101
1111110010011100
1110111011011001
1111000111111000
1111011100111000
1111111111110100
1111101101101000
1111011101000101
0000011111111000
1111100110010110
1111001001011100
0000110000010101
1101110001101000
0001100100000111
0010001110101001
0000111011101111
0000011001111011
1111001111000101
1111001101011101
1111110100011100
0000101010110111
0001001011110011
1110110011110101
1111010110101111
1110010100110000
1111110100000101
0000000011000000
1110011111101100
1110110111111110
0001011100011101
1110001010001000
0000000100011001
1110010010000010
1111111101011111
1111110101011010
1110000001001111
0000001111000101
0001101101000111
0000011000011011
1111110111100110
1111110101110100
1111111100101001
0000010111011000
0001011100001001
0000000110100111
1110011000000100
1111111011010100
0000011101001010
0000000101000110
1110100000001101
0001011011111110
1110001011100110
1110011000101110
0000000101000010
0000010010101110
1111100101011100
0000110110100100
0001000010011101
0000000101110100
1111011100011110
0000110010100101
0000011010101111
1110010001011001
1110101110010111
1111111000000000
1111010000111100
1111011110110001
0000000010101100
0000010111000110
1111001101001001
0001110101000111
1111010100000100
0001001101110011
0000011001011101
1111000110100100
0000001011111000
1111110111111000
0000110010110111
0000110001000110
1111110111011110
1110000001011000
1101111011000110
1110110010010110
0000010100001111
1111000101101001
1110100000100110
0011111101001101
0001011010011010
1111111100100110
0000000000010101
1111111110011111
1100110011101111
0000110101101101
0000001011000010
1111101011100010
1111011111011100
1111111010110100
0010000001011001
1111001000011101
0000101011101000
0000010001001111
1111111001101100
0000110101101011
0000001001111001
1101111111010100
1111110110111000
0000000010001001
1111111100001010
1111010001110010
1110100000101111
1111000001010111
1111100011010110
1111011100111001
1110101001000001
1111111001001100
1111101110000101
0000011111001100
1111010100111011
0000110111101011
1111000110101110
1111011100000100
0000100011010011
1110100100111111
1111110101010001
0000001110111001
0000111101000011
1110100000100100
0000101001001110
0001001111011000
1110111011000001
1111100010110001
0000001101000010
0000010011011011
0000100000100101
0001011011000000
0001111100011011
0001001001011101
0001001001111100
0000010110100110
0010101001001011
0001101101110101
0000000100001010
1111101101101111
1111011011110101
0000000000100101
1111100101110100
1110011101001100
1111011000111000
1111101111010010
1111111111000000
0001000011101000
0000001010110100
0000010111001010
1111001010101111
1111010101010110
0001011111101101
0000011101001000
0000101101101101
1111111110000011
1110101101101101
1111000110100000
1111100101101100
1111010010010010
0000111001110001
0010101101100110
0000100110110011
0000101111010100
1111111111101001
1111111011000010
0001000011000010
0000110111101110
1111100001010110
1110011010011101
0000000110111000
1111011101010010
1110100100010000
0000010000111111
0001011001110110
1110100100110111
1111010111100101
0001000001011100
0000001000100110
0001001100010101
0000100000110100
1111000100100000
1111100110000011
1111100011010111
0000000111010100
0000000000011110
1111110100101101
1111100010000001
1111111011000011
0000101110111111
1111110110011000
0000110011101110
0000000011110011
1111101101010111
0000110100101110
0000100111100110
0000011100011011
0000101100000110
0000100010100110
1110111000110111
0000011110010111
1111111000111110
1110111010100010
1111101010101000
0010010000110110
1111111100000001
1101110010000101
0000000001110011
0000010111000110
0001110111000011
1110111100001001
0000001001011000
0000010011010100
0000011101000100
0000110101101100
1111011101110100
1110101001010011
0001000111100010
1111000011101011
1111001011011001
1101111000011101
1111101100001011
1110010011000100
0001001000101100
1110110000100000
0000100000010011
0000011111100111
0001100111101010
1111001111110001
0000100000111011
0001001001001000
1111011000111010
1111010001111000
0001100001101100
1111110001001001
1110101011001101
1111101011101011
0001111101001111
1111011110001101
1111111110010010
0000110011001110
0000001111011001
1101101001000011
1110111001100011
1111011111110001
0000001100010011
1111011010000001
0001010000010000
1101011101110000
1111010101011111
1111110011101011
1110111101111011
1101101011011101
1111110101110000
1110111111110010
1111111000110001
0001101011000100
0000010101011010
0000111100001100
0000011101100010
0001010011100100
0000100011011100
1110110001000110
0010101101100100
0000000010000010
0000110001000101
1110101111000100
0000100111100011
0001010100101011
0001000001110101
0000000000111101
0010011001010000
0000100100101010
1110101001001000
0001001110000100
0010100000010101
1110110100011001
1110010011110001
1111011000000100
0000010100011001
1111010010110111
1110111011011001
0000010001000110
1110101011001000
1111011010100110
1111010101011100
1111111010011111
1111010001011000
0001101001100001
