1111011110101001
0000010011010010
0000011010010101
0000101111111001
1111110111011011
1111111011001011
1111101011101100
1111100000001100
0000001110110111
1111110001100010
0000011111110001
1111101110000111
0000100010011010
1111100000110110
0000110010010011
0000010001001010
1111111010010011
0000000100100000
1111101111010001
1111011001111011
0000000111010010
1111100000111010
1111011000011111
0000001011001111
1111011111001100
1111111111000100
0000100011101111
0000010000100111
0000010000011011
1111011111001100
0000100101110100
1111111110001101
0000010110101111
0000010001100001
1111000011001110
1110101011100100
0000100100011100
1111001110110011
1111101001101011
0000011001000101
0000001100100000
1111110001100010
1111011011101011
1111111010101100
1111101010010000
1111101001000011
0000000001010000
0000000011001101
1111010110111001
1111001010101100
1111111000100000
0000100110001111
0000010011000101
1111110000011110
1111001011011110
1111111110000010
0000010001010001
0000000001011101
1111101110111001
1111001111010010
1111110000011000
0000101111000111
1111110011001010
0000100011001001
1111111000000011
1111111000010101
0000011110000001
1111110100011010
0000111111010000
0000001000000010
0000000000001101
1111011111101110
0000010111011001
0000011011000111
1111101010001011
1111100000111001
0000000100111111
0000101100000101
1111011111001000
0000001110001100
0000000010001100
1111111010000011
1111111001001001
0000100011000001
1111100111001101
1111101100011111
1111110100001010
1111011100100000
0000010011110110
1111111001010101
1111101111111101
1111011111100000
0000000101101011
1111101000111011
1111110110001100
1111101101001011
0000110010011000
0000010011011000
0000100110001111
1111100011000101
0000011011101110
0000010100000100
1111011110101111
1111101000100111
1111110000011100
1111010001111010
1111101100010101
1110111111011001
1111001111100010
1111101111011011
1111001100111000
0000110110011010
0000000000110110
0000001011101100
1111100110110101
0000111010000100
1111111100010110
0000000100110100
0000000011001010
1110101101000100
0000001011011101
1111010001011101
0000101111100111
0000011001010000
0000111000111101
0000110000110110
1111101101111001
1111010101100110
0000010111011010
1111000100100010
0000101100010101
0000011001000101
0000011010100100
1111101110111010
1111101101101100
0000000100100100
1111010101001001
1111110101111001
1111100111000111
1111101011110101
0000011101101010
0000000101010000
1111101011111111
1111011101100011
1110111101101010
1111100101100000
0000111001001101
0000001110100101
1111110110110000
1111101111000011
0000100100110000
0000110010111100
0001001010101010
0000001011011100
0000000000011011
0000110010111001
0000000011001101
1111111101000011
1111011010000111
0000100000101011
1111010011101110
1111110101111101
1111110011100111
1111110101011000
0000001111101110
0000010110010000
0000000110101000
0000011000011111
1111100101001011
0001001000011110
1111100001001000
0000001110011001
0000001111111110
0001000100110100
1111110011110101
1111111001011101
0000000010100110
0000110001110110
0000000011000001
1111011101000100
0000011110001010
0000010011111111
0000100001010110
1111100110011111
0000110001101110
1111101100100101
0000100001101110
1111000101101100
1111101111101011
1111111011011100
0000101010111011
1111011110000111
0000001001101101
0000011010100001
1111110101011111
0000000100010010
0000001011110011
0000010000111011
0000101011011100
1111011111001001
1111110100011111
1111101010010010
0001000111110010
1110111001010011
0000110000100101
0000011101111110
0000001100000111
0000001100011110
0000100110110010
1110110100111001
0000011001100011
1111100000111010
1111011100001010
1111000100000000
1111010011111110
0000000001000001
0000000100001110
1111111100001001
1111111011111111
1111111111001100
0000100101001100
0000011000110011
1111111110100111
1111101100111000
1111011000011001
0000000001100001
1111111011101000
0000000010110011
1111010001011000
1111100100010001
0000010001010011
0000001011111101
1111001000101101
0000000001011000
0000100101110110
1111101101001111
1111111110111001
0000000010100010
1111101101000111
1111100101101011
1111011100001011
1111111101111010
1111110100100110
1111111001000111
1111011110101100
1111110001010010
0000000111100111
1111101110010111
0000100110011010
1111110000000000
1111110110110000
1111010101110101
0000001001000101
1111110111100100
1111011001110110
0000000110000101
1111111111010001
1111110100000001
0000110001010101
1111111101111101
0000100000101100
0000100100001011
0000011110111011
0000101010110000
0000000111001100
1111001110011110
1111111111110010
1111011101011010
0000001110110000
1111100001101110
1111011111000001
1111110111010010
1111111100101011
1111100010101100
0000101001010000
1111110000011101
1111100110010000
1110100001111001
1111101111110111
1111111101111011
1111001000000100
1111101100100001
0000110111110111
0000000010001111
1111110100011111
0000000010010101
1111101011111101
0000111001000000
0000011100110011
0000101011100101
1111110111101111
0000001110011010
1111001110110111
1110110110101101
1111011100100110
1111100000100110
1111010011001010
0000000110110110
0000010001100011
0000001010011100
0000100010101001
1111111110011101
1111110000100001
1111000101111111
1111010100101000
1111101001110100
1111101100000111
1111111011100000
0000101100011000
1111110111110100
0000001010001100
1111010110010110
1111110110101100
1111110100110011
0000100111010111
0000011011101111
1111101011011110
0000010100100001
0000011101100010
0000111100011000
0000001001001101
1111011111010000
1111101011111010
1111000001111101
0000010011000101
1111111111011011
1111011110110001
1111101110011111
1111010010110010
0000010110001010
1111111011100111
1111101111001001
0000000101001111
0000001101011001
1111100000011100
1111011000100111
1111011110000101
1111111011001100
0000111110001111
1111101111111011
0001100000110010
0000000011011101
0000000011001000
0000110001100101
0000000111000010
0000110111111000
0000101110101111
0000100011011101
0000000000101110
1111011001100101
1111101000000000
1111001001011000
1111110111011011
1111101000110100
0000010100111111
0000000101111101
1111101100011011
0000000111010110
0000001100000001
0000000001011101
1111110110100010
0000011101000000
1111101111101001
1111010110100111
1111111110001111
1111101101110111
1111110010110110
0000010011010001
1111110010001001
0000001001010110
0000111111111100
0000110011001011
0000111011110111
1111110010001111
1111110010011010
0000011010111101
0000110000010010
0000001010010001
0000000011101111
1111101001101101
1111110011111000
0000010100101000
0000000111011001
0000110001111100
1111101011001110
0000010110100110
0001011011110000
0000111001000110
1111110110010001
0000000001110101
0000100011111110
1111111010000111
1111110110000111
1111111100101010
1111100111000011
0000011110011101
1111100101000100
0000101001010111
0000000011000100
0000000110111100
1111111101110011
0000001101111011
0000001110010100
0000001000011101
0000111010111101
0000111010001010
0000100101010100
1111011110011101
1111100001111101
0000101001011001
1111010101100010
1111110000010101
1111110011000101
0000001011111001
0001000010001101
0000011010000100
0000000000001100
0000010010111000
0000011110011010
1111111111101001
0001000001101110
0000001100100111
1111011011110000
1111111110111111
0001010000101000
1111111010101100
0000011011011000
1111110000000100
0000010100011001
0000101110100001
1111100000101000
1111111000100110
0000011111100000
0000101111010111
1111100101110100
0000010100011000
0001001100111111
1111000110001011
0000001101000110
0000100010100100
1111101110100011
0000001011100010
0000010010111111
1111101100000011
0000001011010000
0000101010111100
0000101100000111
1111110001011011
1111011011111100
0000010011001100
1111100110101100
0000011101101001
0000000001101010
0000100010011011
1111001011010100
0000010001100101
0000100110110001
0000010000101100
1111011100010000
0000101001010110
0000010001100101
0000110011101101
0000000110110111
0000000010001111
0000100000011101
1111101010001011
0000100111001011
1111101000001111
1111010101100010
0000010000011011
0000000011110001
0001000100000010
1111110111001101
0000101010001010
0000110011111010
1111111001011000
0001011110000110
0000001101010001
0000000010101010
1111101100101101
1111010110101111
1111110101010100
0001010011011000
1111110100110110
1111100011100101
0000001010000111
1111010010111111
1111111010000110
1110110001110110
1111100111101010
0000011010010101
1111110000010101
1110111010111001
0000011111000101
1111111111110000
0001000101011011
0000000010011110
0000100100110011
0000011001001110
0000000000101100
0000010101001010
1111100010100101
0000001010100000
1111111001111000
0000001101100111
0000010011011100
0000010010101010
0000001011011011
0000101000010011
0000111001010011
0000001000100001
1111110101010110
0000111001101101
1111010100001000
0000010101010111
0000000101101100
1111011011100000
0000100001100100
1111100101111111
1111011100100011
0000000111110100
0000101000101100
0000110000001001
0000000111000000
0000010111000011
0000010111111011
0000001100100100
0000100000000011
0000100100000000
0000010010010100
1111100001101011
0000001110100011
1111001101001000
1111110010110011
1111110011011100
1111011110011010
0000010110000010
0000101100100011
1111111100000111
0000011011111110
0000001100111000
0000001111100010
0000001011100101
1111110111100010
0000100100110000
1111011001010001
1111000011110100
0000011101111000
1110101011001101
0000010100111001
0001000000001000
0000101001000011
0000101001000111
0000011111111000
0000000011110001
0000010101110000
0000001110100001
0000011111110000
1111011100000111
0000001111110110
1111100100011001
1111111111001010
1111101110110100
0000101110000110
1111110011111110
0000010001011001
1111100101100011
0000001001010111
0000000000110111
1111100001111101
0000000010010011
1111111101101000
0000000011101000
0000010010000010
1111110100000001
1111111010010010
0000100111010101
1111011111010101
0001000001111011
0001010000110011
0000101101101010
1111110110100010
0000100111011011
0000011100100110
1111110011010101
1111011100000111
1110111100000100
0000001011101101
0000100101101001
0000000011100000
0000110111111010
0000100101110010
0000101000101000
0000011111101010
1111110100101000
1111111010110101
1111010111100001
1111101101000001
0000101001010001
1111101110011000
0000100010001011
0000001000001000
1111011011111001
1111110001011100
0000010000010010
0000001010000100
0001010101100100
0000011011101100
0000110110011010
0000011100011100
0000110111100001
0000001001001000
1111101011000011
0000000001010010
1111110111101101
1111011001110100
0000010001001001
1111100100100101
1111111111000101
1111101010110111
0000011011011101
1111101001110101
0000001110000000
1111101110100101
1111010110100000
1111101100011011
0000010001010111
1111110111010001
1111111010001011
1111110011100010
1111110111001000
0000011010001101
0000011110100001
0000010010100100
0000111111100100
0000001110110110
1111110101111000
1111111011111100
0001000101101011
0000000110100011
0001000110001011
1111100101111100
0000001010111111
0000010101100011
0000101001100111
0000110110011110
0000001010010001
0000010110101011
1111101101110001
0000111001111101
0000011110101100
1111111011101111
1111111010101100
1111101110110110
1111110100111000
1111101001101100
0000100010101110
0000010000000000
1111111001111110
0000110010101000
0000110011110110
0001011111011101
0000011010111110
0000011100011100
0000010110101101
1111011011111111
1111110000011110
0000000001011101
1111010000011000
1111000110110110
0000000011101101
1111101011011001
0000101011000010
0000000011001010
0000000101111001
0000011111110100
0000110000100000
1111111110101110
1111001110111010
1111110111101100
1111010101000001
0000001111011100
1111101101111100
1110111000001101
0000100001110010
0000000100101111
0000010011110101
0000000110011111
1111011010110100
0000100010001101
0000101011111110
1111101101000001
1111001001110001
0000001110011001
1111111101001111
1111011100000011
0000000000111111
0001000100110000
0000000110010111
1110101101110111
0000011001110010
1110111100010110
0000000101010000
0000001000010010
1111010011001011
0000001011001110
1111011011110111
0000001010010111
1111010000011101
1111001110010011
1111111111110000
1111010011000000
1111000110101011
1111111001010010
1110101110110110
1111110010011111
1111001001110001
1111101111011100
0000010110011110
0000110111110110
1111111101000100
1111110011001001
0001000111001101
0000011000001000
0000101000100010
0000001000110011
0000100100000110
1111100100101010
0000011100001001
1111010110110100
1111000110101001
0000001010100010
0000001010110011
1111110110010000
0000101010110010
0000010000111110
1111111011001000
1111100100100011
1111100110100010
0000001111111100
1111101011100110
0000100101100010
0000011011011101
1111000100001011
0000001011101111
1111001110010101
1111111100101011
0000110110100111
0000010000100011
1111101111010110
1111100101011000
1111110000011110
1111111100110100
1111010100000011
1111101010111001
0000000101011110
1111111100011101
1111110101110010
0000101001111000
0000111001110011
0000010101100010
1111110111011011
0000001010101110
1111011101000000
0000000101010000
1111110001100011
1111010111010001
0000000110010010
0000010101111011
1111101000100111
0000011110111111
0000101000000011
1111111010101101
1111010011100010
0000011101001001
0000010000110001
0000000100101010
0000101110100100
0000000111100110
0000011111010110
1111110001111010
1111110110100111
0000000010111010
0000001010111101
