0001101011010011
1111111001000100
1110111111000111
1110111111101000
1110100001100110
1111100110101111
1110011001010100
1111001010001111
1111001000101001
0000011101101010
1111111001010000
0000110000101001
1110111100101100
0000001110100100
0000110011000101
0000110111111011
0001011111111101
0000011110010110
0000100000111001
0000010010100000
1111001010000111
1101100111111011
1111110111101011
0000111110001111
1111010101101000
1111011110110111
1111111000001001
1111010001010001
0001001011011000
0000001110101101
0000101001110001
0001000000111001
1111111000000110
1101011100101011
0000000101001111
0000000111010000
1111001001101011
1111010000001000
0000111101011101
0000101000000010
0001001100110100
1111101110000001
0000010011101000
1110111100000001
1111010000110011
0010010111100011
0000010100011011
1110001000000100
1110101100011000
1101011000101111
0000101011111110
1111100110001101
1110111110111111
1110110011101000
1111001101001010
1110111110111001
0001110010001111
1110111100111011
1111010010001001
0000000010111000
1111110011100010
1111010101110100
1111111010010111
0010001100011000
0001010001100100
0000010101011010
1111110000000110
0001100111010001
0001010010010000
1110010111111011
0001000000011011
1110011101011010
1111010111001110
0001011011000011
1110111100111011
1111010000000000
1100111011100101
1111001110100100
1111101010101000
0000111101100111
1111011000100100
0001011110011011
0001010000100110
1111100001000000
1111110011001110
1111010111100110
0001001000100111
1111001010011101
1111110100001001
1111011010001110
0000011011100100
1110111111001011
1111110000010000
0010000111100111
0000001011101010
0000000110101000
1111001100101101
0000101111110000
0000010111000000
0000110001001110
0001100000100100
1111000001010010
1111001001000010
0000000010110101
1111111111001000
1111111000100011
0000100010110000
0001001100000001
1111001011110110
1111111101000111
1110111001011011
0000100111101001
1111111011111111
0001100000110110
1111001011011001
0000101100011000
0000000111110100
1110011000110101
1111101100100101
1111110110001110
1111111011010101
1111011100111111
1111011110010110
0010001001001011
0000111000100110
1111100000000011
1110111000110101
1111110101100100
1111110101110010
1111111101100111
1111111101011010
0000100001101101
1110101111110101
1111110100101000
1110010001111010
0000000110111010
0001011100001111
1110111011011011
1110110100001100
1111101110001011
0000000101100111
1111011101100001
1111110010111100
1101010101111011
0001000000110101
1101011110101101
0000100000000010
1111010000110100
1110101011101101
1111110010111101
1110110101111010
1111100001000110
0000100100110001
0000000101010110
0000001101110001
0000000110100110
1111111101000010
1111011100011011
0000111010000100
0001100010001000
1101110001111001
1111100011001011
1110111101110000
0000110110100100
0000010010011101
1111011011010101
0001000010011000
0000001100111010
0001000010111111
0000000001001110
1110010101011110
0000111011111101
1101111100101111
1110111100010101
1110100011000011
0010000000100111
0000110100110100
1111010001100100
0000100110000111
0001001111111001
0000010000001100
1110111001100000
1111100010101100
0000100101100011
0000001010111100
1111001001101100
0000001100101001
1110111110011111
0000000010110010
0001011010100100
0000110101111100
0010100011111000
0000100001000011
0000100111011110
1111010100100000
1110101100001100
0000010111001011
1110001001100101
1110101110100110
0001010110010110
0001001110010010
0000101100011101
0000101010100110
0000001000111101
0000100001011110
0000010001011001
0001001010010010
1111111001010000
0001100001010111
0000110100001000
0001001111010111
0001001011001110
1111111010101100
1111100011001011
0000000110000001
1111101100101110
0000111010101010
0001011101000010
1111101101011001
0000001001011011
1111110000100100
0000001111111101
0000000100111101
0000110011001011
1111001110100111
1110010101011111
1110101101010111
0000100110010110
0000000001100110
0000101101100110
0000001100110001
0000101101011010
1111100110000100
0001000111001001
0000111000000111
0000001001000110
1110111100001101
0000111101010001
1110111100000011
0000011001110110
0000100101101110
1111011001110100
0000111110010110
0000001111001101
0000001000010011
0000110111111000
0000101011010100
1111101000110000
1110101010110001
1110111110110110
1111000111010001
0001000010111000
1111101010100101
1111101101101001
1110011001100010
1111010001001000
0000001110010101
1101010110110000
1110110010011101
1110111110110111
1111111111011000
0000001100000000
1111111110110010
0000101000000100
0000010100100010
0000010011011000
0000000110110010
0001000100000010
0000111110010100
0000010001111011
0000010101111000
0000000000100001
1110100110010111
0000111000101001
1111101011100100
0000001100001001
1111111110000000
0000001101011100
1110100011100101
0000010101011000
0000011011111100
1111010011111000
0000110010000111
1111100000111100
0000000001000001
1111110110010111
0000011000000001
1111001101111000
0000101101111110
0001010101111111
0001000000101110
0000010111111110
1111001000010111
1110000110110001
1111010001111111
1110010111110111
0000100110101001
0000000000110111
0000110101110011
0000101010100111
1110100101000011
1111000010000010
0000101010000010
0000010110110110
0000010010101111
0001000010011111
0000000110101001
0001000011000110
0000110000010010
0001010100010000
1111000011111111
0000101101111111
0000000101001000
1110001101011001
1101011010011111
1110111001101000
1110101111100111
1111100111111001
1110101110001100
0000101001110000
1110100001010000
1110101011000001
0000000011101011
0000101010011010
1111100000101011
1111111000111001
0000001100111100
0001100011000100
1111101001101111
0000100100000110
0000111000111111
1111110111111000
1111110000011110
0000000000011001
0000100001101111
0000000101011010
0001011101011111
1111010111000011
1111011110100100
1111000001011101
0000111100000100
0010001010011100
1111111110110001
1111101010011111
0001111000001000
0000001100010011
0000110111110010
1111111000010101
1111110000010100
1110110011110111
1111011101011011
1110111001111100
0000011110100100
1110111110010001
1111101100111001
0000110010111101
0000010000111110
0000010000010101
1111100100111110
1111101000111100
1111110100000010
1111010011100110
1111101010111110
1111110001100001
0000010110100111
0000101010100101
0000001000000001
0000110100001000
0001000000111011
1111100011101101
0000011101110001
1111110110100001
1110011010100010
0001001110010010
0000011101000001
0000000110000010
1111110011011101
1111001111000001
0000100000000011
0000001110010101
1111001001000100
0000000001100001
0000000101010110
0001100001110001
1111110001001111
1111000111010001
1110011111000011
1110111101110010
0000010111100000
1111011001111010
0000010010001101
0000010110010100
1111011100011001
1110111001010001
0000000000100101
0000010101000000
1111010001100011
1101111010111110
1111101111100001
1111101000010001
0000011100111101
1111000111001011
1111101100101010
0000100101101011
0001000110000111
0001011011001011
0000110100011010
1111110000011010
0000010000111100
1110100000010000
1110011011111101
0000100111111110
0000001010001111
1111001011110100
1100111101110001
0000011101011001
1111100101000010
0001101011110000
1111010101111101
1111100111111000
0000100100110100
1111111110010100
0000100111000000
1111111101001001
1111011000000101
1111000111000000
0000001110001001
1111000100010011
0000101000011111
1110101101111111
0000000011111100
1110110010111100
0000110010001001
1111011011100011
1110010001010101
1111110001010001
0000100011111000
0000101101110110
0000011100011000
1110100000011101
0000000101011010
0000000110011010
1111000111101101
1110011010110011
1110111011001110
1111110011011110
1111101110111111
0001001011011100
1111001010010011
0000101001010011
0000111100110010
1111101100111111
0000001001111101
0001111101001100
1110100100111100
1110110001010111
0000001111010000
0000011011100010
0000011100011000
0000010100010100
1111110001101011
1110100011000011
1111111101100000
0001100010010010
0000111010101000
0000110001001101
1111010010000011
1111100000011101
0000011001100110
1111101110111100
1111010000001100
1110100000111110
0000100000110111
1111100010000010
0000100011011001
0000001110011100
1110011010111100
1111001101000110
0000101010001111
1111110001111001
1111110001110100
1111001110101001
1111100010101000
1101101011111101
0000010000010100
1101111000011110
0000111001000100
0000000110110101
0000001100101111
0001101110110001
1111001000010001
0000101001011111
0000001011111111
0000010101101001
0000011011101001
0000100101101111
0000011010011110
1110010011100011
0000011100000010
1111010100011100
1110011000110101
0000110011110111
1111000111110010
1111011111101000
1111101101011011
0000001100011001
0000010010111011
1111110010000100
1111110111001100
1110011101010011
1111010010101011
1110110001111001
0000011011110011
1110000011010011
0000111011111101
1111010110010000
0000010111011010
0010001000101101
0000001101000001
1111000011011100
1110101100001100
0000000111100011
1111101100001110
1111110101101110
0000000100110110
1110111001111100
0000011000000011
1111011010010001
0000111100101011
0000111101011101
0000101110110111
0001011011111100
0001001110010010
0000111100100010
0000000010011000
0001001100011011
1111101010010010
1111111011000010
0000011111110000
0000000101011001
1111010110111101
1101110111001011
0000010101001001
0000000111011101
1100110101101011
0000101000110001
0000000001000101
1110101100011010
0001000000110001
0001010000000010
1111000101101011
0000110101011011
1111011000010110
1110101010000110
1111101001100101
1111101101001011
1111011000101111
0001000101001010
0001111100000110
1101011111101001
0000111000001110
0000100100101001
0000111100111010
0000110110011100
0000000010001001
1111001110111100
0000011111010111
1111111110010100
0001111000000100
1111010100000010
0000011011000101
0000110011011110
0000000000001000
1111110010010001
0000011000111100
1111101000010111
0000000010000010
1111100001001011
1110100111011000
0000010100011001
1111111001101001
1111111010001001
0000011100101010
0000000100101010
0001001110010110
0001111001001001
1111001110100001
1110100011000001
0000000010101000
0000100111111111
0000010010110111
0000100111001000
1110010001100110
0001010111001000
0000001101111100
1111011010000101
0001010011100010
0010001000110111
0000000001011111
0000011111100101
0001101000011101
0000010010110101
1111011111101110
0010000100011100
0000101000000101
1110111101101000
1111101110101100
1111100011110001
0000001010011000
0000111101110010
0000110110100011
1111110000101010
0000001010011000
0000010111011011
0000001000001011
0001001111000010
0001000111001101
0000001111000010
0001110111110110
0000111000100101
1110001001001110
0001001100011011
0001001000110011
0001011011011111
1110000101010101
1111101010111011
1111101000001011
1111110001011101
1110111111000111
0001100101001010
0010001010101000
0001010011101001
0000010001011011
0001011110110010
0000010100101010
0000010100100110
1111110000111010
0000100011000000
1111111100100000
1111001101001111
1111000110110001
1111101110001111
0001100001101101
0000011000011010
1110101011000100
0000010000101010
1101111100010000
1111011111101000
1110100010100101
1111010101011101
1110101011010101
0000110110010111
1111110011100110
1110101001101010
1101011111100001
1110101110110000
0000100101001111
1111010000010010
1111101000011011
0000100110000101
0000111001110010
0000001000110011
1111110000111111
0000100001110001
1111100010011010
0001110100011010
0000100010010011
1111001101000011
0000011001110110
0000101001110100
1111001011011111
0000111010110011
0000011011010101
0001010100101010
1111110000001111
0001001100100010
0000100100010111
0000100000111010
0001000111101100
0000010110011010
0000000100110001
1110110110010101
0000010110001011
1111100010000000
1111110100110110
0000000010111111
1111100011100100
1111011100101111
0001110011001001
1111110001100000
0001000010111001
1101011000000000
1111111010100111
1101111001100001
0000010100110110
0000000111101011
0000100001011110
1111101110001101
1111110111101100
1111001111011000
1111011000001101
0001011001000000
1111001111011001
1111100111011010
1110100101010011
1111011110100100
0000100100010010
1111011101001100
1111010100111110
1111010000110011
0000001000100101
0001000001111011
1101110000110010
0000000111010001
0000010000100010
1110010001011110
1110110100011001
1111110100001111
1111001011001101
0000000100000110
0000110010110011
0000100011111001
1110101100000100
0000101111000001
0000010111010110
1111101001011000
0001000000100011
0000001000100001
1111001100000001
1111011001101011
0000101011111000
0000000011111100
0001010100011000
1111110111011010
0000000011000100
0000100001100011
1111111110000000
0000101010000111
0000111101001100
1110110111100010
0000101100000111
0000101010000011
1111010001100110
0000101010010010
1110111000000011
1110011001001001
0000011000110000
1111011101101100
0000001001100010
0000011100100111
0000000011100111
0000000001010101
0000001101100001
1111100110101100
1110101100101011
0001101001010000
1110100011001101
1110011101001101
1111101110101110
1101000010110011
0000100010111001
1110110111010010
0000001100110001
0000011001010100
0001001011100110
1111000011000011
1111110101111100
1111111101001101
1111100011001101
1111011100001110
0001011001101010
0000010100001010
1110011101011101
0000001010100000
0000010001111101
0000001000101010
0000000001111110
1111111011011001
1111010010011011
0000001111111100
1111000011100101
0000110000101100
1111110110001101
1110111011110101
